{
    "<eos>": 0,
    "<pad>": 1,
    "<bos>": 2,
    "HC+": 3,
    "HC/o7": 4,
    "HCD7": 5,
    "HCM": 6,
    "HCM7": 7,
    "HCm": 8,
    "HCm7": 9,
    "HCo": 10,
    "HCo7": 11,
    "HCsus2": 12,
    "HCsus4": 13,
    "Hd+": 14,
    "Hd/o7": 15,
    "HdD7": 16,
    "HdM": 17,
    "HdM7": 18,
    "Hdm": 19,
    "Hdm7": 20,
    "Hdo": 21,
    "Hdo7": 22,
    "Hdsus2": 23,
    "Hdsus4": 24,
    "HD+": 25,
    "HD/o7": 26,
    "HDD7": 27,
    "HDM": 28,
    "HDM7": 29,
    "HDm": 30,
    "HDm7": 31,
    "HDo": 32,
    "HDo7": 33,
    "HDsus2": 34,
    "HDsus4": 35,
    "He+": 36,
    "He/o7": 37,
    "HeD7": 38,
    "HeM": 39,
    "HeM7": 40,
    "Hem": 41,
    "Hem7": 42,
    "Heo": 43,
    "Heo7": 44,
    "Hesus2": 45,
    "Hesus4": 46,
    "HE+": 47,
    "HE/o7": 48,
    "HED7": 49,
    "HEM": 50,
    "HEM7": 51,
    "HEm": 52,
    "HEm7": 53,
    "HEo": 54,
    "HEo7": 55,
    "HEsus2": 56,
    "HEsus4": 57,
    "HF+": 58,
    "HF/o7": 59,
    "HFD7": 60,
    "HFM": 61,
    "HFM7": 62,
    "HFm": 63,
    "HFm7": 64,
    "HFo": 65,
    "HFo7": 66,
    "HFsus2": 67,
    "HFsus4": 68,
    "Hg+": 69,
    "Hg/o7": 70,
    "HgD7": 71,
    "HgM": 72,
    "HgM7": 73,
    "Hgm": 74,
    "Hgm7": 75,
    "Hgo": 76,
    "Hgo7": 77,
    "Hgsus2": 78,
    "Hgsus4": 79,
    "HG+": 80,
    "HG/o7": 81,
    "HGD7": 82,
    "HGM": 83,
    "HGM7": 84,
    "HGm": 85,
    "HGm7": 86,
    "HGo": 87,
    "HGo7": 88,
    "HGsus2": 89,
    "HGsus4": 90,
    "Ha+": 91,
    "Ha/o7": 92,
    "HaD7": 93,
    "HaM": 94,
    "HaM7": 95,
    "Ham": 96,
    "Ham7": 97,
    "Hao": 98,
    "Hao7": 99,
    "Hasus2": 100,
    "Hasus4": 101,
    "HA+": 102,
    "HA/o7": 103,
    "HAD7": 104,
    "HAM": 105,
    "HAM7": 106,
    "HAm": 107,
    "HAm7": 108,
    "HAo": 109,
    "HAo7": 110,
    "HAsus2": 111,
    "HAsus4": 112,
    "Hb+": 113,
    "Hb/o7": 114,
    "HbD7": 115,
    "HbM": 116,
    "HbM7": 117,
    "Hbm": 118,
    "Hbm7": 119,
    "Hbo": 120,
    "Hbo7": 121,
    "Hbsus2": 122,
    "Hbsus4": 123,
    "HB+": 124,
    "HB/o7": 125,
    "HBD7": 126,
    "HBM": 127,
    "HBM7": 128,
    "HBm": 129,
    "HBm7": 130,
    "HBo": 131,
    "HBo7": 132,
    "HBsus2": 133,
    "HBsus4": 134,
    "HNA": 135,
    "HCMHCM": 136,
    "HNAHNA": 137,
    "HDMHDM": 138,
    "HGMHGM": 139,
    "HFMHFM": 140,
    "HbMHbM": 141,
    "HeMHeM": 142,
    "HAMHAM": 143,
    "HEMHEM": 144,
    "HDmHDm": 145,
    "HCmHCm": 146,
    "HGmHGm": 147,
    "HAmHAm": 148,
    "HNAHNAHNAHNA": 149,
    "HEmHEm": 150,
    "HaMHaM": 151,
    "HdMHdM": 152,
    "HBMHBM": 153,
    "HCMHFM": 154,
    "HFmHFm": 155,
    "HCMHGM": 156,
    "HCMHCMHCMHCM": 157,
    "HgMHgM": 158,
    "HDMHGM": 159,
    "HDMHDMHDMHDM": 160,
    "HBmHBm": 161,
    "HbMHFM": 162,
    "HDMHAM": 163,
    "HGMHGMHGMHGM": 164,
    "HbMHeM": 165,
    "HFMHFMHFMHFM": 166,
    "HNAHNAHNAHNAHNAHNAHNAHNA": 167,
    "HbmHbm": 168,
    "HgmHgm": 169,
    "HDm7HDm7": 170,
    "HaMHeM": 171,
    "HGMHCM": 172,
    "HCM7HCM7": 173,
    "HCm7HCm7": 174,
    "HCMHCMHCM": 175,
    "HFMHCM": 176,
    "HEMHAM": 177,
    "HAm7HAm7": 178,
    "HdmHdm": 179,
    "HemHem": 180,
    "HbMHbMHbMHbM": 181,
    "HeMHeMHeMHeM": 182,
    "HFM7HFM7": 183,
    "HGm7HGm7": 184,
    "HEMHEMHEMHEM": 185,
    "HEm7HEm7": 186,
    "HGMHGMHGM": 187,
    "HFMHGM": 188,
    "HAMHAMHAMHAM": 189,
    "HDMHDMHDM": 190,
    "HCMHDM": 191,
    "HFMHFMHFM": 192,
    "HGMHDM": 193,
    "HAMHDM": 194,
    "HbM7HbM7": 195,
    "HCMHAm": 196,
    "HDmHDmHDmHDm": 197,
    "HGmHeM": 198,
    "HDM7HDM7": 199,
    "HFMHbM": 200,
    "HFMHDm": 201,
    "HeMHeMHeM": 202,
    "HeM7HeM7": 203,
    "HCMHDm": 204,
    "HEMHBM": 205,
    "HFm7HFm7": 206,
    "HamHam": 207,
    "HNAHNAHNA": 208,
    "HCmHeM": 209,
    "HGM7HGM7": 210,
    "HAmHFM": 211,
    "HCmHCmHCmHCm": 212,
    "HbMHCM": 213,
    "HDmHDM": 214,
    "HeMHbM": 215,
    "HAmHGM": 216,
    "HCMHNA": 217,
    "HCMHEm": 218,
    "HBm7HBm7": 219,
    "HaMHdM": 220,
    "HGmHFM": 221,
    "HGD7HGD7": 222,
    "HbMHbMHbM": 223,
    "HGmHGmHGmHGm": 224,
    "HAmHAmHAmHAm": 225,
    "HAMHAMHAM": 226,
    "HGMHAM": 227,
    "HGMHEm": 228,
    "HEmHEmHEmHEm": 229,
    "HD+HD+": 230,
    "HDmHbM": 231,
    "HDMHNA": 232,
    "HEoHEo": 233,
    "HDoHDo": 234,
    "HCmHaM": 235,
    "HGmHGM": 236,
    "HeMHFM": 237,
    "HDMHBm": 238,
    "HgMHdM": 239,
    "HEMHAm": 240,
    "HAMHDm": 241,
    "HBoHBo": 242,
    "HaM7HaM7": 243,
    "HDMHEM": 244,
    "HFmHdM": 245,
    "HGMHCm": 246,
    "HCD7HCD7": 247,
    "HDMHEm": 248,
    "HDMHGm": 249,
    "HNAHNAHNAHNAHNAHNAHNAHNAHNAHNAHNAHNAHNAHNAHNAHNA": 250,
    "HGMHNA": 251,
    "HbMHGm": 252,
    "HCMHCM7": 253,
    "HCoHCo": 254,
    "HDmHDmHDm": 255,
    "HCsus2HCsus2": 256,
    "HaMHaMHaMHaM": 257,
    "HdoHdo": 258,
    "HEMHEm": 259,
    "HCMHAm7": 260,
    "HCMHCm": 261,
    "HFmHeM": 262,
    "HFMHNA": 263,
    "HAMHEM": 264,
    "Hbm7Hbm7": 265,
    "HdM7HdM7": 266,
    "HGmHDm": 267,
    "HAmHAM": 268,
    "HCmHbM": 269,
    "HAmHDm": 270,
    "HEMHEMHEM": 271,
    "HeMHaM": 272,
    "HAmHEm": 273,
    "HCMHFM7": 274,
    "HBmHGM": 275,
    "Hgm7Hgm7": 276,
    "HAD7HAD7": 277,
    "HCMHbM": 278,
    "HCmHGm": 279,
    "HDD7HDD7": 280,
    "HFMHDm7": 281,
    "HCmHCm7": 282,
    "HaMHbM": 283,
    "HAmHAm7": 284,
    "HAoHAo": 285,
    "HDmHDm7": 286,
    "HCMHDm7": 287,
    "HDsus2HDsus2": 288,
    "HEMHNA": 289,
    "HGMHFM": 290,
    "HFD7HFD7": 291,
    "HgMHBM": 292,
    "HAM7HAM7": 293,
    "HC+HC+": 294,
    "HCmHFm": 295,
    "HAMHNA": 296,
    "HdMHdMHdMHdM": 297,
    "HGmHGm7": 298,
    "HFMHFM7": 299,
    "HbMHNA": 300,
    "HCMHFm": 301,
    "HBMHBMHBMHBM": 302,
    "HEmHEmHEm": 303,
    "HDMHDM7": 304,
    "HCMHAM": 305,
    "HDMHDm": 306,
    "HbMHGm7": 307,
    "HFmHFmHFmHFm": 308,
    "HGMHGM7": 309,
    "HGoHGo": 310,
    "HFsus2HFsus2": 311,
    "HBMHEM": 312,
    "HCMHCMHCMHCMHCMHCMHCMHCM": 313,
    "HgoHgo": 314,
    "HbMHbM7": 315,
    "HFoHFo": 316,
    "HEM7HEM7": 317,
    "HBMHEm": 318,
    "Hd+Hd+": 319,
    "HBmHAM": 320,
    "HGsus2HGsus2": 321,
    "HGmHGmHGm": 322,
    "HAmHFM7": 323,
    "HbD7HbD7": 324,
    "HDmHFM": 325,
    "HeM7HeM": 326,
    "HCMHEM": 327,
    "HGMHeM": 328,
    "HGMHEm7": 329,
    "HaMHFm": 330,
    "HDMHgm": 331,
    "HCmHaM7": 332,
    "HBmHEm": 333,
    "HDMHBm7": 334,
    "HCMHCsus2": 335,
    "HCMHeM": 336,
    "HED7HED7": 337,
    "HgM7HgM7": 338,
    "HbMHDm": 339,
    "HAmHDm7": 340,
    "HgMHgMHgMHgM": 341,
    "HdMHeM": 342,
    "HCD7HFM": 343,
    "HDMHGM7": 344,
    "HEm7HEm": 345,
    "Hem7Hem7": 346,
    "HDMHCM": 347,
    "HBMHAM": 348,
    "HCmHFM": 349,
    "HGmHeM7": 350,
    "HCm7HeM": 351,
    "HFmHFM": 352,
    "HDmHGM": 353,
    "HCMHGD7": 354,
    "HDD7HGM": 355,
    "HdMHdMHdM": 356,
    "HbM7HFM": 357,
    "HGmHbM": 358,
    "HCmHCmHCm": 359,
    "Hdm7Hdm7": 360,
    "HCMHCMHFM": 361,
    "HDMHFM": 362,
    "HDMHDMHDMHDMHDMHDMHDMHDM": 363,
    "HFm7HeM": 364,
    "HCMHFMHFM": 365,
    "HaMHaMHaM": 366,
    "HeoHeo": 367,
    "HdMHaM": 368,
    "HeD7HeD7": 369,
    "HAMHFM": 370,
    "He+He+": 371,
    "HGm7HFM": 372,
    "HAmHAmHAm": 373,
    "HNAHeM": 374,
    "HCMHGm": 375,
    "HCm7HFM": 376,
    "HDMHEm7": 377,
    "HAMHgm": 378,
    "HDmHbM7": 379,
    "HGMHCM7": 380,
    "HDMHbM": 381,
    "HbD7HeM": 382,
    "HAmHDM": 383,
    "HCMHFMHCMHFM": 384,
    "HGMHAm7": 385,
    "HAsus2HAsus2": 386,
    "HFmHFm7": 387,
    "HCm7HbM": 388,
    "HGMHCMHGM": 389,
    "HEsus2HEsus2": 390,
    "Hbsus2Hbsus2": 391,
    "HDmHGm7": 392,
    "HaM7HeM": 393,
    "HNAHFM": 394,
    "HBMHgM": 395,
    "HaoHao": 396,
    "HCmHFm7": 397,
    "HCMHGm7": 398,
    "HdMHgM": 399,
    "HEMHdm": 400,
    "HEMHgM": 401,
    "HFM7HFM": 402,
    "HGMHCMHCM": 403,
    "HCMHEm7": 404,
    "HDMHDsus2": 405,
    "HBMHNA": 406,
    "HBmHBmHBmHBm": 407,
    "HGMHEM": 408,
    "HCMHaM": 409,
    "HGMHGm": 410,
    "HGMHGMHGMHGMHGMHGMHGMHGM": 411,
    "HbMHD+": 412,
    "HGMHGsus2": 413,
    "HBM7HBM7": 414,
    "HDMHGMHGM": 415,
    "HaMHbm": 416,
    "HFMHeM": 417,
    "HCMHGMHGM": 418,
    "HDmHAm": 419,
    "HFD7HbM": 420,
    "HFmHbM": 421,
    "HCM7HEm": 422,
    "HBmHBm7": 423,
    "HDMHD+": 424,
    "HEmHAM": 425,
    "Ham7Ham7": 426,
    "HCM7HAm7": 427,
    "HaMHFm7": 428,
    "HCMHC+": 429,
    "HDMHDm7": 430,
    "HGMHBm": 431,
    "HBMHBMHBM": 432,
    "HdMHbm": 433,
    "HgMHNA": 434,
    "HDMHAm7": 435,
    "HaMHNA": 436,
    "HEMHgm": 437,
    "HCMHGMHCMHGM": 438,
    "HCMHBo": 439,
    "HBD7HBD7": 440,
    "HGmHCm7": 441,
    "HCMHCm7": 442,
    "HGMHAm": 443,
    "HBmHBM": 444,
    "HBmHGM7": 445,
    "HboHbo": 446,
    "HbMHeM7": 447,
    "HAD7HDm": 448,
    "Hesus2Hesus2": 449,
    "HdMHNA": 450,
    "HaMHaM7": 451,
    "HEMHDM": 452,
    "HFmHdM7": 453,
    "HDoHeM": 454,
    "HGMHDMHGM": 455,
    "HEm7HAM": 456,
    "HbMHbMHeM": 457,
    "HBmHgm": 458,
    "HDMHAD7": 459,
    "HGm7HeM": 460,
    "HdmHAM": 461,
    "HDmHGm": 462,
    "HED7HAM": 463,
    "HFMHFMHFMHFMHFMHFMHFMHFM": 464,
    "HDMHeM": 465,
    "HFMHAm": 466,
    "HDD7HGm": 467,
    "HFm7HbM": 468,
    "HFMHEm": 469,
    "HgmHgmHgmHgm": 470,
    "HFM7HDm7": 471,
    "HAoHGm": 472,
    "HaMHFM": 473,
    "HCMHBM": 474,
    "HGMHGm7": 475,
    "HGMHGD7": 476,
    "HGMHBM": 477,
    "HAMHAm": 478,
    "HCm7HaM7": 479,
    "HBMHdM": 480,
    "HFMHEM": 481,
    "HEmHAm7": 482,
    "HDMHBM": 483,
    "HFmHbm": 484,
    "HemHemHemHem": 485,
    "HDMHDMHAM": 486,
    "HbMHDm7": 487,
    "HbMHCm": 488,
    "HaMHgM": 489,
    "HEm7HAm7": 490,
    "HDMHgM": 491,
    "HbmHbmHbmHbm": 492,
    "HgMHgMHgM": 493,
    "HNAHNAHNAHNAHNAHNAHNAHNAHNAHNAHNAHNAHNAHNAHNAHNAHNAHNAHNAHNAHNAHNAHNAHNAHNAHNAHNAHNAHNAHNAHNAHNA": 494,
    "HaMHCm": 495,
    "HD+HeM": 496,
    "HAM7HAM": 497,
    "HGMHDm7": 498,
    "HAmHEM": 499,
    "HGMHbM": 500,
    "HCMHBm": 501,
    "HCMHCMHCMHCMHCMHCM": 502,
    "HGm7HeM7": 503,
    "HFmHFmHFm": 504,
    "HemHeM": 505,
    "HDm7HDm": 506,
    "HGMHgm": 507,
    "HFsus2HFM": 508,
    "HDMHGMHDMHGM": 509,
    "HCM7HCM7HCM7HCM7": 510,
    "HEoHDm": 511,
    "HDMHdo": 512,
    "HDm7HDm7HDm7HDm7": 513,
    "HGD7HCm": 514,
    "Hbm7HeM": 515,
    "HCM7HFM7": 516,
    "HDMHCsus2": 517,
    "HGmHCm": 518,
    "HbMHbm": 519,
    "HFmHCm": 520,
    "HdMHFM": 521,
    "HEMHEMHEMHEMHEMHEMHEMHEM": 522,
    "HbM7HGm7": 523,
    "HGMHDm": 524,
    "Hasus2Hasus2": 525,
    "HGMHDMHDM": 526,
    "HCm7HCm7HCm7HCm7": 527,
    "HAm7HFM7": 528,
    "HNAHAM": 529,
    "HdMHgm": 530,
    "HGMHdo": 531,
    "HbM7HbM": 532,
    "HBm7HAM": 533,
    "HAm7HDm": 534,
    "HbmHgM": 535,
    "HGmHDm7": 536,
    "HDM7HAM": 537,
    "HAm7HDm7": 538,
    "HGMHgM": 539,
    "HdMHdM7": 540,
    "HCMHCD7": 541,
    "HgoHEm": 542,
    "HbM7HDm7": 543,
    "HbMHFMHbMHFM": 544,
    "HEMHam": 545,
    "HAm7HFM": 546,
    "HEm7HCM7": 547,
    "HEMHEsus2": 548,
    "HGMHBm7": 549,
    "HAmHCM7": 550,
    "HAmHNA": 551,
    "HDMHgm7": 552,
    "HeMHeM7": 553,
    "HbMHAM": 554,
    "HEmHEM": 555,
    "HeMHeMHeMHeMHeMHeMHeMHeM": 556,
    "HEm7HEm7HEm7HEm7": 557,
    "HDMHDMHDMHDMHDMHDM": 558,
    "HDMHDD7": 559,
    "HbMHCm7": 560,
    "HbmHFM": 561,
    "Hd+HAM": 562,
    "HDMHAMHDMHAM": 563,
    "HFmHbm7": 564,
    "HDmHNA": 565,
    "HdmHdmHdmHdm": 566,
    "HDm7HFM": 567,
    "HgMHem": 568,
    "HAmHCM": 569,
    "HAmHBo": 570,
    "HEoHFM": 571,
    "HBmHEm7": 572,
    "HDoHCm": 573,
    "HbMHaM": 574,
    "HbMHbMHbMHbMHbMHbMHbMHbM": 575,
    "HgMHgm": 576,
    "HCMHCMHGMHGM": 577,
    "HDMHdM": 578,
    "HAMHBM": 579,
    "HBmHEM": 580,
    "HCMHCMHFMHFM": 581,
    "HbMHeMHbMHeM": 582,
    "HEmHEm7": 583,
    "HD+HbM": 584,
    "HCmHCM": 585,
    "HDmHAM": 586,
    "HaMHC+": 587,
    "HCMHgo": 588,
    "HeM7HCm7": 589,
    "HCMHGM7": 590,
    "HdMHbM": 591,
    "HGm7HCm7": 592,
    "HCMHFsus2": 593,
    "HGMHCsus2": 594,
    "HEMHdm7": 595,
    "HDMHAMHAM": 596,
    "HFm7HFM": 597,
    "HGmHNA": 598,
    "HEMHgm7": 599,
    "HGMHaM": 600,
    "HbMHbMHFM": 601,
    "HEMHEM7": 602,
    "HCM7HDm7": 603,
    "Hesus2HeM": 604,
    "HFmHaM": 605,
    "HgmHgm7": 606,
    "HBmHgM": 607,
    "HD+HGm": 608,
    "HCmHNA": 609,
    "HCMHEo": 610,
    "HDMHCM7": 611,
    "HbMHFMHFM": 612,
    "HdMHbm7": 613,
    "HED7HAm": 614,
    "HEMHEm7": 615,
    "HAMHgm7": 616,
    "HAMHAMHAMHAMHAMHAMHAMHAM": 617,
    "HGm7HGm": 618,
    "HDmHDo": 619,
    "HeMHNA": 620,
    "HDMHGsus2": 621,
    "HeMHCm7": 622,
    "HdmHgm": 623,
    "HCMHCo": 624,
    "HFMHAM": 625,
    "HFMHCMHFM": 626,
    "HAm7HAm7HAm7HAm7": 627,
    "HdmHBM": 628,
    "HDMHAm": 629,
    "HGMHFsus2": 630,
    "HCmHCo": 631,
    "HaM7HaM": 632,
    "HNAHNAHNAHNAHNA": 633,
    "HemHBM": 634,
    "HEMHAM7": 635,
    "HbmHbmHbm": 636,
    "HbMHeMHeM": 637,
    "HCmHGm7": 638,
    "HBsus2HBsus2": 639,
    "HdmHdM": 640,
    "HDmHDmHDmHDmHDmHDmHDmHDm": 641,
    "HCMHdM": 642,
    "HbMHbsus2": 643,
    "HEmHBm": 644,
    "HeMHGm": 645,
    "HEmHCM7": 646,
    "HFM7HDm": 647,
    "HEmHAm": 648,
    "HGm7HDm7": 649,
    "HCmHeM7": 650,
    "HFMHGm": 651,
    "HDM7HBm7": 652,
    "HCmHGM": 653,
    "HAm7HAM": 654,
    "HCMHDo": 655,
    "HaMHam": 656,
    "HaMHbm7": 657,
    "HgmHgmHgm": 658,
    "HCMHDsus2": 659,
    "HFM7HFM7HFM7HFM7": 660,
    "HEmHNA": 661,
    "HemHdM": 662,
    "HbM7HDm": 663,
    "HDMHd+": 664,
    "HAsus2HAM": 665,
    "HF+HF+": 666,
    "HCMHCMHCMHFM": 667,
    "HEMHEMHAM": 668,
    "HEmHdo": 669,
    "HAm7HAm": 670,
    "HaMHCm7": 671,
    "HEmHGM": 672,
    "HgmHAM": 673,
    "HGMHGMHGMHGMHGMHGM": 674,
    "HaD7HaD7": 675,
    "HgD7HgD7": 676,
    "HaMHeMHeM": 677,
    "HGm7HbM": 678,
    "HFMHFMHFMHFMHFM": 679,
    "HbM7HbM7HbM7HbM7": 680,
    "HGm7HGm7HGm7HGm7": 681,
    "HCMHDD7": 682,
    "HBm7HGM7": 683,
    "HDsus2HAM": 684,
    "HAmHGm": 685,
    "HBmHBmHBm": 686,
    "HDMHGmHGm": 687,
    "HEMHAMHAM": 688,
    "HNAHGM": 689,
    "HEm7HDm7": 690,
    "HeMHCm": 691,
    "HCMHGsus2": 692,
    "HEMHdM": 693,
    "HEMHAMHEMHAM": 694,
    "Hbsus2HFM": 695,
    "HDmHEm": 696,
    "HDMHdm": 697,
    "HDmHDsus2": 698,
    "Hdsus2Hdsus2": 699,
    "HCmHAo": 700,
    "HbMHEo": 701,
    "HDMHDMHGMHGM": 702,
    "HDm7HDm7HDm7": 703,
    "HDmHBo": 704,
    "HFmHCm7": 705,
    "HaM7HFm7": 706,
    "HBm7HEm7": 707,
    "HFmHDo": 708,
    "HeMHdM": 709,
    "HaMHDo": 710,
    "HDM7HGM7": 711,
    "HGMHBo": 712,
    "HFMHCMHCM": 713,
    "HG+HG+": 714,
    "HFMHFMHFMHFMHFMHFM": 715,
    "HbM7HGm": 716,
    "HbMHgM": 717,
    "HbMHbMHFMHFM": 718,
    "HDM7Hgm": 719,
    "HemHem7": 720,
    "HCM7HCM": 721,
    "HbmHbm7": 722,
    "HAmHEm7": 723,
    "HeM7HFM": 724,
    "HDmHeM": 725,
    "HDmHCM": 726,
    "HBm7HEm": 727,
    "HGMHgo": 728,
    "HD+HFM": 729,
    "HCm7HCm": 730,
    "HGMHFM7": 731,
    "HBD7HEm": 732,
    "HNAHEM": 733,
    "HeD7HaM": 734,
    "Hdm7HAM": 735,
    "HCMHDMHGM": 736,
    "HNAHbM": 737,
    "HaMHeMHaMHeM": 738,
    "HdmHdmHdm": 739,
    "HFmHC+": 740,
    "HbMHeMHbM": 741,
    "HEMHDsus2": 742,
    "HDMHgo": 743,
    "HFm7HaM": 744,
    "HeMHeMHeMHeMHeM": 745,
    "HbmHdM": 746,
    "HamHamHamHam": 747,
    "HamHgM": 748,
    "HEMHFM": 749,
    "HAm7HEm": 750,
    "HGD7HBo": 751,
    "HGMHFMHGM": 752,
    "HFD7HFM": 753,
    "HDD7HGM7": 754,
    "HCM7HFM": 755,
    "HCmHCsus2": 756,
    "HCm7HGm": 757,
    "HFmHGo": 758,
    "HGMHeM7": 759,
    "HFMHFMHbM": 760,
    "HAmHgo": 761,
    "HCMHbM7": 762,
    "HbMHFMHbM": 763,
    "HdmHAM7": 764,
    "HdD7HdD7": 765,
    "HCMHbsus2": 766,
    "HAD7HAM": 767,
    "HbmHeM": 768,
    "HCMHaM7": 769,
    "HCm7HFm7": 770,
    "HbM7HeM": 771,
    "HgMHAM": 772,
    "HEm7HFM7": 773,
    "HBmHdo": 774,
    "HdM7Hbm7": 775,
    "HdMHAM": 776,
    "HGmHFm": 777,
    "HDMHDMHGM": 778,
    "HC+HeM": 779,
    "HFMHFsus2": 780,
    "HCmHDo": 781,
    "HgM7HgM": 782,
    "HBmHD+": 783,
    "HaoHAM": 784,
    "HEMHBm": 785,
    "HDMHDo": 786,
    "HFm7Hbm7": 787,
    "HCmHCmHCmHCmHCmHCmHCmHCm": 788,
    "HGM7HEm7": 789,
    "HamHBM": 790,
    "HBm7HCM7": 791,
    "HDmHD+": 792,
    "HbM7HAm7": 793,
    "Ha+Ha+": 794,
    "Hdsus4Hdsus4": 795,
    "HFM7HBo": 796,
    "HDMHEo": 797,
    "HAmHbM": 798,
    "HCD7HFm": 799,
    "Hb+Hb+": 800,
    "HAmHAo": 801,
    "HNAHNAHNAHNAHNAHNA": 802,
    "HEMHaM": 803,
    "HemHgM": 804,
    "HGD7HCM7": 805,
    "Hgm7HAM": 806,
    "HEMHeM": 807,
    "HGmHEo": 808,
    "HGMHD+": 809,
    "Hgsus2Hgsus2": 810,
    "HeM7HbM": 811,
    "HDM7HDM7HDM7HDM7": 812,
    "HNAHDM": 813,
    "HemHbm": 814,
    "HFm7HdM": 815,
    "HGMHDM7": 816,
    "HbMHbMHeMHeM": 817,
    "HAmHBm": 818,
    "HCMHCMHCM7": 819,
    "HbM7HEo": 820,
    "HEmHCM": 821,
    "HaMHdM7": 822,
    "HFMHBo": 823,
    "HGm7HDm": 824,
    "HFmHNA": 825,
    "HEmHEmHEmHEmHEmHEmHEmHEm": 826,
    "HCD7HFMHFM": 827,
    "HeM7HDm7": 828,
    "HDMHDMHDMHDMHDM": 829,
    "HCMHCMHNA": 830,
    "HGM7HAM": 831,
    "HGMHDsus2": 832,
    "HAm7HAm7HAm7": 833,
    "HgMHem7": 834,
    "Hesus2HbM": 835,
    "HAmHAmHAmHAmHAmHAmHAmHAm": 836,
    "HBMHBm": 837,
    "HaMHGm": 838,
    "HGoHFM": 839,
    "HFm7HdM7": 840,
    "HGMHAD7": 841,
    "HCMHCMHCMHGM": 842,
    "HgMHaM": 843,
    "HemHBM7": 844,
    "HDm7HFM7": 845,
    "HDD7HGMHGM": 846,
    "HamHeM": 847,
    "HCM7HCM7HCM7": 848,
    "HdmHgm7": 849,
    "HGMHCMHFM": 850,
    "HGmHAM": 851,
    "HE+HE+": 852,
    "HBm7Hgm": 853,
    "HDMHGm7": 854,
    "HDMHDMHDMHGM": 855,
    "HGM7HGM7HGM7HGM7": 856,
    "HDM7HDM": 857,
    "HbmHgM7": 858,
    "HeM7HGm": 859,
    "HCMHD+": 860,
    "HEMHED7": 861,
    "HFm7HFm7HFm7HFm7": 862,
    "HAMHAMHAMHAMHAM": 863,
    "HFMHDM": 864,
    "HGM7HEm": 865,
    "HbmHbM": 866,
    "HemHbM": 867,
    "HeM7HaM7": 868,
    "HGM7HCM7": 869,
    "HEMHCM7": 870,
    "HgmHgM": 871,
    "HBmHDM": 872,
    "HGmHDM": 873,
    "HAoHbM": 874,
    "HEmHDM": 875,
    "HEmHEo": 876,
    "HDmHFM7": 877,
    "HCMHCMHCMHCMHCM": 878,
    "HDm7HGD7": 879,
    "HCMHDmHDm": 880,
    "HBmHNA": 881,
    "He+HeM": 882,
    "HFM7HFM7HFM7": 883,
    "HDmHCm": 884,
    "HGmHGmHGmHGmHGmHGmHGmHGm": 885,
    "HdM7HdM": 886,
    "HGMHCmHCm": 887,
    "HCMHbMHCM": 888,
    "HCMHGo": 889,
    "HDMHDMHAMHAM": 890,
    "HGMHEo": 891,
    "HFMHFMHGMHGM": 892,
    "HCMHDMHDM": 893,
    "HDmHGD7": 894,
    "HFmHaM7": 895,
    "HFMHGD7": 896,
    "HbM7HFM7": 897,
    "HA+HA+": 898,
    "HgMHFM": 899,
    "HdmHdm7": 900,
    "Ham7HBM": 901,
    "HaM7HGm7": 902,
    "HaMHasus2": 903,
    "HDm7HGm7": 904,
    "HbM7HCm7": 905,
    "HbM7HeM7": 906,
    "HDmHEo": 907,
    "HGMHDo": 908,
    "HC+HFM": 909,
    "HAoHeM": 910,
    "HDMHAMHDM": 911,
    "HEmHFM": 912,
    "HaMHdm": 913,
    "HDM7Hgm7": 914,
    "HGmHGsus2": 915,
    "HDmHEM": 916,
    "HGmHD+": 917,
    "HAMHAm7": 918,
    "HgMHeM": 919,
    "HDM7HBm": 920,
    "HFm7HFm": 921,
    "HbMHDM": 922,
    "HGm7HFM7": 923,
    "HBMHe+": 924,
    "HEMHeo": 925,
    "HAmHC+": 926,
    "HCmHGMHCm": 927,
    "HFMHdM": 928,
    "HeMHeMHbM": 929,
    "HAm7HCM7": 930,
    "HDMHDMHNA": 931,
    "HbmHFm": 932,
    "HGm7HCD7": 933,
    "HaMHaMHeM": 934,
    "HNAHNAHNAHNAHNAHNAHNA": 935,
    "HEsus2HEm": 936,
    "HBMHdm7": 937,
    "HFsus2HGm7": 938,
    "HGMHAMHDM": 939,
    "HCMHCMHCMHCMHCMHCMHCM": 940,
    "HGmHGo": 941,
    "HCMHCMHAm": 942,
    "HgM7HdM": 943,
    "HFsus2HeM": 944,
    "HEoHAM": 945,
    "HEMHBMHEMHBM": 946,
    "HDmHAm7": 947,
    "Hasus2HeM": 948,
    "HGmHAo": 949,
    "HCMHCmHCm": 950,
    "Hbsus2HeM": 951,
    "HCm7HCm7HCm7": 952,
    "HCMHCsus4": 953,
    "HCMHDMHCMHDM": 954,
    "HGM7HGM": 955,
    "HNAHBM": 956,
    "HDMHBo": 957,
    "Hesus2HFM": 958,
    "Hbsus2HbM": 959,
    "HbmHem7": 960,
    "HAMHDMHDM": 961,
    "HaM7HbM": 962,
    "HDmHEm7": 963,
    "HdmHam": 964,
    "HDMHAsus2": 965,
    "HDM7HDMHDM": 966,
    "HCMHAmHCMHAm": 967,
    "HCmHDM": 968,
    "HCmHC+": 969,
    "HBMHgm": 970,
    "HgMHgM7": 971,
    "HAMHd+": 972,
    "HCMHNAHNA": 973,
    "HeM7HeM7HeM7HeM7": 974,
    "HeM7HGm7": 975,
    "HBm7HBm7HBm7HBm7": 976,
    "HCsus2HFM": 977,
    "HAmHAsus2": 978,
    "HbMHFM7": 979,
    "HeMHeMHeMHeMHeMHeM": 980,
    "HAMHAM7": 981,
    "HdMHFm": 982,
    "HBm7HBm": 983,
    "HDsus4HDsus4": 984,
    "HDMHDMHDMHDMHDMHDMHDM": 985,
    "HGmHFMHGmHFM": 986,
    "HEMHEMHEMHEMHEMHEM": 987,
    "HbMHbMHbMHbMHbMHbM": 988,
    "HCm7HaM": 989,
    "HDMHbM7": 990,
    "HAMHAMHAMHAMHAMHAM": 991,
    "HdM7HeM": 992,
    "HEm7HGM": 993,
    "HEMHAsus2": 994,
    "HFMHFm": 995,
    "HFm7HGm7": 996,
    "HCoHCoHCoHCo": 997,
    "HDMHDmHDM": 998,
    "HEm7HBo": 999,
    "0": "<eos>",
    "1": "<pad>",
    "2": "<bos>",
    "3": "HC+",
    "4": "HC/o7",
    "5": "HCD7",
    "6": "HCM",
    "7": "HCM7",
    "8": "HCm",
    "9": "HCm7",
    "10": "HCo",
    "11": "HCo7",
    "12": "HCsus2",
    "13": "HCsus4",
    "14": "Hd+",
    "15": "Hd/o7",
    "16": "HdD7",
    "17": "HdM",
    "18": "HdM7",
    "19": "Hdm",
    "20": "Hdm7",
    "21": "Hdo",
    "22": "Hdo7",
    "23": "Hdsus2",
    "24": "Hdsus4",
    "25": "HD+",
    "26": "HD/o7",
    "27": "HDD7",
    "28": "HDM",
    "29": "HDM7",
    "30": "HDm",
    "31": "HDm7",
    "32": "HDo",
    "33": "HDo7",
    "34": "HDsus2",
    "35": "HDsus4",
    "36": "He+",
    "37": "He/o7",
    "38": "HeD7",
    "39": "HeM",
    "40": "HeM7",
    "41": "Hem",
    "42": "Hem7",
    "43": "Heo",
    "44": "Heo7",
    "45": "Hesus2",
    "46": "Hesus4",
    "47": "HE+",
    "48": "HE/o7",
    "49": "HED7",
    "50": "HEM",
    "51": "HEM7",
    "52": "HEm",
    "53": "HEm7",
    "54": "HEo",
    "55": "HEo7",
    "56": "HEsus2",
    "57": "HEsus4",
    "58": "HF+",
    "59": "HF/o7",
    "60": "HFD7",
    "61": "HFM",
    "62": "HFM7",
    "63": "HFm",
    "64": "HFm7",
    "65": "HFo",
    "66": "HFo7",
    "67": "HFsus2",
    "68": "HFsus4",
    "69": "Hg+",
    "70": "Hg/o7",
    "71": "HgD7",
    "72": "HgM",
    "73": "HgM7",
    "74": "Hgm",
    "75": "Hgm7",
    "76": "Hgo",
    "77": "Hgo7",
    "78": "Hgsus2",
    "79": "Hgsus4",
    "80": "HG+",
    "81": "HG/o7",
    "82": "HGD7",
    "83": "HGM",
    "84": "HGM7",
    "85": "HGm",
    "86": "HGm7",
    "87": "HGo",
    "88": "HGo7",
    "89": "HGsus2",
    "90": "HGsus4",
    "91": "Ha+",
    "92": "Ha/o7",
    "93": "HaD7",
    "94": "HaM",
    "95": "HaM7",
    "96": "Ham",
    "97": "Ham7",
    "98": "Hao",
    "99": "Hao7",
    "100": "Hasus2",
    "101": "Hasus4",
    "102": "HA+",
    "103": "HA/o7",
    "104": "HAD7",
    "105": "HAM",
    "106": "HAM7",
    "107": "HAm",
    "108": "HAm7",
    "109": "HAo",
    "110": "HAo7",
    "111": "HAsus2",
    "112": "HAsus4",
    "113": "Hb+",
    "114": "Hb/o7",
    "115": "HbD7",
    "116": "HbM",
    "117": "HbM7",
    "118": "Hbm",
    "119": "Hbm7",
    "120": "Hbo",
    "121": "Hbo7",
    "122": "Hbsus2",
    "123": "Hbsus4",
    "124": "HB+",
    "125": "HB/o7",
    "126": "HBD7",
    "127": "HBM",
    "128": "HBM7",
    "129": "HBm",
    "130": "HBm7",
    "131": "HBo",
    "132": "HBo7",
    "133": "HBsus2",
    "134": "HBsus4",
    "135": "HNA",
    "136": "HCMHCM",
    "137": "HNAHNA",
    "138": "HDMHDM",
    "139": "HGMHGM",
    "140": "HFMHFM",
    "141": "HbMHbM",
    "142": "HeMHeM",
    "143": "HAMHAM",
    "144": "HEMHEM",
    "145": "HDmHDm",
    "146": "HCmHCm",
    "147": "HGmHGm",
    "148": "HAmHAm",
    "149": "HNAHNAHNAHNA",
    "150": "HEmHEm",
    "151": "HaMHaM",
    "152": "HdMHdM",
    "153": "HBMHBM",
    "154": "HCMHFM",
    "155": "HFmHFm",
    "156": "HCMHGM",
    "157": "HCMHCMHCMHCM",
    "158": "HgMHgM",
    "159": "HDMHGM",
    "160": "HDMHDMHDMHDM",
    "161": "HBmHBm",
    "162": "HbMHFM",
    "163": "HDMHAM",
    "164": "HGMHGMHGMHGM",
    "165": "HbMHeM",
    "166": "HFMHFMHFMHFM",
    "167": "HNAHNAHNAHNAHNAHNAHNAHNA",
    "168": "HbmHbm",
    "169": "HgmHgm",
    "170": "HDm7HDm7",
    "171": "HaMHeM",
    "172": "HGMHCM",
    "173": "HCM7HCM7",
    "174": "HCm7HCm7",
    "175": "HCMHCMHCM",
    "176": "HFMHCM",
    "177": "HEMHAM",
    "178": "HAm7HAm7",
    "179": "HdmHdm",
    "180": "HemHem",
    "181": "HbMHbMHbMHbM",
    "182": "HeMHeMHeMHeM",
    "183": "HFM7HFM7",
    "184": "HGm7HGm7",
    "185": "HEMHEMHEMHEM",
    "186": "HEm7HEm7",
    "187": "HGMHGMHGM",
    "188": "HFMHGM",
    "189": "HAMHAMHAMHAM",
    "190": "HDMHDMHDM",
    "191": "HCMHDM",
    "192": "HFMHFMHFM",
    "193": "HGMHDM",
    "194": "HAMHDM",
    "195": "HbM7HbM7",
    "196": "HCMHAm",
    "197": "HDmHDmHDmHDm",
    "198": "HGmHeM",
    "199": "HDM7HDM7",
    "200": "HFMHbM",
    "201": "HFMHDm",
    "202": "HeMHeMHeM",
    "203": "HeM7HeM7",
    "204": "HCMHDm",
    "205": "HEMHBM",
    "206": "HFm7HFm7",
    "207": "HamHam",
    "208": "HNAHNAHNA",
    "209": "HCmHeM",
    "210": "HGM7HGM7",
    "211": "HAmHFM",
    "212": "HCmHCmHCmHCm",
    "213": "HbMHCM",
    "214": "HDmHDM",
    "215": "HeMHbM",
    "216": "HAmHGM",
    "217": "HCMHNA",
    "218": "HCMHEm",
    "219": "HBm7HBm7",
    "220": "HaMHdM",
    "221": "HGmHFM",
    "222": "HGD7HGD7",
    "223": "HbMHbMHbM",
    "224": "HGmHGmHGmHGm",
    "225": "HAmHAmHAmHAm",
    "226": "HAMHAMHAM",
    "227": "HGMHAM",
    "228": "HGMHEm",
    "229": "HEmHEmHEmHEm",
    "230": "HD+HD+",
    "231": "HDmHbM",
    "232": "HDMHNA",
    "233": "HEoHEo",
    "234": "HDoHDo",
    "235": "HCmHaM",
    "236": "HGmHGM",
    "237": "HeMHFM",
    "238": "HDMHBm",
    "239": "HgMHdM",
    "240": "HEMHAm",
    "241": "HAMHDm",
    "242": "HBoHBo",
    "243": "HaM7HaM7",
    "244": "HDMHEM",
    "245": "HFmHdM",
    "246": "HGMHCm",
    "247": "HCD7HCD7",
    "248": "HDMHEm",
    "249": "HDMHGm",
    "250": "HNAHNAHNAHNAHNAHNAHNAHNAHNAHNAHNAHNAHNAHNAHNAHNA",
    "251": "HGMHNA",
    "252": "HbMHGm",
    "253": "HCMHCM7",
    "254": "HCoHCo",
    "255": "HDmHDmHDm",
    "256": "HCsus2HCsus2",
    "257": "HaMHaMHaMHaM",
    "258": "HdoHdo",
    "259": "HEMHEm",
    "260": "HCMHAm7",
    "261": "HCMHCm",
    "262": "HFmHeM",
    "263": "HFMHNA",
    "264": "HAMHEM",
    "265": "Hbm7Hbm7",
    "266": "HdM7HdM7",
    "267": "HGmHDm",
    "268": "HAmHAM",
    "269": "HCmHbM",
    "270": "HAmHDm",
    "271": "HEMHEMHEM",
    "272": "HeMHaM",
    "273": "HAmHEm",
    "274": "HCMHFM7",
    "275": "HBmHGM",
    "276": "Hgm7Hgm7",
    "277": "HAD7HAD7",
    "278": "HCMHbM",
    "279": "HCmHGm",
    "280": "HDD7HDD7",
    "281": "HFMHDm7",
    "282": "HCmHCm7",
    "283": "HaMHbM",
    "284": "HAmHAm7",
    "285": "HAoHAo",
    "286": "HDmHDm7",
    "287": "HCMHDm7",
    "288": "HDsus2HDsus2",
    "289": "HEMHNA",
    "290": "HGMHFM",
    "291": "HFD7HFD7",
    "292": "HgMHBM",
    "293": "HAM7HAM7",
    "294": "HC+HC+",
    "295": "HCmHFm",
    "296": "HAMHNA",
    "297": "HdMHdMHdMHdM",
    "298": "HGmHGm7",
    "299": "HFMHFM7",
    "300": "HbMHNA",
    "301": "HCMHFm",
    "302": "HBMHBMHBMHBM",
    "303": "HEmHEmHEm",
    "304": "HDMHDM7",
    "305": "HCMHAM",
    "306": "HDMHDm",
    "307": "HbMHGm7",
    "308": "HFmHFmHFmHFm",
    "309": "HGMHGM7",
    "310": "HGoHGo",
    "311": "HFsus2HFsus2",
    "312": "HBMHEM",
    "313": "HCMHCMHCMHCMHCMHCMHCMHCM",
    "314": "HgoHgo",
    "315": "HbMHbM7",
    "316": "HFoHFo",
    "317": "HEM7HEM7",
    "318": "HBMHEm",
    "319": "Hd+Hd+",
    "320": "HBmHAM",
    "321": "HGsus2HGsus2",
    "322": "HGmHGmHGm",
    "323": "HAmHFM7",
    "324": "HbD7HbD7",
    "325": "HDmHFM",
    "326": "HeM7HeM",
    "327": "HCMHEM",
    "328": "HGMHeM",
    "329": "HGMHEm7",
    "330": "HaMHFm",
    "331": "HDMHgm",
    "332": "HCmHaM7",
    "333": "HBmHEm",
    "334": "HDMHBm7",
    "335": "HCMHCsus2",
    "336": "HCMHeM",
    "337": "HED7HED7",
    "338": "HgM7HgM7",
    "339": "HbMHDm",
    "340": "HAmHDm7",
    "341": "HgMHgMHgMHgM",
    "342": "HdMHeM",
    "343": "HCD7HFM",
    "344": "HDMHGM7",
    "345": "HEm7HEm",
    "346": "Hem7Hem7",
    "347": "HDMHCM",
    "348": "HBMHAM",
    "349": "HCmHFM",
    "350": "HGmHeM7",
    "351": "HCm7HeM",
    "352": "HFmHFM",
    "353": "HDmHGM",
    "354": "HCMHGD7",
    "355": "HDD7HGM",
    "356": "HdMHdMHdM",
    "357": "HbM7HFM",
    "358": "HGmHbM",
    "359": "HCmHCmHCm",
    "360": "Hdm7Hdm7",
    "361": "HCMHCMHFM",
    "362": "HDMHFM",
    "363": "HDMHDMHDMHDMHDMHDMHDMHDM",
    "364": "HFm7HeM",
    "365": "HCMHFMHFM",
    "366": "HaMHaMHaM",
    "367": "HeoHeo",
    "368": "HdMHaM",
    "369": "HeD7HeD7",
    "370": "HAMHFM",
    "371": "He+He+",
    "372": "HGm7HFM",
    "373": "HAmHAmHAm",
    "374": "HNAHeM",
    "375": "HCMHGm",
    "376": "HCm7HFM",
    "377": "HDMHEm7",
    "378": "HAMHgm",
    "379": "HDmHbM7",
    "380": "HGMHCM7",
    "381": "HDMHbM",
    "382": "HbD7HeM",
    "383": "HAmHDM",
    "384": "HCMHFMHCMHFM",
    "385": "HGMHAm7",
    "386": "HAsus2HAsus2",
    "387": "HFmHFm7",
    "388": "HCm7HbM",
    "389": "HGMHCMHGM",
    "390": "HEsus2HEsus2",
    "391": "Hbsus2Hbsus2",
    "392": "HDmHGm7",
    "393": "HaM7HeM",
    "394": "HNAHFM",
    "395": "HBMHgM",
    "396": "HaoHao",
    "397": "HCmHFm7",
    "398": "HCMHGm7",
    "399": "HdMHgM",
    "400": "HEMHdm",
    "401": "HEMHgM",
    "402": "HFM7HFM",
    "403": "HGMHCMHCM",
    "404": "HCMHEm7",
    "405": "HDMHDsus2",
    "406": "HBMHNA",
    "407": "HBmHBmHBmHBm",
    "408": "HGMHEM",
    "409": "HCMHaM",
    "410": "HGMHGm",
    "411": "HGMHGMHGMHGMHGMHGMHGMHGM",
    "412": "HbMHD+",
    "413": "HGMHGsus2",
    "414": "HBM7HBM7",
    "415": "HDMHGMHGM",
    "416": "HaMHbm",
    "417": "HFMHeM",
    "418": "HCMHGMHGM",
    "419": "HDmHAm",
    "420": "HFD7HbM",
    "421": "HFmHbM",
    "422": "HCM7HEm",
    "423": "HBmHBm7",
    "424": "HDMHD+",
    "425": "HEmHAM",
    "426": "Ham7Ham7",
    "427": "HCM7HAm7",
    "428": "HaMHFm7",
    "429": "HCMHC+",
    "430": "HDMHDm7",
    "431": "HGMHBm",
    "432": "HBMHBMHBM",
    "433": "HdMHbm",
    "434": "HgMHNA",
    "435": "HDMHAm7",
    "436": "HaMHNA",
    "437": "HEMHgm",
    "438": "HCMHGMHCMHGM",
    "439": "HCMHBo",
    "440": "HBD7HBD7",
    "441": "HGmHCm7",
    "442": "HCMHCm7",
    "443": "HGMHAm",
    "444": "HBmHBM",
    "445": "HBmHGM7",
    "446": "HboHbo",
    "447": "HbMHeM7",
    "448": "HAD7HDm",
    "449": "Hesus2Hesus2",
    "450": "HdMHNA",
    "451": "HaMHaM7",
    "452": "HEMHDM",
    "453": "HFmHdM7",
    "454": "HDoHeM",
    "455": "HGMHDMHGM",
    "456": "HEm7HAM",
    "457": "HbMHbMHeM",
    "458": "HBmHgm",
    "459": "HDMHAD7",
    "460": "HGm7HeM",
    "461": "HdmHAM",
    "462": "HDmHGm",
    "463": "HED7HAM",
    "464": "HFMHFMHFMHFMHFMHFMHFMHFM",
    "465": "HDMHeM",
    "466": "HFMHAm",
    "467": "HDD7HGm",
    "468": "HFm7HbM",
    "469": "HFMHEm",
    "470": "HgmHgmHgmHgm",
    "471": "HFM7HDm7",
    "472": "HAoHGm",
    "473": "HaMHFM",
    "474": "HCMHBM",
    "475": "HGMHGm7",
    "476": "HGMHGD7",
    "477": "HGMHBM",
    "478": "HAMHAm",
    "479": "HCm7HaM7",
    "480": "HBMHdM",
    "481": "HFMHEM",
    "482": "HEmHAm7",
    "483": "HDMHBM",
    "484": "HFmHbm",
    "485": "HemHemHemHem",
    "486": "HDMHDMHAM",
    "487": "HbMHDm7",
    "488": "HbMHCm",
    "489": "HaMHgM",
    "490": "HEm7HAm7",
    "491": "HDMHgM",
    "492": "HbmHbmHbmHbm",
    "493": "HgMHgMHgM",
    "494": "HNAHNAHNAHNAHNAHNAHNAHNAHNAHNAHNAHNAHNAHNAHNAHNAHNAHNAHNAHNAHNAHNAHNAHNAHNAHNAHNAHNAHNAHNAHNAHNA",
    "495": "HaMHCm",
    "496": "HD+HeM",
    "497": "HAM7HAM",
    "498": "HGMHDm7",
    "499": "HAmHEM",
    "500": "HGMHbM",
    "501": "HCMHBm",
    "502": "HCMHCMHCMHCMHCMHCM",
    "503": "HGm7HeM7",
    "504": "HFmHFmHFm",
    "505": "HemHeM",
    "506": "HDm7HDm",
    "507": "HGMHgm",
    "508": "HFsus2HFM",
    "509": "HDMHGMHDMHGM",
    "510": "HCM7HCM7HCM7HCM7",
    "511": "HEoHDm",
    "512": "HDMHdo",
    "513": "HDm7HDm7HDm7HDm7",
    "514": "HGD7HCm",
    "515": "Hbm7HeM",
    "516": "HCM7HFM7",
    "517": "HDMHCsus2",
    "518": "HGmHCm",
    "519": "HbMHbm",
    "520": "HFmHCm",
    "521": "HdMHFM",
    "522": "HEMHEMHEMHEMHEMHEMHEMHEM",
    "523": "HbM7HGm7",
    "524": "HGMHDm",
    "525": "Hasus2Hasus2",
    "526": "HGMHDMHDM",
    "527": "HCm7HCm7HCm7HCm7",
    "528": "HAm7HFM7",
    "529": "HNAHAM",
    "530": "HdMHgm",
    "531": "HGMHdo",
    "532": "HbM7HbM",
    "533": "HBm7HAM",
    "534": "HAm7HDm",
    "535": "HbmHgM",
    "536": "HGmHDm7",
    "537": "HDM7HAM",
    "538": "HAm7HDm7",
    "539": "HGMHgM",
    "540": "HdMHdM7",
    "541": "HCMHCD7",
    "542": "HgoHEm",
    "543": "HbM7HDm7",
    "544": "HbMHFMHbMHFM",
    "545": "HEMHam",
    "546": "HAm7HFM",
    "547": "HEm7HCM7",
    "548": "HEMHEsus2",
    "549": "HGMHBm7",
    "550": "HAmHCM7",
    "551": "HAmHNA",
    "552": "HDMHgm7",
    "553": "HeMHeM7",
    "554": "HbMHAM",
    "555": "HEmHEM",
    "556": "HeMHeMHeMHeMHeMHeMHeMHeM",
    "557": "HEm7HEm7HEm7HEm7",
    "558": "HDMHDMHDMHDMHDMHDM",
    "559": "HDMHDD7",
    "560": "HbMHCm7",
    "561": "HbmHFM",
    "562": "Hd+HAM",
    "563": "HDMHAMHDMHAM",
    "564": "HFmHbm7",
    "565": "HDmHNA",
    "566": "HdmHdmHdmHdm",
    "567": "HDm7HFM",
    "568": "HgMHem",
    "569": "HAmHCM",
    "570": "HAmHBo",
    "571": "HEoHFM",
    "572": "HBmHEm7",
    "573": "HDoHCm",
    "574": "HbMHaM",
    "575": "HbMHbMHbMHbMHbMHbMHbMHbM",
    "576": "HgMHgm",
    "577": "HCMHCMHGMHGM",
    "578": "HDMHdM",
    "579": "HAMHBM",
    "580": "HBmHEM",
    "581": "HCMHCMHFMHFM",
    "582": "HbMHeMHbMHeM",
    "583": "HEmHEm7",
    "584": "HD+HbM",
    "585": "HCmHCM",
    "586": "HDmHAM",
    "587": "HaMHC+",
    "588": "HCMHgo",
    "589": "HeM7HCm7",
    "590": "HCMHGM7",
    "591": "HdMHbM",
    "592": "HGm7HCm7",
    "593": "HCMHFsus2",
    "594": "HGMHCsus2",
    "595": "HEMHdm7",
    "596": "HDMHAMHAM",
    "597": "HFm7HFM",
    "598": "HGmHNA",
    "599": "HEMHgm7",
    "600": "HGMHaM",
    "601": "HbMHbMHFM",
    "602": "HEMHEM7",
    "603": "HCM7HDm7",
    "604": "Hesus2HeM",
    "605": "HFmHaM",
    "606": "HgmHgm7",
    "607": "HBmHgM",
    "608": "HD+HGm",
    "609": "HCmHNA",
    "610": "HCMHEo",
    "611": "HDMHCM7",
    "612": "HbMHFMHFM",
    "613": "HdMHbm7",
    "614": "HED7HAm",
    "615": "HEMHEm7",
    "616": "HAMHgm7",
    "617": "HAMHAMHAMHAMHAMHAMHAMHAM",
    "618": "HGm7HGm",
    "619": "HDmHDo",
    "620": "HeMHNA",
    "621": "HDMHGsus2",
    "622": "HeMHCm7",
    "623": "HdmHgm",
    "624": "HCMHCo",
    "625": "HFMHAM",
    "626": "HFMHCMHFM",
    "627": "HAm7HAm7HAm7HAm7",
    "628": "HdmHBM",
    "629": "HDMHAm",
    "630": "HGMHFsus2",
    "631": "HCmHCo",
    "632": "HaM7HaM",
    "633": "HNAHNAHNAHNAHNA",
    "634": "HemHBM",
    "635": "HEMHAM7",
    "636": "HbmHbmHbm",
    "637": "HbMHeMHeM",
    "638": "HCmHGm7",
    "639": "HBsus2HBsus2",
    "640": "HdmHdM",
    "641": "HDmHDmHDmHDmHDmHDmHDmHDm",
    "642": "HCMHdM",
    "643": "HbMHbsus2",
    "644": "HEmHBm",
    "645": "HeMHGm",
    "646": "HEmHCM7",
    "647": "HFM7HDm",
    "648": "HEmHAm",
    "649": "HGm7HDm7",
    "650": "HCmHeM7",
    "651": "HFMHGm",
    "652": "HDM7HBm7",
    "653": "HCmHGM",
    "654": "HAm7HAM",
    "655": "HCMHDo",
    "656": "HaMHam",
    "657": "HaMHbm7",
    "658": "HgmHgmHgm",
    "659": "HCMHDsus2",
    "660": "HFM7HFM7HFM7HFM7",
    "661": "HEmHNA",
    "662": "HemHdM",
    "663": "HbM7HDm",
    "664": "HDMHd+",
    "665": "HAsus2HAM",
    "666": "HF+HF+",
    "667": "HCMHCMHCMHFM",
    "668": "HEMHEMHAM",
    "669": "HEmHdo",
    "670": "HAm7HAm",
    "671": "HaMHCm7",
    "672": "HEmHGM",
    "673": "HgmHAM",
    "674": "HGMHGMHGMHGMHGMHGM",
    "675": "HaD7HaD7",
    "676": "HgD7HgD7",
    "677": "HaMHeMHeM",
    "678": "HGm7HbM",
    "679": "HFMHFMHFMHFMHFM",
    "680": "HbM7HbM7HbM7HbM7",
    "681": "HGm7HGm7HGm7HGm7",
    "682": "HCMHDD7",
    "683": "HBm7HGM7",
    "684": "HDsus2HAM",
    "685": "HAmHGm",
    "686": "HBmHBmHBm",
    "687": "HDMHGmHGm",
    "688": "HEMHAMHAM",
    "689": "HNAHGM",
    "690": "HEm7HDm7",
    "691": "HeMHCm",
    "692": "HCMHGsus2",
    "693": "HEMHdM",
    "694": "HEMHAMHEMHAM",
    "695": "Hbsus2HFM",
    "696": "HDmHEm",
    "697": "HDMHdm",
    "698": "HDmHDsus2",
    "699": "Hdsus2Hdsus2",
    "700": "HCmHAo",
    "701": "HbMHEo",
    "702": "HDMHDMHGMHGM",
    "703": "HDm7HDm7HDm7",
    "704": "HDmHBo",
    "705": "HFmHCm7",
    "706": "HaM7HFm7",
    "707": "HBm7HEm7",
    "708": "HFmHDo",
    "709": "HeMHdM",
    "710": "HaMHDo",
    "711": "HDM7HGM7",
    "712": "HGMHBo",
    "713": "HFMHCMHCM",
    "714": "HG+HG+",
    "715": "HFMHFMHFMHFMHFMHFM",
    "716": "HbM7HGm",
    "717": "HbMHgM",
    "718": "HbMHbMHFMHFM",
    "719": "HDM7Hgm",
    "720": "HemHem7",
    "721": "HCM7HCM",
    "722": "HbmHbm7",
    "723": "HAmHEm7",
    "724": "HeM7HFM",
    "725": "HDmHeM",
    "726": "HDmHCM",
    "727": "HBm7HEm",
    "728": "HGMHgo",
    "729": "HD+HFM",
    "730": "HCm7HCm",
    "731": "HGMHFM7",
    "732": "HBD7HEm",
    "733": "HNAHEM",
    "734": "HeD7HaM",
    "735": "Hdm7HAM",
    "736": "HCMHDMHGM",
    "737": "HNAHbM",
    "738": "HaMHeMHaMHeM",
    "739": "HdmHdmHdm",
    "740": "HFmHC+",
    "741": "HbMHeMHbM",
    "742": "HEMHDsus2",
    "743": "HDMHgo",
    "744": "HFm7HaM",
    "745": "HeMHeMHeMHeMHeM",
    "746": "HbmHdM",
    "747": "HamHamHamHam",
    "748": "HamHgM",
    "749": "HEMHFM",
    "750": "HAm7HEm",
    "751": "HGD7HBo",
    "752": "HGMHFMHGM",
    "753": "HFD7HFM",
    "754": "HDD7HGM7",
    "755": "HCM7HFM",
    "756": "HCmHCsus2",
    "757": "HCm7HGm",
    "758": "HFmHGo",
    "759": "HGMHeM7",
    "760": "HFMHFMHbM",
    "761": "HAmHgo",
    "762": "HCMHbM7",
    "763": "HbMHFMHbM",
    "764": "HdmHAM7",
    "765": "HdD7HdD7",
    "766": "HCMHbsus2",
    "767": "HAD7HAM",
    "768": "HbmHeM",
    "769": "HCMHaM7",
    "770": "HCm7HFm7",
    "771": "HbM7HeM",
    "772": "HgMHAM",
    "773": "HEm7HFM7",
    "774": "HBmHdo",
    "775": "HdM7Hbm7",
    "776": "HdMHAM",
    "777": "HGmHFm",
    "778": "HDMHDMHGM",
    "779": "HC+HeM",
    "780": "HFMHFsus2",
    "781": "HCmHDo",
    "782": "HgM7HgM",
    "783": "HBmHD+",
    "784": "HaoHAM",
    "785": "HEMHBm",
    "786": "HDMHDo",
    "787": "HFm7Hbm7",
    "788": "HCmHCmHCmHCmHCmHCmHCmHCm",
    "789": "HGM7HEm7",
    "790": "HamHBM",
    "791": "HBm7HCM7",
    "792": "HDmHD+",
    "793": "HbM7HAm7",
    "794": "Ha+Ha+",
    "795": "Hdsus4Hdsus4",
    "796": "HFM7HBo",
    "797": "HDMHEo",
    "798": "HAmHbM",
    "799": "HCD7HFm",
    "800": "Hb+Hb+",
    "801": "HAmHAo",
    "802": "HNAHNAHNAHNAHNAHNA",
    "803": "HEMHaM",
    "804": "HemHgM",
    "805": "HGD7HCM7",
    "806": "Hgm7HAM",
    "807": "HEMHeM",
    "808": "HGmHEo",
    "809": "HGMHD+",
    "810": "Hgsus2Hgsus2",
    "811": "HeM7HbM",
    "812": "HDM7HDM7HDM7HDM7",
    "813": "HNAHDM",
    "814": "HemHbm",
    "815": "HFm7HdM",
    "816": "HGMHDM7",
    "817": "HbMHbMHeMHeM",
    "818": "HAmHBm",
    "819": "HCMHCMHCM7",
    "820": "HbM7HEo",
    "821": "HEmHCM",
    "822": "HaMHdM7",
    "823": "HFMHBo",
    "824": "HGm7HDm",
    "825": "HFmHNA",
    "826": "HEmHEmHEmHEmHEmHEmHEmHEm",
    "827": "HCD7HFMHFM",
    "828": "HeM7HDm7",
    "829": "HDMHDMHDMHDMHDM",
    "830": "HCMHCMHNA",
    "831": "HGM7HAM",
    "832": "HGMHDsus2",
    "833": "HAm7HAm7HAm7",
    "834": "HgMHem7",
    "835": "Hesus2HbM",
    "836": "HAmHAmHAmHAmHAmHAmHAmHAm",
    "837": "HBMHBm",
    "838": "HaMHGm",
    "839": "HGoHFM",
    "840": "HFm7HdM7",
    "841": "HGMHAD7",
    "842": "HCMHCMHCMHGM",
    "843": "HgMHaM",
    "844": "HemHBM7",
    "845": "HDm7HFM7",
    "846": "HDD7HGMHGM",
    "847": "HamHeM",
    "848": "HCM7HCM7HCM7",
    "849": "HdmHgm7",
    "850": "HGMHCMHFM",
    "851": "HGmHAM",
    "852": "HE+HE+",
    "853": "HBm7Hgm",
    "854": "HDMHGm7",
    "855": "HDMHDMHDMHGM",
    "856": "HGM7HGM7HGM7HGM7",
    "857": "HDM7HDM",
    "858": "HbmHgM7",
    "859": "HeM7HGm",
    "860": "HCMHD+",
    "861": "HEMHED7",
    "862": "HFm7HFm7HFm7HFm7",
    "863": "HAMHAMHAMHAMHAM",
    "864": "HFMHDM",
    "865": "HGM7HEm",
    "866": "HbmHbM",
    "867": "HemHbM",
    "868": "HeM7HaM7",
    "869": "HGM7HCM7",
    "870": "HEMHCM7",
    "871": "HgmHgM",
    "872": "HBmHDM",
    "873": "HGmHDM",
    "874": "HAoHbM",
    "875": "HEmHDM",
    "876": "HEmHEo",
    "877": "HDmHFM7",
    "878": "HCMHCMHCMHCMHCM",
    "879": "HDm7HGD7",
    "880": "HCMHDmHDm",
    "881": "HBmHNA",
    "882": "He+HeM",
    "883": "HFM7HFM7HFM7",
    "884": "HDmHCm",
    "885": "HGmHGmHGmHGmHGmHGmHGmHGm",
    "886": "HdM7HdM",
    "887": "HGMHCmHCm",
    "888": "HCMHbMHCM",
    "889": "HCMHGo",
    "890": "HDMHDMHAMHAM",
    "891": "HGMHEo",
    "892": "HFMHFMHGMHGM",
    "893": "HCMHDMHDM",
    "894": "HDmHGD7",
    "895": "HFmHaM7",
    "896": "HFMHGD7",
    "897": "HbM7HFM7",
    "898": "HA+HA+",
    "899": "HgMHFM",
    "900": "HdmHdm7",
    "901": "Ham7HBM",
    "902": "HaM7HGm7",
    "903": "HaMHasus2",
    "904": "HDm7HGm7",
    "905": "HbM7HCm7",
    "906": "HbM7HeM7",
    "907": "HDmHEo",
    "908": "HGMHDo",
    "909": "HC+HFM",
    "910": "HAoHeM",
    "911": "HDMHAMHDM",
    "912": "HEmHFM",
    "913": "HaMHdm",
    "914": "HDM7Hgm7",
    "915": "HGmHGsus2",
    "916": "HDmHEM",
    "917": "HGmHD+",
    "918": "HAMHAm7",
    "919": "HgMHeM",
    "920": "HDM7HBm",
    "921": "HFm7HFm",
    "922": "HbMHDM",
    "923": "HGm7HFM7",
    "924": "HBMHe+",
    "925": "HEMHeo",
    "926": "HAmHC+",
    "927": "HCmHGMHCm",
    "928": "HFMHdM",
    "929": "HeMHeMHbM",
    "930": "HAm7HCM7",
    "931": "HDMHDMHNA",
    "932": "HbmHFm",
    "933": "HGm7HCD7",
    "934": "HaMHaMHeM",
    "935": "HNAHNAHNAHNAHNAHNAHNA",
    "936": "HEsus2HEm",
    "937": "HBMHdm7",
    "938": "HFsus2HGm7",
    "939": "HGMHAMHDM",
    "940": "HCMHCMHCMHCMHCMHCMHCM",
    "941": "HGmHGo",
    "942": "HCMHCMHAm",
    "943": "HgM7HdM",
    "944": "HFsus2HeM",
    "945": "HEoHAM",
    "946": "HEMHBMHEMHBM",
    "947": "HDmHAm7",
    "948": "Hasus2HeM",
    "949": "HGmHAo",
    "950": "HCMHCmHCm",
    "951": "Hbsus2HeM",
    "952": "HCm7HCm7HCm7",
    "953": "HCMHCsus4",
    "954": "HCMHDMHCMHDM",
    "955": "HGM7HGM",
    "956": "HNAHBM",
    "957": "HDMHBo",
    "958": "Hesus2HFM",
    "959": "Hbsus2HbM",
    "960": "HbmHem7",
    "961": "HAMHDMHDM",
    "962": "HaM7HbM",
    "963": "HDmHEm7",
    "964": "HdmHam",
    "965": "HDMHAsus2",
    "966": "HDM7HDMHDM",
    "967": "HCMHAmHCMHAm",
    "968": "HCmHDM",
    "969": "HCmHC+",
    "970": "HBMHgm",
    "971": "HgMHgM7",
    "972": "HAMHd+",
    "973": "HCMHNAHNA",
    "974": "HeM7HeM7HeM7HeM7",
    "975": "HeM7HGm7",
    "976": "HBm7HBm7HBm7HBm7",
    "977": "HCsus2HFM",
    "978": "HAmHAsus2",
    "979": "HbMHFM7",
    "980": "HeMHeMHeMHeMHeMHeM",
    "981": "HAMHAM7",
    "982": "HdMHFm",
    "983": "HBm7HBm",
    "984": "HDsus4HDsus4",
    "985": "HDMHDMHDMHDMHDMHDMHDM",
    "986": "HGmHFMHGmHFM",
    "987": "HEMHEMHEMHEMHEMHEM",
    "988": "HbMHbMHbMHbMHbMHbM",
    "989": "HCm7HaM",
    "990": "HDMHbM7",
    "991": "HAMHAMHAMHAMHAMHAM",
    "992": "HdM7HeM",
    "993": "HEm7HGM",
    "994": "HEMHAsus2",
    "995": "HFMHFm",
    "996": "HFm7HGm7",
    "997": "HCoHCoHCoHCo",
    "998": "HDMHDmHDM",
    "999": "HEm7HBo"
}