{
    "<pad>": 0,
    "<eos>": 1,
    "<bos>": 2,
    "HC+": 3,
    "HC/o7": 4,
    "HCD7": 5,
    "HCM": 6,
    "HCM7": 7,
    "HCm": 8,
    "HCm7": 9,
    "HCo": 10,
    "HCo7": 11,
    "HCsus2": 12,
    "HCsus4": 13,
    "Hd+": 14,
    "Hd/o7": 15,
    "HdD7": 16,
    "HdM": 17,
    "HdM7": 18,
    "Hdm": 19,
    "Hdm7": 20,
    "Hdo": 21,
    "Hdo7": 22,
    "Hdsus2": 23,
    "Hdsus4": 24,
    "HD+": 25,
    "HD/o7": 26,
    "HDD7": 27,
    "HDM": 28,
    "HDM7": 29,
    "HDm": 30,
    "HDm7": 31,
    "HDo": 32,
    "HDo7": 33,
    "HDsus2": 34,
    "HDsus4": 35,
    "He+": 36,
    "He/o7": 37,
    "HeD7": 38,
    "HeM": 39,
    "HeM7": 40,
    "Hem": 41,
    "Hem7": 42,
    "Heo": 43,
    "Heo7": 44,
    "Hesus2": 45,
    "Hesus4": 46,
    "HE+": 47,
    "HE/o7": 48,
    "HED7": 49,
    "HEM": 50,
    "HEM7": 51,
    "HEm": 52,
    "HEm7": 53,
    "HEo": 54,
    "HEo7": 55,
    "HEsus2": 56,
    "HEsus4": 57,
    "HF+": 58,
    "HF/o7": 59,
    "HFD7": 60,
    "HFM": 61,
    "HFM7": 62,
    "HFm": 63,
    "HFm7": 64,
    "HFo": 65,
    "HFo7": 66,
    "HFsus2": 67,
    "HFsus4": 68,
    "Hg+": 69,
    "Hg/o7": 70,
    "HgD7": 71,
    "HgM": 72,
    "HgM7": 73,
    "Hgm": 74,
    "Hgm7": 75,
    "Hgo": 76,
    "Hgo7": 77,
    "Hgsus2": 78,
    "Hgsus4": 79,
    "HG+": 80,
    "HG/o7": 81,
    "HGD7": 82,
    "HGM": 83,
    "HGM7": 84,
    "HGm": 85,
    "HGm7": 86,
    "HGo": 87,
    "HGo7": 88,
    "HGsus2": 89,
    "HGsus4": 90,
    "Ha+": 91,
    "Ha/o7": 92,
    "HaD7": 93,
    "HaM": 94,
    "HaM7": 95,
    "Ham": 96,
    "Ham7": 97,
    "Hao": 98,
    "Hao7": 99,
    "Hasus2": 100,
    "Hasus4": 101,
    "HA+": 102,
    "HA/o7": 103,
    "HAD7": 104,
    "HAM": 105,
    "HAM7": 106,
    "HAm": 107,
    "HAm7": 108,
    "HAo": 109,
    "HAo7": 110,
    "HAsus2": 111,
    "HAsus4": 112,
    "Hb+": 113,
    "Hb/o7": 114,
    "HbD7": 115,
    "HbM": 116,
    "HbM7": 117,
    "Hbm": 118,
    "Hbm7": 119,
    "Hbo": 120,
    "Hbo7": 121,
    "Hbsus2": 122,
    "Hbsus4": 123,
    "HB+": 124,
    "HB/o7": 125,
    "HBD7": 126,
    "HBM": 127,
    "HBM7": 128,
    "HBm": 129,
    "HBm7": 130,
    "HBo": 131,
    "HBo7": 132,
    "HBsus2": 133,
    "HBsus4": 134,
    "HNA": 135,
    "HCMHCM": 136,
    "HNAHNA": 137,
    "HDMHDM": 138,
    "HGMHGM": 139,
    "HFMHFM": 140,
    "HbMHbM": 141,
    "HeMHeM": 142,
    "HAMHAM": 143,
    "HEMHEM": 144,
    "HDmHDm": 145,
    "HCmHCm": 146,
    "HGmHGm": 147,
    "HAmHAm": 148,
    "HNAHNAHNAHNA": 149,
    "HEmHEm": 150,
    "HaMHaM": 151,
    "HdMHdM": 152,
    "HBMHBM": 153,
    "HCMHFM": 154,
    "HFmHFm": 155,
    "HCMHGM": 156,
    "HCMHCMHCMHCM": 157,
    "HgMHgM": 158,
    "HDMHGM": 159,
    "HDMHDMHDMHDM": 160,
    "HBmHBm": 161,
    "HbMHFM": 162,
    "HDMHAM": 163,
    "HGMHGMHGMHGM": 164,
    "HbMHeM": 165,
    "HFMHFMHFMHFM": 166,
    "HNAHNAHNAHNAHNAHNAHNAHNA": 167,
    "HbmHbm": 168,
    "HgmHgm": 169,
    "HDm7HDm7": 170,
    "HaMHeM": 171,
    "HGMHCM": 172,
    "HCM7HCM7": 173,
    "HCm7HCm7": 174,
    "HCMHCMHCM": 175,
    "HFMHCM": 176,
    "HEMHAM": 177,
    "HAm7HAm7": 178,
    "HdmHdm": 179,
    "HemHem": 180,
    "HbMHbMHbMHbM": 181,
    "HeMHeMHeMHeM": 182,
    "HFM7HFM7": 183,
    "HGm7HGm7": 184,
    "HEMHEMHEMHEM": 185,
    "HEm7HEm7": 186,
    "HGMHGMHGM": 187,
    "HFMHGM": 188,
    "HAMHAMHAMHAM": 189,
    "HDMHDMHDM": 190,
    "HCMHDM": 191,
    "HFMHFMHFM": 192,
    "HGMHDM": 193,
    "HAMHDM": 194,
    "HbM7HbM7": 195,
    "HCMHAm": 196,
    "HDmHDmHDmHDm": 197,
    "HGmHeM": 198,
    "HDM7HDM7": 199,
    "HFMHbM": 200,
    "HFMHDm": 201,
    "HeMHeMHeM": 202,
    "HeM7HeM7": 203,
    "HCMHDm": 204,
    "HEMHBM": 205,
    "HFm7HFm7": 206,
    "HamHam": 207,
    "HNAHNAHNA": 208,
    "HCmHeM": 209,
    "HGM7HGM7": 210,
    "HAmHFM": 211,
    "HCmHCmHCmHCm": 212,
    "HbMHCM": 213,
    "HDmHDM": 214,
    "HeMHbM": 215,
    "HAmHGM": 216,
    "HCMHNA": 217,
    "HCMHEm": 218,
    "HBm7HBm7": 219,
    "HaMHdM": 220,
    "HGmHFM": 221,
    "HGD7HGD7": 222,
    "HbMHbMHbM": 223,
    "HGmHGmHGmHGm": 224,
    "HAmHAmHAmHAm": 225,
    "HAMHAMHAM": 226,
    "HGMHAM": 227,
    "HGMHEm": 228,
    "HEmHEmHEmHEm": 229,
    "HD+HD+": 230,
    "HDmHbM": 231,
    "HDMHNA": 232,
    "HEoHEo": 233,
    "HDoHDo": 234,
    "HCmHaM": 235,
    "HGmHGM": 236,
    "HeMHFM": 237,
    "HDMHBm": 238,
    "HgMHdM": 239,
    "HEMHAm": 240,
    "HAMHDm": 241,
    "HBoHBo": 242,
    "HaM7HaM7": 243,
    "HDMHEM": 244,
    "HFmHdM": 245,
    "HGMHCm": 246,
    "HCD7HCD7": 247,
    "HDMHEm": 248,
    "HDMHGm": 249,
    "HNAHNAHNAHNAHNAHNAHNAHNAHNAHNAHNAHNAHNAHNAHNAHNA": 250,
    "HGMHNA": 251,
    "HbMHGm": 252,
    "HCMHCM7": 253,
    "HCoHCo": 254,
    "HDmHDmHDm": 255,
    "HCsus2HCsus2": 256,
    "HaMHaMHaMHaM": 257,
    "HdoHdo": 258,
    "HEMHEm": 259,
    "HCMHAm7": 260,
    "HCMHCm": 261,
    "HFmHeM": 262,
    "HFMHNA": 263,
    "HAMHEM": 264,
    "Hbm7Hbm7": 265,
    "HdM7HdM7": 266,
    "HGmHDm": 267,
    "HAmHAM": 268,
    "HCmHbM": 269,
    "HAmHDm": 270,
    "HEMHEMHEM": 271,
    "HeMHaM": 272,
    "HAmHEm": 273,
    "HCMHFM7": 274,
    "HBmHGM": 275,
    "Hgm7Hgm7": 276,
    "HAD7HAD7": 277,
    "HCMHbM": 278,
    "HCmHGm": 279,
    "HDD7HDD7": 280,
    "HFMHDm7": 281,
    "HCmHCm7": 282,
    "HaMHbM": 283,
    "HAmHAm7": 284,
    "HAoHAo": 285,
    "HDmHDm7": 286,
    "HCMHDm7": 287,
    "HDsus2HDsus2": 288,
    "HEMHNA": 289,
    "HGMHFM": 290,
    "HFD7HFD7": 291,
    "HgMHBM": 292,
    "HAM7HAM7": 293,
    "HC+HC+": 294,
    "HCmHFm": 295,
    "HAMHNA": 296,
    "HdMHdMHdMHdM": 297,
    "HGmHGm7": 298,
    "HFMHFM7": 299,
    "HbMHNA": 300,
    "HCMHFm": 301,
    "HBMHBMHBMHBM": 302,
    "HEmHEmHEm": 303,
    "HDMHDM7": 304,
    "HCMHAM": 305,
    "HDMHDm": 306,
    "HbMHGm7": 307,
    "HFmHFmHFmHFm": 308,
    "HGMHGM7": 309,
    "HGoHGo": 310,
    "HFsus2HFsus2": 311,
    "HBMHEM": 312,
    "HCMHCMHCMHCMHCMHCMHCMHCM": 313,
    "HgoHgo": 314,
    "HbMHbM7": 315,
    "HFoHFo": 316,
    "HEM7HEM7": 317,
    "HBMHEm": 318,
    "Hd+Hd+": 319,
    "HBmHAM": 320,
    "HGsus2HGsus2": 321,
    "HGmHGmHGm": 322,
    "HAmHFM7": 323,
    "HbD7HbD7": 324,
    "HDmHFM": 325,
    "HeM7HeM": 326,
    "HCMHEM": 327,
    "HGMHeM": 328,
    "HGMHEm7": 329,
    "HaMHFm": 330,
    "HDMHgm": 331,
    "HCmHaM7": 332,
    "HBmHEm": 333,
    "HDMHBm7": 334,
    "HCMHCsus2": 335,
    "HCMHeM": 336,
    "HED7HED7": 337,
    "HgM7HgM7": 338,
    "HbMHDm": 339,
    "HAmHDm7": 340,
    "HgMHgMHgMHgM": 341,
    "HdMHeM": 342,
    "HCD7HFM": 343,
    "HDMHGM7": 344,
    "HEm7HEm": 345,
    "Hem7Hem7": 346,
    "HDMHCM": 347,
    "HBMHAM": 348,
    "HCmHFM": 349,
    "HGmHeM7": 350,
    "HCm7HeM": 351,
    "HFmHFM": 352,
    "HDmHGM": 353,
    "HCMHGD7": 354,
    "HDD7HGM": 355,
    "HdMHdMHdM": 356,
    "HbM7HFM": 357,
    "HGmHbM": 358,
    "HCmHCmHCm": 359,
    "Hdm7Hdm7": 360,
    "HCMHCMHFM": 361,
    "HDMHFM": 362,
    "HDMHDMHDMHDMHDMHDMHDMHDM": 363,
    "HFm7HeM": 364,
    "HCMHFMHFM": 365,
    "HaMHaMHaM": 366,
    "HeoHeo": 367,
    "HdMHaM": 368,
    "HeD7HeD7": 369,
    "HAMHFM": 370,
    "He+He+": 371,
    "HGm7HFM": 372,
    "HAmHAmHAm": 373,
    "HNAHeM": 374,
    "HCMHGm": 375,
    "HCm7HFM": 376,
    "HDMHEm7": 377,
    "HAMHgm": 378,
    "HDmHbM7": 379,
    "HGMHCM7": 380,
    "HDMHbM": 381,
    "HbD7HeM": 382,
    "HAmHDM": 383,
    "HCMHFMHCMHFM": 384,
    "HGMHAm7": 385,
    "HAsus2HAsus2": 386,
    "HFmHFm7": 387,
    "HCm7HbM": 388,
    "HGMHCMHGM": 389,
    "HEsus2HEsus2": 390,
    "Hbsus2Hbsus2": 391,
    "HDmHGm7": 392,
    "HaM7HeM": 393,
    "HNAHFM": 394,
    "HBMHgM": 395,
    "HaoHao": 396,
    "HCmHFm7": 397,
    "HCMHGm7": 398,
    "HdMHgM": 399,
    "HEMHdm": 400,
    "HEMHgM": 401,
    "HFM7HFM": 402,
    "HGMHCMHCM": 403,
    "HCMHEm7": 404,
    "HDMHDsus2": 405,
    "HBMHNA": 406,
    "HBmHBmHBmHBm": 407,
    "HGMHEM": 408,
    "HCMHaM": 409,
    "HGMHGm": 410,
    "HGMHGMHGMHGMHGMHGMHGMHGM": 411,
    "HbMHD+": 412,
    "HGMHGsus2": 413,
    "HBM7HBM7": 414,
    "HDMHGMHGM": 415,
    "HaMHbm": 416,
    "HFMHeM": 417,
    "HCMHGMHGM": 418,
    "HDmHAm": 419,
    "HFD7HbM": 420,
    "HFmHbM": 421,
    "HCM7HEm": 422,
    "HBmHBm7": 423,
    "HDMHD+": 424,
    "HEmHAM": 425,
    "Ham7Ham7": 426,
    "HCM7HAm7": 427,
    "HaMHFm7": 428,
    "HCMHC+": 429,
    "HDMHDm7": 430,
    "HGMHBm": 431,
    "HBMHBMHBM": 432,
    "HdMHbm": 433,
    "HgMHNA": 434,
    "HDMHAm7": 435,
    "HaMHNA": 436,
    "HEMHgm": 437,
    "HCMHGMHCMHGM": 438,
    "HCMHBo": 439,
    "HBD7HBD7": 440,
    "HGmHCm7": 441,
    "HCMHCm7": 442,
    "HGMHAm": 443,
    "HBmHBM": 444,
    "HBmHGM7": 445,
    "HboHbo": 446,
    "HbMHeM7": 447,
    "HAD7HDm": 448,
    "Hesus2Hesus2": 449,
    "HdMHNA": 450,
    "HaMHaM7": 451,
    "HEMHDM": 452,
    "HFmHdM7": 453,
    "HDoHeM": 454,
    "HGMHDMHGM": 455,
    "HEm7HAM": 456,
    "HbMHbMHeM": 457,
    "HBmHgm": 458,
    "HDMHAD7": 459,
    "HGm7HeM": 460,
    "HdmHAM": 461,
    "HDmHGm": 462,
    "HED7HAM": 463,
    "HFMHFMHFMHFMHFMHFMHFMHFM": 464,
    "HDMHeM": 465,
    "HFMHAm": 466,
    "HDD7HGm": 467,
    "HFm7HbM": 468,
    "HFMHEm": 469,
    "HgmHgmHgmHgm": 470,
    "HFM7HDm7": 471,
    "HAoHGm": 472,
    "HaMHFM": 473,
    "HCMHBM": 474,
    "HGMHGm7": 475,
    "HGMHGD7": 476,
    "HGMHBM": 477,
    "HAMHAm": 478,
    "HCm7HaM7": 479,
    "HBMHdM": 480,
    "HFMHEM": 481,
    "HEmHAm7": 482,
    "HDMHBM": 483,
    "HFmHbm": 484,
    "HemHemHemHem": 485,
    "HDMHDMHAM": 486,
    "HbMHDm7": 487,
    "HbMHCm": 488,
    "HaMHgM": 489,
    "HEm7HAm7": 490,
    "HDMHgM": 491,
    "HbmHbmHbmHbm": 492,
    "HgMHgMHgM": 493,
    "HNAHNAHNAHNAHNAHNAHNAHNAHNAHNAHNAHNAHNAHNAHNAHNAHNAHNAHNAHNAHNAHNAHNAHNAHNAHNAHNAHNAHNAHNAHNAHNA": 494,
    "HaMHCm": 495,
    "HD+HeM": 496,
    "HAM7HAM": 497,
    "HGMHDm7": 498,
    "HAmHEM": 499,
    "HGMHbM": 500,
    "HCMHBm": 501,
    "HCMHCMHCMHCMHCMHCM": 502,
    "HGm7HeM7": 503,
    "HFmHFmHFm": 504,
    "HemHeM": 505,
    "HDm7HDm": 506,
    "HGMHgm": 507,
    "HFsus2HFM": 508,
    "HDMHGMHDMHGM": 509,
    "HCM7HCM7HCM7HCM7": 510,
    "HEoHDm": 511,
    "HDMHdo": 512,
    "HDm7HDm7HDm7HDm7": 513,
    "HGD7HCm": 514,
    "Hbm7HeM": 515,
    "HCM7HFM7": 516,
    "HDMHCsus2": 517,
    "HGmHCm": 518,
    "HbMHbm": 519,
    "HFmHCm": 520,
    "HdMHFM": 521,
    "HEMHEMHEMHEMHEMHEMHEMHEM": 522,
    "HbM7HGm7": 523,
    "HGMHDm": 524,
    "Hasus2Hasus2": 525,
    "HGMHDMHDM": 526,
    "HCm7HCm7HCm7HCm7": 527,
    "HAm7HFM7": 528,
    "HNAHAM": 529,
    "HdMHgm": 530,
    "HGMHdo": 531,
    "HbM7HbM": 532,
    "HBm7HAM": 533,
    "HAm7HDm": 534,
    "HbmHgM": 535,
    "HGmHDm7": 536,
    "HDM7HAM": 537,
    "HAm7HDm7": 538,
    "HGMHgM": 539,
    "HdMHdM7": 540,
    "HCMHCD7": 541,
    "HgoHEm": 542,
    "HbM7HDm7": 543,
    "HbMHFMHbMHFM": 544,
    "HEMHam": 545,
    "HAm7HFM": 546,
    "HEm7HCM7": 547,
    "HEMHEsus2": 548,
    "HGMHBm7": 549,
    "HAmHCM7": 550,
    "HAmHNA": 551,
    "HDMHgm7": 552,
    "HeMHeM7": 553,
    "HbMHAM": 554,
    "HEmHEM": 555,
    "HeMHeMHeMHeMHeMHeMHeMHeM": 556,
    "HEm7HEm7HEm7HEm7": 557,
    "HDMHDMHDMHDMHDMHDM": 558,
    "HDMHDD7": 559,
    "HbMHCm7": 560,
    "HbmHFM": 561,
    "Hd+HAM": 562,
    "HDMHAMHDMHAM": 563,
    "HFmHbm7": 564,
    "HDmHNA": 565,
    "HdmHdmHdmHdm": 566,
    "HDm7HFM": 567,
    "HgMHem": 568,
    "HAmHCM": 569,
    "HAmHBo": 570,
    "HEoHFM": 571,
    "HBmHEm7": 572,
    "HDoHCm": 573,
    "HbMHaM": 574,
    "HbMHbMHbMHbMHbMHbMHbMHbM": 575,
    "HgMHgm": 576,
    "HCMHCMHGMHGM": 577,
    "HDMHdM": 578,
    "HAMHBM": 579,
    "HBmHEM": 580,
    "HCMHCMHFMHFM": 581,
    "HbMHeMHbMHeM": 582,
    "HEmHEm7": 583,
    "HD+HbM": 584,
    "HCmHCM": 585,
    "HDmHAM": 586,
    "HaMHC+": 587,
    "HCMHgo": 588,
    "HeM7HCm7": 589,
    "HCMHGM7": 590,
    "HdMHbM": 591,
    "HGm7HCm7": 592,
    "HCMHFsus2": 593,
    "HGMHCsus2": 594,
    "HEMHdm7": 595,
    "HDMHAMHAM": 596,
    "HFm7HFM": 597,
    "HGmHNA": 598,
    "HEMHgm7": 599,
    "HGMHaM": 600,
    "HbMHbMHFM": 601,
    "HEMHEM7": 602,
    "HCM7HDm7": 603,
    "Hesus2HeM": 604,
    "HFmHaM": 605,
    "HgmHgm7": 606,
    "HBmHgM": 607,
    "HD+HGm": 608,
    "HCmHNA": 609,
    "HCMHEo": 610,
    "HDMHCM7": 611,
    "HbMHFMHFM": 612,
    "HdMHbm7": 613,
    "HED7HAm": 614,
    "HEMHEm7": 615,
    "HAMHgm7": 616,
    "HAMHAMHAMHAMHAMHAMHAMHAM": 617,
    "HGm7HGm": 618,
    "HDmHDo": 619,
    "HeMHNA": 620,
    "HDMHGsus2": 621,
    "HeMHCm7": 622,
    "HdmHgm": 623,
    "HCMHCo": 624,
    "HFMHAM": 625,
    "HFMHCMHFM": 626,
    "HAm7HAm7HAm7HAm7": 627,
    "HdmHBM": 628,
    "HDMHAm": 629,
    "HGMHFsus2": 630,
    "HCmHCo": 631,
    "HaM7HaM": 632,
    "HNAHNAHNAHNAHNA": 633,
    "HemHBM": 634,
    "HEMHAM7": 635,
    "HbmHbmHbm": 636,
    "HbMHeMHeM": 637,
    "HCmHGm7": 638,
    "HBsus2HBsus2": 639,
    "HdmHdM": 640,
    "HDmHDmHDmHDmHDmHDmHDmHDm": 641,
    "HCMHdM": 642,
    "HbMHbsus2": 643,
    "HEmHBm": 644,
    "HeMHGm": 645,
    "HEmHCM7": 646,
    "HFM7HDm": 647,
    "HEmHAm": 648,
    "HGm7HDm7": 649,
    "HCmHeM7": 650,
    "HFMHGm": 651,
    "HDM7HBm7": 652,
    "HCmHGM": 653,
    "HAm7HAM": 654,
    "HCMHDo": 655,
    "HaMHam": 656,
    "HaMHbm7": 657,
    "HgmHgmHgm": 658,
    "HCMHDsus2": 659,
    "HFM7HFM7HFM7HFM7": 660,
    "HEmHNA": 661,
    "HemHdM": 662,
    "HbM7HDm": 663,
    "HDMHd+": 664,
    "HAsus2HAM": 665,
    "HF+HF+": 666,
    "HCMHCMHCMHFM": 667,
    "HEMHEMHAM": 668,
    "HEmHdo": 669,
    "HAm7HAm": 670,
    "HaMHCm7": 671,
    "HEmHGM": 672,
    "HgmHAM": 673,
    "HGMHGMHGMHGMHGMHGM": 674,
    "HaD7HaD7": 675,
    "HgD7HgD7": 676,
    "HaMHeMHeM": 677,
    "HGm7HbM": 678,
    "HFMHFMHFMHFMHFM": 679,
    "HbM7HbM7HbM7HbM7": 680,
    "HGm7HGm7HGm7HGm7": 681,
    "HCMHDD7": 682,
    "HBm7HGM7": 683,
    "HDsus2HAM": 684,
    "HAmHGm": 685,
    "HBmHBmHBm": 686,
    "HDMHGmHGm": 687,
    "HEMHAMHAM": 688,
    "HNAHGM": 689,
    "HEm7HDm7": 690,
    "HeMHCm": 691,
    "HCMHGsus2": 692,
    "HEMHdM": 693,
    "HEMHAMHEMHAM": 694,
    "Hbsus2HFM": 695,
    "HDmHEm": 696,
    "HDMHdm": 697,
    "HDmHDsus2": 698,
    "Hdsus2Hdsus2": 699,
    "HCmHAo": 700,
    "HbMHEo": 701,
    "HDMHDMHGMHGM": 702,
    "HDm7HDm7HDm7": 703,
    "HDmHBo": 704,
    "HFmHCm7": 705,
    "HaM7HFm7": 706,
    "HBm7HEm7": 707,
    "HFmHDo": 708,
    "HeMHdM": 709,
    "HaMHDo": 710,
    "HDM7HGM7": 711,
    "HGMHBo": 712,
    "HFMHCMHCM": 713,
    "HG+HG+": 714,
    "HFMHFMHFMHFMHFMHFM": 715,
    "HbM7HGm": 716,
    "HbMHgM": 717,
    "HbMHbMHFMHFM": 718,
    "HDM7Hgm": 719,
    "HemHem7": 720,
    "HCM7HCM": 721,
    "HbmHbm7": 722,
    "HAmHEm7": 723,
    "HeM7HFM": 724,
    "HDmHeM": 725,
    "HDmHCM": 726,
    "HBm7HEm": 727,
    "HGMHgo": 728,
    "HD+HFM": 729,
    "HCm7HCm": 730,
    "HGMHFM7": 731,
    "HBD7HEm": 732,
    "HNAHEM": 733,
    "HeD7HaM": 734,
    "Hdm7HAM": 735,
    "HCMHDMHGM": 736,
    "HNAHbM": 737,
    "HaMHeMHaMHeM": 738,
    "HdmHdmHdm": 739,
    "HFmHC+": 740,
    "HbMHeMHbM": 741,
    "HEMHDsus2": 742,
    "HDMHgo": 743,
    "HFm7HaM": 744,
    "HeMHeMHeMHeMHeM": 745,
    "HbmHdM": 746,
    "HamHamHamHam": 747,
    "HamHgM": 748,
    "HEMHFM": 749,
    "HAm7HEm": 750,
    "HGD7HBo": 751,
    "HGMHFMHGM": 752,
    "HFD7HFM": 753,
    "HDD7HGM7": 754,
    "HCM7HFM": 755,
    "HCmHCsus2": 756,
    "HCm7HGm": 757,
    "HFmHGo": 758,
    "HGMHeM7": 759,
    "HFMHFMHbM": 760,
    "HAmHgo": 761,
    "HCMHbM7": 762,
    "HbMHFMHbM": 763,
    "HdmHAM7": 764,
    "HdD7HdD7": 765,
    "HCMHbsus2": 766,
    "HAD7HAM": 767,
    "HbmHeM": 768,
    "HCMHaM7": 769,
    "HCm7HFm7": 770,
    "HbM7HeM": 771,
    "HgMHAM": 772,
    "HEm7HFM7": 773,
    "HBmHdo": 774,
    "HdM7Hbm7": 775,
    "HdMHAM": 776,
    "HGmHFm": 777,
    "HDMHDMHGM": 778,
    "HC+HeM": 779,
    "HFMHFsus2": 780,
    "HCmHDo": 781,
    "HgM7HgM": 782,
    "HBmHD+": 783,
    "HaoHAM": 784,
    "HEMHBm": 785,
    "HDMHDo": 786,
    "HFm7Hbm7": 787,
    "HCmHCmHCmHCmHCmHCmHCmHCm": 788,
    "HGM7HEm7": 789,
    "HamHBM": 790,
    "HBm7HCM7": 791,
    "HDmHD+": 792,
    "HbM7HAm7": 793,
    "Ha+Ha+": 794,
    "Hdsus4Hdsus4": 795,
    "HFM7HBo": 796,
    "HDMHEo": 797,
    "HAmHbM": 798,
    "HCD7HFm": 799,
    "Hb+Hb+": 800,
    "HAmHAo": 801,
    "HNAHNAHNAHNAHNAHNA": 802,
    "HEMHaM": 803,
    "HemHgM": 804,
    "HGD7HCM7": 805,
    "Hgm7HAM": 806,
    "HEMHeM": 807,
    "HGmHEo": 808,
    "HGMHD+": 809,
    "Hgsus2Hgsus2": 810,
    "HeM7HbM": 811,
    "HDM7HDM7HDM7HDM7": 812,
    "HNAHDM": 813,
    "HemHbm": 814,
    "HFm7HdM": 815,
    "HGMHDM7": 816,
    "HbMHbMHeMHeM": 817,
    "HAmHBm": 818,
    "HCMHCMHCM7": 819,
    "HbM7HEo": 820,
    "HEmHCM": 821,
    "HaMHdM7": 822,
    "HFMHBo": 823,
    "HGm7HDm": 824,
    "HFmHNA": 825,
    "HEmHEmHEmHEmHEmHEmHEmHEm": 826,
    "HCD7HFMHFM": 827,
    "HeM7HDm7": 828,
    "HDMHDMHDMHDMHDM": 829,
    "HCMHCMHNA": 830,
    "HGM7HAM": 831,
    "HGMHDsus2": 832,
    "HAm7HAm7HAm7": 833,
    "HgMHem7": 834,
    "Hesus2HbM": 835,
    "HAmHAmHAmHAmHAmHAmHAmHAm": 836,
    "HBMHBm": 837,
    "HaMHGm": 838,
    "HGoHFM": 839,
    "HFm7HdM7": 840,
    "HGMHAD7": 841,
    "HCMHCMHCMHGM": 842,
    "HgMHaM": 843,
    "HemHBM7": 844,
    "HDm7HFM7": 845,
    "HDD7HGMHGM": 846,
    "HamHeM": 847,
    "HCM7HCM7HCM7": 848,
    "HdmHgm7": 849,
    "HGMHCMHFM": 850,
    "HGmHAM": 851,
    "HE+HE+": 852,
    "HBm7Hgm": 853,
    "HDMHGm7": 854,
    "HDMHDMHDMHGM": 855,
    "HGM7HGM7HGM7HGM7": 856,
    "HDM7HDM": 857,
    "HbmHgM7": 858,
    "HeM7HGm": 859,
    "HCMHD+": 860,
    "HEMHED7": 861,
    "HFm7HFm7HFm7HFm7": 862,
    "HAMHAMHAMHAMHAM": 863,
    "HFMHDM": 864,
    "HGM7HEm": 865,
    "HbmHbM": 866,
    "HemHbM": 867,
    "HeM7HaM7": 868,
    "HGM7HCM7": 869,
    "HEMHCM7": 870,
    "HgmHgM": 871,
    "HBmHDM": 872,
    "HGmHDM": 873,
    "HAoHbM": 874,
    "HEmHDM": 875,
    "HEmHEo": 876,
    "HDmHFM7": 877,
    "HCMHCMHCMHCMHCM": 878,
    "HDm7HGD7": 879,
    "HCMHDmHDm": 880,
    "HBmHNA": 881,
    "He+HeM": 882,
    "HFM7HFM7HFM7": 883,
    "HDmHCm": 884,
    "HGmHGmHGmHGmHGmHGmHGmHGm": 885,
    "HdM7HdM": 886,
    "HGMHCmHCm": 887,
    "HCMHbMHCM": 888,
    "HCMHGo": 889,
    "HDMHDMHAMHAM": 890,
    "HGMHEo": 891,
    "HFMHFMHGMHGM": 892,
    "HCMHDMHDM": 893,
    "HDmHGD7": 894,
    "HFmHaM7": 895,
    "HFMHGD7": 896,
    "HbM7HFM7": 897,
    "HA+HA+": 898,
    "HgMHFM": 899,
    "HdmHdm7": 900,
    "Ham7HBM": 901,
    "HaM7HGm7": 902,
    "HaMHasus2": 903,
    "HDm7HGm7": 904,
    "HbM7HCm7": 905,
    "HbM7HeM7": 906,
    "HDmHEo": 907,
    "HGMHDo": 908,
    "HC+HFM": 909,
    "HAoHeM": 910,
    "HDMHAMHDM": 911,
    "HEmHFM": 912,
    "HaMHdm": 913,
    "HDM7Hgm7": 914,
    "HGmHGsus2": 915,
    "HDmHEM": 916,
    "HGmHD+": 917,
    "HAMHAm7": 918,
    "HgMHeM": 919,
    "HDM7HBm": 920,
    "HFm7HFm": 921,
    "HbMHDM": 922,
    "HGm7HFM7": 923,
    "HBMHe+": 924,
    "HEMHeo": 925,
    "HAmHC+": 926,
    "HCmHGMHCm": 927,
    "HFMHdM": 928,
    "HeMHeMHbM": 929,
    "HAm7HCM7": 930,
    "HDMHDMHNA": 931,
    "HbmHFm": 932,
    "HGm7HCD7": 933,
    "HaMHaMHeM": 934,
    "HNAHNAHNAHNAHNAHNAHNA": 935,
    "HEsus2HEm": 936,
    "HBMHdm7": 937,
    "HFsus2HGm7": 938,
    "HGMHAMHDM": 939,
    "HCMHCMHCMHCMHCMHCMHCM": 940,
    "HGmHGo": 941,
    "HCMHCMHAm": 942,
    "HgM7HdM": 943,
    "HFsus2HeM": 944,
    "HEoHAM": 945,
    "HEMHBMHEMHBM": 946,
    "HDmHAm7": 947,
    "Hasus2HeM": 948,
    "HGmHAo": 949,
    "HCMHCmHCm": 950,
    "Hbsus2HeM": 951,
    "HCm7HCm7HCm7": 952,
    "HCMHCsus4": 953,
    "HCMHDMHCMHDM": 954,
    "HGM7HGM": 955,
    "HNAHBM": 956,
    "HDMHBo": 957,
    "Hesus2HFM": 958,
    "Hbsus2HbM": 959,
    "HbmHem7": 960,
    "HAMHDMHDM": 961,
    "HaM7HbM": 962,
    "HDmHEm7": 963,
    "HdmHam": 964,
    "HDMHAsus2": 965,
    "HDM7HDMHDM": 966,
    "HCMHAmHCMHAm": 967,
    "HCmHDM": 968,
    "HCmHC+": 969,
    "HBMHgm": 970,
    "HgMHgM7": 971,
    "HAMHd+": 972,
    "HCMHNAHNA": 973,
    "HeM7HeM7HeM7HeM7": 974,
    "HeM7HGm7": 975,
    "HBm7HBm7HBm7HBm7": 976,
    "HCsus2HFM": 977,
    "HAmHAsus2": 978,
    "HbMHFM7": 979,
    "HeMHeMHeMHeMHeMHeM": 980,
    "HAMHAM7": 981,
    "HdMHFm": 982,
    "HBm7HBm": 983,
    "HDsus4HDsus4": 984,
    "HDMHDMHDMHDMHDMHDMHDM": 985,
    "HGmHFMHGmHFM": 986,
    "HEMHEMHEMHEMHEMHEM": 987,
    "HbMHbMHbMHbMHbMHbM": 988,
    "HCm7HaM": 989,
    "HDMHbM7": 990,
    "HAMHAMHAMHAMHAMHAM": 991,
    "HdM7HeM": 992,
    "HEm7HGM": 993,
    "HEMHAsus2": 994,
    "HFMHFm": 995,
    "HFm7HGm7": 996,
    "HCoHCoHCoHCo": 997,
    "HDMHDmHDM": 998,
    "HEm7HBo": 999,
    "HCsus4HCsus4": 1000,
    "HCMHCMHFM7": 1001,
    "HFMHDmHFMHDm": 1002,
    "HCmHeMHCmHeM": 1003,
    "HDMHao": 1004,
    "HdMHBM": 1005,
    "HDMHDMHDMHAM": 1006,
    "HGMHAo": 1007,
    "HamHem": 1008,
    "HEmHBM": 1009,
    "HdoHDm": 1010,
    "HFMHGm7": 1011,
    "Hd+Hgm": 1012,
    "Hbm7HbM": 1013,
    "HAm7HCM": 1014,
    "HFoHeM": 1015,
    "Hgm7Hgm7Hgm7Hgm7": 1016,
    "HbD7HeMHeM": 1017,
    "HEMHCM": 1018,
    "HCMHNAHCMHNA": 1019,
    "HaMHaMHeMHeM": 1020,
    "HEm7HAm": 1021,
    "HDMHDmHDm": 1022,
    "HCmHD+": 1023,
    "HAmHFMHCMHGM": 1024,
    "HCm7HeM7": 1025,
    "HCmHdM": 1026,
    "HGD7HFM7": 1027,
    "HgMHBm": 1028,
    "HGMHCm7": 1029,
    "HDoHGm7": 1030,
    "HCD7HFM7": 1031,
    "HFMHGMHFMHGM": 1032,
    "HNAHGMHGM": 1033,
    "HGm7HGm7HGm7": 1034,
    "HCmHDm7": 1035,
    "HNAHFMHFM": 1036,
    "HgMHbm": 1037,
    "HemHemHem": 1038,
    "HGsus2HAM": 1039,
    "HAmHGMHGM": 1040,
    "HFmHFo": 1041,
    "HEMHBm7": 1042,
    "HB+HB+": 1043,
    "HFmHGm": 1044,
    "HCm7HGm7": 1045,
    "HFm7HaM7": 1046,
    "HFD7HbMHbM": 1047,
    "HAoHDm7": 1048,
    "Hdm7Hgm7": 1049,
    "HamHdM": 1050,
    "HCsus2HDm7": 1051,
    "HBMHeM": 1052,
    "HFM7HAM": 1053,
    "HBMHBM7": 1054,
    "HGD7HCMHCM": 1055,
    "HGMHGMHGMHGMHGMHGMHGM": 1056,
    "Hd+HDm": 1057,
    "HCm7HDm7": 1058,
    "HCMHEmHCMHEm": 1059,
    "HEMHBD7": 1060,
    "HAmHBm7": 1061,
    "HbD7HeM7": 1062,
    "HD+HD+HD+HD+": 1063,
    "HbMHCD7": 1064,
    "HBmHgm7": 1065,
    "HFmHCM": 1066,
    "HGmHGmHeM": 1067,
    "HCmHaMHeM": 1068,
    "HAm7HEm7": 1069,
    "HbMHbMHbMHbMHbM": 1070,
    "HFMHFMHFM7": 1071,
    "HCmHe+": 1072,
    "HGMHGMHGMHGMHGM": 1073,
    "HEMHAmHAm": 1074,
    "HCoHFM": 1075,
    "HC+HaM": 1076,
    "HCD7HEo": 1077,
    "HaMHaMHaMHaMHaMHaMHaMHaM": 1078,
    "HBoHDm7": 1079,
    "HFMHFMHCMHCM": 1080,
    "HGsus4HGsus4": 1081,
    "HdMHdm": 1082,
    "HemHaM": 1083,
    "HAmHEMHAm": 1084,
    "HBm7Hgm7": 1085,
    "HFmHGm7": 1086,
    "HbmHaM": 1087,
    "HAm7HGM": 1088,
    "HAoHFM": 1089,
    "HCmHFD7": 1090,
    "HCM7HEm7": 1091,
    "HCsus2HCsus2HCsus2HCsus2": 1092,
    "HaMHeM7": 1093,
    "HCMHBm7": 1094,
    "HDMHeM7": 1095,
    "HAMHAD7": 1096,
    "HNAHdM": 1097,
    "HEMHd+": 1098,
    "HBmHBo": 1099,
    "HEMHam7": 1100,
    "HamHam7": 1101,
    "HDMHEMHAM": 1102,
    "HDMHDMHD+": 1103,
    "HBMHAsus2": 1104,
    "Hem7HdM": 1105,
    "HBMHem": 1106,
    "HEMHEo": 1107,
    "HEMHFM7": 1108,
    "HFm7HeM7": 1109,
    "HBmHd+": 1110,
    "HEmHDm": 1111,
    "Hbm7HgM7": 1112,
    "HDMHED7": 1113,
    "HBMHBm7": 1114,
    "HEmHgm": 1115,
    "HBMHEMHEM": 1116,
    "HAM7Hgm7": 1117,
    "HdM7HdM7HdM7HdM7": 1118,
    "HEm7HEm7HEm7": 1119,
    "HCmHeMHeM": 1120,
    "HBMHGM": 1121,
    "HEMHGM": 1122,
    "HFMHFo": 1123,
    "HaD7HdM": 1124,
    "HEoHEoHEoHEo": 1125,
    "HCMHAmHAm": 1126,
    "HbD7HbM": 1127,
    "HAMHDmHDm": 1128,
    "HDmHDmHDmHDmHDmHDm": 1129,
    "Hg+Hg+": 1130,
    "HCMHCMHGM": 1131,
    "HDD7Hgo": 1132,
    "HDMHNAHNA": 1133,
    "HD+HNA": 1134,
    "HEMHEMHAMHAM": 1135,
    "HDM7HEm7": 1136,
    "HGm7HEo": 1137,
    "HbMHAm": 1138,
    "HeoHAM": 1139,
    "HDmHDMHDmHDM": 1140,
    "HDMHNAHDMHNA": 1141,
    "HCMHFo": 1142,
    "HDoHDoHDoHDo": 1143,
    "Hgm7Hgm": 1144,
    "HAm7HNA": 1145,
    "HbM7HbMHbM": 1146,
    "HCMHe+": 1147,
    "HAMHDm7": 1148,
    "HDoHbD7": 1149,
    "HG+HEm": 1150,
    "HdoHAD7": 1151,
    "HCMHCMHCsus2": 1152,
    "HDMHCMHDM": 1153,
    "HGMHGMHDMHDM": 1154,
    "HAmHDD7": 1155,
    "HAMHDMHAM": 1156,
    "HFD7HAo": 1157,
    "HaMHeMHaM": 1158,
    "HGMHC+": 1159,
    "HCMHFm7": 1160,
    "HGmHbM7": 1161,
    "HFmHFsus2": 1162,
    "HGD7HGD7HGD7HGD7": 1163,
    "HeD7HeM": 1164,
    "HEMHBo": 1165,
    "HEmHFM7": 1166,
    "HDoHFM": 1167,
    "HFMHFMHFMHFMHFMHFMHFM": 1168,
    "HAmHFMHFM": 1169,
    "HDmHCMHDm": 1170,
    "HAMHbM": 1171,
    "HgMHCo": 1172,
    "HCMHdo": 1173,
    "HAsus4HAsus4": 1174,
    "HAMHAsus2": 1175,
    "Hbm7Hbm7Hbm7Hbm7": 1176,
    "HeM7HeMHeM": 1177,
    "HAMHGM": 1178,
    "HNAHNAHNAHNAHNAHNAHNAHNAHNAHNAHNAHNAHNAHNAHNAHNAHNAHNAHNAHNAHNAHNAHNAHNAHNAHNAHNAHNAHNAHNAHNAHNAHNAHNAHNAHNAHNAHNAHNAHNAHNAHNAHNAHNAHNAHNAHNAHNAHNAHNAHNAHNAHNAHNAHNAHNAHNAHNAHNAHNAHNAHNAHNAHNA": 1179,
    "HeMHDm": 1180,
    "HCMHAo": 1181,
    "HCMHGsus4": 1182,
    "HaoHgm": 1183,
    "HGMHGMHCMHCM": 1184,
    "HdM7HFM": 1185,
    "HDMHDMHDsus2": 1186,
    "HaM7HDo": 1187,
    "HBm7HAm7": 1188,
    "HbM7HCD7": 1189,
    "HBoHBoHBoHBo": 1190,
    "HGMHe+": 1191,
    "HbmHNA": 1192,
    "Hem7HeM": 1193,
    "HBMHam7": 1194,
    "HAmHFMHAmHFM": 1195,
    "HgoHCo": 1196,
    "HCM7HBo": 1197,
    "HDMHAM7": 1198,
    "HDM7HAD7": 1199,
    "HbMHbMHCMHCM": 1200,
    "HCmHCMHCm": 1201,
    "HCoHbM": 1202,
    "HdmHgM": 1203,
    "HFM7HAm7": 1204,
    "HaMHeMHbM": 1205,
    "HBmHDM7": 1206,
    "HEMHdo": 1207,
    "HGMHG+": 1208,
    "HDmHDmHDm7": 1209,
    "HamHEM7": 1210,
    "HCMHG+": 1211,
    "HAMHEm": 1212,
    "HBmHGMHGM": 1213,
    "HeMHFMHeM": 1214,
    "HDoHbM": 1215,
    "HCoHdM": 1216,
    "HGoHeM": 1217,
    "HAmHCMHAm": 1218,
    "HDMHGMHGMHGM": 1219,
    "HGM7HGM7HGM7": 1220,
    "HAmHEo": 1221,
    "HAmHFMHCM": 1222,
    "HbMHbMHbMHeM": 1223,
    "HFm7HCm7": 1224,
    "HBmHCM7": 1225,
    "HaM7HCm7": 1226,
    "HDMHEsus2": 1227,
    "HCMHAD7": 1228,
    "HDMHDMHDm": 1229,
    "HbMHbMHNA": 1230,
    "HCsus2HNA": 1231,
    "HBoHFM": 1232,
    "HFsus4HFsus4": 1233,
    "HFMHFMHDm7": 1234,
    "HGMHAsus2": 1235,
    "Hdm7HAM7": 1236,
    "HCMHCMHAm7": 1237,
    "HaMHdMHaMHdM": 1238,
    "HCMHgM": 1239,
    "HDM7Hdm7": 1240,
    "HEm7HGM7": 1241,
    "HFm7HbD7": 1242,
    "HEMHe+": 1243,
    "HdMHdsus2": 1244,
    "HCm7HFD7": 1245,
    "HgoHGm": 1246,
    "HbmHem": 1247,
    "HDmHbMHFM": 1248,
    "HAMHdm": 1249,
    "HbMHeMHFM": 1250,
    "HGmHeMHGmHeM": 1251,
    "HNAHEm": 1252,
    "HAm7HBo": 1253,
    "HDMHAo": 1254,
    "HAmHAMHAM": 1255,
    "HDMHDsus4": 1256,
    "HGmHGMHGM": 1257,
    "HDMHAsus4": 1258,
    "HGm7HCm": 1259,
    "HCmHCmHeM": 1260,
    "HBMHEsus2": 1261,
    "Hbm7HdM": 1262,
    "HGMHGMHAMHAM": 1263,
    "HNAHCMHCM": 1264,
    "HGMHaM7": 1265,
    "HFmHFmHFmHFmHFmHFmHFmHFm": 1266,
    "HBMHGM7": 1267,
    "HamHamHam": 1268,
    "HAMHgM": 1269,
    "HbMHbMHD+": 1270,
    "HNAHgM": 1271,
    "HBMHam": 1272,
    "HCM7Hgo": 1273,
    "HgmHdm": 1274,
    "HAm7HGm7": 1275,
    "HBMHdm": 1276,
    "HCMHbm": 1277,
    "HAD7HDMHDM": 1278,
    "HGMHFm": 1279,
    "HCMHCMHC+": 1280,
    "HCmHbm": 1281,
    "HGMHGMHGM7": 1282,
    "HeoHEm": 1283,
    "HbMHbMHeM7": 1284,
    "HAmHAmHFMHFM": 1285,
    "HED7HAMHAM": 1286,
    "HCMHFMHFMHFM": 1287,
    "HFMHFMHeM": 1288,
    "Hbm7Hbm": 1289,
    "HGMHDD7": 1290,
    "HCMHE+": 1291,
    "HAmHGsus2": 1292,
    "HGmHaM": 1293,
    "HaMHaMHdM": 1294,
    "HdoHAM": 1295,
    "HCmHaMHCmHaM": 1296,
    "HEmHGM7": 1297,
    "HFMHAm7": 1298,
    "HGmHAm": 1299,
    "HCm7HNA": 1300,
    "HDMHCMHCM": 1301,
    "HemHam7": 1302,
    "HGMHNAHNA": 1303,
    "HFm7HDo": 1304,
    "HNAHgm": 1305,
    "HF+HDm": 1306,
    "HdD7Hgm": 1307,
    "HDMHDMHCMHCM": 1308,
    "HCmHCmHCmHCmHCmHCm": 1309,
    "HBMHaM": 1310,
    "HEsus4HEsus4": 1311,
    "HDMHGmHDMHGm": 1312,
    "HDMHCMHGM": 1313,
    "HeMHeMHaM": 1314,
    "HGMHGo": 1315,
    "HDsus2HDsus2HDsus2HDsus2": 1316,
    "HEM7HEM7HEM7HEM7": 1317,
    "HD+HAM": 1318,
    "HdoHdoHdoHdo": 1319,
    "HCmHCMHCM": 1320,
    "HDm7HGm": 1321,
    "HDM7HDM7HDM7": 1322,
    "HGMHNAHGMHNA": 1323,
    "HGmHeMHbMHFM": 1324,
    "HBMHBMHBMHBMHBMHBMHBMHBM": 1325,
    "HC+HdM": 1326,
    "HFMHFMHFMHCM": 1327,
    "HFMHFMHNA": 1328,
    "HBmHAm": 1329,
    "HGMHCMHGMHGM": 1330,
    "HgMHam7": 1331,
    "HBmHGMHDM": 1332,
    "HCD7HDm7": 1333,
    "HamHaM": 1334,
    "HFMHbM7": 1335,
    "HBMHbM": 1336,
    "HEMHEMHEm": 1337,
    "HGMHGmHGM": 1338,
    "HDMHGMHEm": 1339,
    "HaMHeD7": 1340,
    "HEMHAm7": 1341,
    "HgM7Hem7": 1342,
    "HBm7HGM": 1343,
    "HDoHeM7": 1344,
    "HdM7HCm7": 1345,
    "HFMHFMHDm": 1346,
    "HGm7HNA": 1347,
    "HBmHdm": 1348,
    "HBMHBsus2": 1349,
    "HFm7Hem7": 1350,
    "HFMHNAHFMHNA": 1351,
    "HAmHCMHFM": 1352,
    "HBMHEM7": 1353,
    "HEMHEsus4": 1354,
    "HAMHDsus2": 1355,
    "HaM7HGm": 1356,
    "HFsus4HFM": 1357,
    "HAD7HAD7HAD7HAD7": 1358,
    "HCM7HCMHCM": 1359,
    "HFm7Hbm": 1360,
    "HFD7Hbm": 1361,
    "HEm7HDsus2": 1362,
    "HGMHGMHNA": 1363,
    "HBoHGD7": 1364,
    "HEMHao": 1365,
    "HAmHbM7": 1366,
    "HFMHGMHFM": 1367,
    "HGMHdM": 1368,
    "HDM7HAM7": 1369,
    "HBMHgm7": 1370,
    "HEmHCMHGM": 1371,
    "HDm7HNA": 1372,
    "HgMHgm7": 1373,
    "HCsus2HCsus2HCsus2": 1374,
    "HAMHDmHAMHDm": 1375,
    "HBMHBD7": 1376,
    "HFmHFmHdM": 1377,
    "Hd+HdM": 1378,
    "HCmHDm": 1379,
    "HEMHC+": 1380,
    "HgMHgsus2": 1381,
    "HAm7HEo": 1382,
    "HGmHCM": 1383,
    "HDMHGMHAM": 1384,
    "Hesus4HeM": 1385,
    "HFsus2HFsus2HFsus2HFsus2": 1386,
    "HeoHeM": 1387,
    "HFoHBo": 1388,
    "HFD7HbM7": 1389,
    "Hbsus4Hbsus4": 1390,
    "HgmHBm7": 1391,
    "HCMHGD7HCMHGD7": 1392,
    "HFM7HCM7": 1393,
    "HCoHeM": 1394,
    "HAD7HDmHDm": 1395,
    "HGoHCm7": 1396,
    "HCMHdM7": 1397,
    "HCD7HCD7HCD7HCD7": 1398,
    "HbMHFMHeM": 1399,
    "HAm7HGM7": 1400,
    "HGmHFMHeM": 1401,
    "HBoHAM": 1402,
    "HbMHCMHbMHCM": 1403,
    "Hbm7Hem7": 1404,
    "HDoHFm": 1405,
    "HNAHeMHNA": 1406,
    "HbMHdM": 1407,
    "HGMHbM7": 1408,
    "HDMHDMHBm": 1409,
    "HEMHEMHAmHAm": 1410,
    "HGMHGmHGm": 1411,
    "HDm7HbM": 1412,
    "HGmHGmHGmHGmHGmHGm": 1413,
    "HDD7HGmHGm": 1414,
    "HD+HDm": 1415,
    "HGMHgm7": 1416,
    "HdmHEM": 1417,
    "HED7HAmHAm": 1418,
    "HFm7HCm": 1419,
    "HDMHDMHGmHGm": 1420,
    "HgoHAo": 1421,
    "HdmHem": 1422,
    "HDMHDMHDM7": 1423,
    "HDsus2HNA": 1424,
    "HdMHdMHdMHdMHdMHdMHdMHdM": 1425,
    "HAmHBM": 1426,
    "HDm7HbM7": 1427,
    "HCMHCMHEm": 1428,
    "HDMHDMHGM7": 1429,
    "Hasus2HaM": 1430,
    "HCM7HBm7": 1431,
    "HFsus2HbM": 1432,
    "HGMHGsus4": 1433,
    "HNAHaM": 1434,
    "HeM7HeM7HeM7": 1435,
    "HDoHDm": 1436,
    "HED7Hgm": 1437,
    "HGD7HDm7": 1438,
    "HFM7HAm": 1439,
    "HDMHaM": 1440,
    "HAm7HDD7": 1441,
    "HEoHEoHEo": 1442,
    "HDmHbMHDmHbM": 1443,
    "HFmHdMHFmHdM": 1444,
    "HCsus4HFM": 1445,
    "HboHEo": 1446,
    "HGMHd+": 1447,
    "Hb+HGm": 1448,
    "HbM7HAM": 1449,
    "HBm7HDM7": 1450,
    "HBmHao": 1451,
    "HgmHEm": 1452,
    "HGoHGoHGo": 1453,
    "HFmHgM": 1454,
    "Hdm7HdM": 1455,
    "HGD7HCM": 1456,
    "HDsus2HDm7": 1457,
    "Hem7HaM": 1458,
    "HbMHbMHbM7": 1459,
    "Hdm7HgM": 1460,
    "HNAHDm": 1461,
    "HGD7HCmHCm": 1462,
    "HCm7HFm": 1463,
    "HAm7HGsus2": 1464,
    "HAD7Hdo": 1465,
    "Ham7HdM": 1466,
    "HAmHAmHAmHAmHAmHAm": 1467,
    "HCmHGMHGM": 1468,
    "HCmHFsus2": 1469,
    "HGM7Hgm7": 1470,
    "HAmHD+": 1471,
    "HCmHGo": 1472,
    "HEMHBMHBM": 1473,
    "HaMHGm7": 1474,
    "HEm7Hdo": 1475,
    "HGMHCmHGMHCm": 1476,
    "HaM7HeM7": 1477,
    "HAM7Hgm": 1478,
    "HDMHFM7": 1479,
    "HFD7HeM": 1480,
    "HFMHCM7": 1481,
    "HAMHaM": 1482,
    "HDoHDm7": 1483,
    "HCMHFmHCMHFm": 1484,
    "HgMHEM": 1485,
    "HeMHeMHeMHeMHeMHeMHeM": 1486,
    "HDoHFo": 1487,
    "HbM7HbM7HbM7": 1488,
    "HDmHDmHbM": 1489,
    "HDMHEmHEm": 1490,
    "HCm7HAo": 1491,
    "HCm7Hbsus2": 1492,
    "HEm7Hgm7": 1493,
    "HGsus2HNA": 1494,
    "HgD7HBm": 1495,
    "HaoHAm": 1496,
    "HEMHNAHEMHNA": 1497,
    "HEm7HNA": 1498,
    "HBoHBoHBo": 1499,
    "HdM7Hbm": 1500,
    "HdMHdMHgM": 1501,
    "HdoHGo": 1502,
    "HC+HFm": 1503,
    "HdmHeo": 1504,
    "HEMHdmHEMHdm": 1505,
    "Hdm7Hgm": 1506,
    "HCMHCMHDm7": 1507,
    "HEmHAD7": 1508,
    "HaM7HaM7HaM7HaM7": 1509,
    "HGD7HGD7HGD7": 1510,
    "HBMHbm": 1511,
    "HaMHbD7": 1512,
    "HBmHAm7": 1513,
    "HDoHBo": 1514,
    "HFD7HFD7HFD7HFD7": 1515,
    "HbMHbMHbMHFM": 1516,
    "HCMHEmHEm": 1517,
    "HgM7HgM7HgM7HgM7": 1518,
    "HCmHCmHaMHaM": 1519,
    "HDMHBmHGMHGM": 1520,
    "HdoHEo": 1521,
    "HGMHGMHEm": 1522,
    "HDmHCMHFM": 1523,
    "HgMHam": 1524,
    "HGmHAm7": 1525,
    "HDMHDMHGm": 1526,
    "HNAHCM": 1527,
    "HgMHEsus2": 1528,
    "HGsus2HGM": 1529,
    "HDMHDMHDm7": 1530,
    "HBMHEMHBM": 1531,
    "HAmHCsus2": 1532,
    "HBMHFo": 1533,
    "HEm7HAD7": 1534,
    "HaMHGo": 1535,
    "HCM7HGM": 1536,
    "HGsus2HFM": 1537,
    "HEMHDMHEM": 1538,
    "HD+HD+HD+": 1539,
    "HCoHCoHCo": 1540,
    "HeMHeMHFMHFM": 1541,
    "HGsus2HEm": 1542,
    "HFm7HNA": 1543,
    "HDMHEmHCMHGM": 1544,
    "HbMHCsus2": 1545,
    "HgMHBM7": 1546,
    "HDMHDMHDmHDm": 1547,
    "HFoHFM": 1548,
    "Hbsus4HeM": 1549,
    "HCM7HGM7": 1550,
    "HemHNA": 1551,
    "HDmHCsus2": 1552,
    "HCmHGmHGm": 1553,
    "HCMHGMHCMHFM": 1554,
    "HAsus4HAM": 1555,
    "HAmHAmHAM": 1556,
    "HgMHbM": 1557,
    "HeMHFMHeMHFM": 1558,
    "HaM7HbD7": 1559,
    "HeoHgm": 1560,
    "HEMHEMHNA": 1561,
    "HAmHAMHAmHAM": 1562,
    "HCMHeM7": 1563,
    "HAM7HAM7HAM7HAM7": 1564,
    "HGmHCMHFM": 1565,
    "HeoHAo": 1566,
    "HAMHAMHNA": 1567,
    "HemHCo": 1568,
    "HCm7HCo": 1569,
    "HEMHAMHEM": 1570,
    "HGD7HGD7HCMHCM": 1571,
    "HGMHGMHeM": 1572,
    "HBm7HBm7HBm7": 1573,
    "HGMHeMHGMHeM": 1574,
    "HbMHbMHbMHbMHbMHbMHbM": 1575,
    "HGm7HbM7": 1576,
    "HaMHCo": 1577,
    "HGMHDMHAM": 1578,
    "HEMHEmHEMHEm": 1579,
    "HCmHesus2": 1580,
    "HBmHBsus2": 1581,
    "HdmHdo": 1582,
    "HBoHEm": 1583,
    "HFoHFoHFoHFo": 1584,
    "HEMHNAHNA": 1585,
    "HgMHgMHgMHgMHgMHgMHgMHgM": 1586,
    "HCMHDmHCMHDm": 1587,
    "HBMHEmHEm": 1588,
    "HGmHFsus2": 1589,
    "HeM7HAo": 1590,
    "HGMHAmHAm": 1591,
    "HGMHCo": 1592,
    "HemHbm7": 1593,
    "HEmHeM": 1594,
    "HemHFM": 1595,
    "HDMHDMHEMHEM": 1596,
    "HFmHFmHCmHCm": 1597,
    "HEoHGm": 1598,
    "HDoHDoHDo": 1599,
    "HCMHCMHCMHCM7": 1600,
    "HaMHam7": 1601,
    "HemHg+": 1602,
    "HDmHFsus2": 1603,
    "HED7HAM7": 1604,
    "HGmHGMHGmHGM": 1605,
    "HaMHCM": 1606,
    "HbD7HDo": 1607,
    "Hesus2HdM": 1608,
    "HCMHGMHCMHCM": 1609,
    "HbmHGo": 1610,
    "HAoHAoHAoHAo": 1611,
    "HCMHCMHCMHCMHCMHCMHCMHCMHCMHCMHCMHCMHCMHCMHCMHCM": 1612,
    "HbMHFMHCMHDm": 1613,
    "HgMHdMHgMHdM": 1614,
    "HGM7HBm7": 1615,
    "HAD7HDM7": 1616,
    "HeMHeMHbMHbM": 1617,
    "HeoHCo": 1618,
    "HDmHDmHCMHCM": 1619,
    "HEoHEm": 1620,
    "HCD7HFmHFm": 1621,
    "HDm7HAm": 1622,
    "HEmHEmHEmHEmHEmHEm": 1623,
    "HDm7HBo": 1624,
    "HFM7HEm7": 1625,
    "HbMHGM": 1626,
    "HCsus2HCM": 1627,
    "HaM7HdM": 1628,
    "HAMHeM": 1629,
    "HgmHDM": 1630,
    "HgMHbm7": 1631,
    "HaM7HCm": 1632,
    "HGMHAMHGMHAM": 1633,
    "HAmHAmHGMHGM": 1634,
    "HGmHCsus2": 1635,
    "HDm7HAm7": 1636,
    "HFMHbMHFM": 1637,
    "HGm7HGM": 1638,
    "HBmHdM": 1639,
    "HCm7HbM7": 1640,
    "Hd+HFM": 1641,
    "HDMHCm": 1642,
    "HDmHbMHDm": 1643,
    "HCm7Hbm7": 1644,
    "Hdm7Hdm": 1645,
    "HEMHDM7": 1646,
    "HamHEM": 1647,
    "HFMHGMHCM": 1648,
    "HgoHGM7": 1649,
    "HeM7HDm": 1650,
    "HDD7HCM7": 1651,
    "HGm7HAm7": 1652,
    "HEoHCD7": 1653,
    "HDmHDmHDmHDm7": 1654,
    "HCMHGMHCM": 1655,
    "HCmHBo": 1656,
    "HEm7HBm7": 1657,
    "HC+HC+HC+": 1658,
    "HBmHDMHBm": 1659,
    "Hdsus4Hdsus4Hdsus4Hdsus4": 1660,
    "HDMHDMHgm": 1661,
    "HGsus2HGsus2HGsus2HGsus2": 1662,
    "HDm7HCM7": 1663,
    "HEM7HEM": 1664,
    "HCMHFMHbM": 1665,
    "HDD7HDD7HDD7HDD7": 1666,
    "HEmHEmHCMHCM": 1667,
    "HaMHdsus2": 1668,
    "HAMHAMHDmHDm": 1669,
    "HEoHFM7": 1670,
    "HDM7Hdo": 1671,
    "HAmHDMHGM": 1672,
    "HDMHEmHDMHEm": 1673,
    "HGmHeMHeM": 1674,
    "HAMHNAHAMHNA": 1675,
    "HaMHe+": 1676,
    "Hem7HBM7": 1677,
    "HDm7HEm7": 1678,
    "HaM7HFm": 1679,
    "HAm7HDM": 1680,
    "He+HEm": 1681,
    "HGMHGMHAM": 1682,
    "HAMHGsus2": 1683,
    "HEmHBm7": 1684,
    "HCD7HCD7HCD7": 1685,
    "HF+HFM": 1686,
    "HBMHeo": 1687,
    "HAmHGD7": 1688,
    "HAmHGMHAmHGM": 1689,
    "HdoHdM": 1690,
    "HBmHED7": 1691,
    "HCoHAo": 1692,
    "HCMHEMHCMHEM": 1693,
    "HbM7HNA": 1694,
    "HAMHAMHAMHAMHAMHAMHAM": 1695,
    "HBsus2HBo": 1696,
    "HDMHDMHDMHDm": 1697,
    "HCmHFmHCmHFm": 1698,
    "HDD7HGD7": 1699,
    "HdM7HFm": 1700,
    "HGmHCD7": 1701,
    "HbMHFD7": 1702,
    "HDmHDmHDmHDmHDm": 1703,
    "HbmHbsus2": 1704,
    "HDmHDm7HDmHDm7": 1705,
    "HBmHDMHGM": 1706,
    "HCMHFM7HCMHFM7": 1707,
    "HGmHDo": 1708,
    "HCMHCMHCMHNA": 1709,
    "Hd+HNA": 1710,
    "HGD7HGM": 1711,
    "HDsus2HDm": 1712,
    "HdMHdMHdMHdMHdM": 1713,
    "HdmHam7": 1714,
    "HEsus2HAM": 1715,
    "HEoHNA": 1716,
    "HCMHgm": 1717,
    "HeD7HeD7HeD7HeD7": 1718,
    "HFM7HNA": 1719,
    "HCmHbMHCmHbM": 1720,
    "HEM7Hdm7": 1721,
    "HAmHAmHFM": 1722,
    "HGm7HFMHFM": 1723,
    "HaMHGM": 1724,
    "HdoHEm": 1725,
    "HEM7HAM": 1726,
    "HGoHEo": 1727,
    "HEm7HEM": 1728,
    "HCoHNA": 1729,
    "HCMHCMHDm": 1730,
    "HgoHeo": 1731,
    "HCMHFMHDm": 1732,
    "HEMHEMHEMHAM": 1733,
    "HFMHFm7": 1734,
    "HAmHEmHEm": 1735,
    "HCM7HAM": 1736,
    "HCMHbMHFM": 1737,
    "HFMHFMHbMHbM": 1738,
    "HBMHgMHBM": 1739,
    "HDMHDMHBm7": 1740,
    "HGsus2HGm": 1741,
    "HFsus2HNA": 1742,
    "HdmHNA": 1743,
    "HCM7HAm": 1744,
    "Hdsus2HdM": 1745,
    "HBmHGMHDMHAM": 1746,
    "HFm7HFm7HFm7": 1747,
    "HbMHbMHGm": 1748,
    "HFmHeMHeM": 1749,
    "HEm7HBm": 1750,
    "HEMHDm": 1751,
    "HCM7HNA": 1752,
    "HamHFo": 1753,
    "Hd+Hd+Hd+": 1754,
    "HGMHEmHGMHEm": 1755,
    "HeMHeMHeMHbM": 1756,
    "HFMHBM": 1757,
    "HGM7HBm": 1758,
    "HdMHdMHaMHaM": 1759,
    "HbM7HaM7": 1760,
    "He+HBM": 1761,
    "HAmHAmHAm7": 1762,
    "HbMHCMHbM": 1763,
    "HBoHEm7": 1764,
    "HgM7HFm7": 1765,
    "HGM7Hdo": 1766,
    "HCm7HCm7HCm7HCm7HCm7HCm7HCm7HCm7": 1767,
    "HDoHao": 1768,
    "HEoHeM": 1769,
    "HNAHNAHFM": 1770,
    "HDMHDMHEm": 1771,
    "HeD7HaMHaM": 1772,
    "HEMHem": 1773,
    "HdmHaM": 1774,
    "HaM7HdM7": 1775,
    "HCMHAsus2": 1776,
    "HeM7HbM7": 1777,
    "HamHgm": 1778,
    "HEMHgo": 1779,
    "HNAHNAHeM": 1780,
    "HAmHDo": 1781,
    "HFsus2HFM7": 1782,
    "HEMHAmHEMHAm": 1783,
    "HCMHCMHCMHCsus2": 1784,
    "HdoHDM": 1785,
    "HFoHbM": 1786,
    "HamHAM": 1787,
    "HgD7HBM": 1788,
    "HFMHaM": 1789,
    "HDm7HGM": 1790,
    "HEmHEsus2": 1791,
    "HCmHCm7HCmHCm7": 1792,
    "HbD7HbD7HbD7HbD7": 1793,
    "HDD7HEm": 1794,
    "HBMHEm7": 1795,
    "HCMHCMHFMHCM": 1796,
    "Hb+HeM": 1797,
    "HEM7HAM7": 1798,
    "HFmHeMHFmHeM": 1799,
    "HD+HDM": 1800,
    "HAoHGm7": 1801,
    "HDmHDmHbMHbM": 1802,
    "HCMHGMHGMHGM": 1803,
    "HamHem7": 1804,
    "Hdsus2HeM": 1805,
    "HFM7HEm": 1806,
    "HNAHeMHeM": 1807,
    "HDmHDmHbM7": 1808,
    "HbMHbm7": 1809,
    "HEm7HEmHEm7": 1810,
    "HAmHDsus2": 1811,
    "HCoHCm": 1812,
    "HEMHEMHEMHEMHEM": 1813,
    "HAMHDMHGM": 1814,
    "HgmHDM7": 1815,
    "HGMHGMHCMHGM": 1816,
    "HbMHNAHbMHNA": 1817,
    "HDmHDmHAmHAm": 1818,
    "HdD7HdM": 1819,
    "HDoHCm7": 1820,
    "HAD7HDMHGM": 1821,
    "HCM7HCMHCM7": 1822,
    "HCoHbm": 1823,
    "HCsus2HGM": 1824,
    "HEoHDm7": 1825,
    "HDMHCsus2HBmHD+": 1826,
    "HgMHBMHBM": 1827,
    "HFMHEm7": 1828,
    "HDoHaM": 1829,
    "HEoHbM": 1830,
    "HGMHAMHAM": 1831,
    "HGMHEmHEm": 1832,
    "HAmHFMHGM": 1833,
    "HdM7HdM7HdM7": 1834,
    "HdoHdoHdo": 1835,
    "HEMHEMHEMHEm": 1836,
    "HeMHeMHeM7": 1837,
    "HAoHDm": 1838,
    "HAmHGm7": 1839,
    "HaMHeMHFm": 1840,
    "HFMHbm": 1841,
    "HDoHNA": 1842,
    "HeMHeMHaMHaM": 1843,
    "HaMHdMHdM": 1844,
    "HamHdm7": 1845,
    "HAmHED7": 1846,
    "HAmHEmHAmHEm": 1847,
    "HamHdm": 1848,
    "HCMHCMHBo": 1849,
    "HGMHGMHGMHCM": 1850,
    "HAMHFMHAMHFM": 1851,
    "HCMHFMHCMHFMHCMHFM": 1852,
    "HGmHDmHDm": 1853,
    "HGD7HGm7": 1854,
    "HGD7HAm7": 1855,
    "Hem7Hem": 1856,
    "HBm7HDM": 1857,
    "HDoHAM": 1858,
    "HFmHeMHdM": 1859,
    "HGmHeMHGm": 1860,
    "HAmHFMHDm": 1861,
    "HaMHaMHaMHaMHaMHaM": 1862,
    "HAMHFM7": 1863,
    "HCMHFmHFm": 1864,
    "HFmHFMHFM": 1865,
    "HaMHeMHeMHeM": 1866,
    "HGM7HGMHGM": 1867,
    "Hgsus2HdM": 1868,
    "HaM7HaM7HaM7": 1869,
    "HCMHCMHeM": 1870,
    "HCD7HDm": 1871,
    "HeD7HGo": 1872,
    "HgmHdM": 1873,
    "HAmHeM": 1874,
    "HaMHeMHFmHdM": 1875,
    "HDMHDMHDMHDsus2": 1876,
    "HEMHE+": 1877,
    "Hem7Hem7Hem7Hem7": 1878,
    "HFm7Hesus2": 1879,
    "HeMHeMHCm7": 1880,
    "HEm7HEm7HEm7HEm7HEm7HEm7HEm7HEm7": 1881,
    "HAmHCo": 1882,
    "HCMHFMHFMHFMHFM": 1883,
    "HAmHCMHGM": 1884,
    "HDMHGMHDM": 1885,
    "HFMHCsus2": 1886,
    "HFmHem": 1887,
    "HAmHam": 1888,
    "HgMHdM7": 1889,
    "HED7HED7HED7HED7": 1890,
    "HbM7HD+": 1891,
    "HC+HbM": 1892,
    "HFm7HFsus2": 1893,
    "HGMHDMHEm": 1894,
    "HdoHNA": 1895,
    "HGoHGoHGoHGo": 1896,
    "Hem7Ham7": 1897,
    "HCMHDm7HCMHDm7": 1898,
    "HFsus2HCsus2": 1899,
    "HFMHCMHDm": 1900,
    "HBMHBMHEMHEM": 1901,
    "HBm7HAD7": 1902,
    "HEMHDo": 1903,
    "HbMHGmHbMHGm": 1904,
    "HdMHeMHdM": 1905,
    "HDM7Hao": 1906,
    "HCmHDD7": 1907,
    "HGoHdM": 1908,
    "HaMHbMHeM": 1909,
    "HEmHEmHEmHEmHEm": 1910,
    "HGmHFMHFM": 1911,
    "HFD7HDm7": 1912,
    "HDsus2HCsus2": 1913,
    "HCMHAm7HCMHAm7": 1914,
    "HFm7HCmHCm": 1915,
    "HAMHDM7": 1916,
    "HAmHCMHCM": 1917,
    "HEm7HEmHEm": 1918,
    "HAMHdM": 1919,
    "HgoHgm": 1920,
    "HEMHEmHEm": 1921,
    "HgoHAm7": 1922,
    "HCMHbMHbM": 1923,
    "HNAHDMHDM": 1924,
    "HdD7HgM": 1925,
    "HEmHDm7": 1926,
    "HGsus2HGsus2HGsus2": 1927,
    "Hdm7HBM": 1928,
    "HCMHDMHGMHGM": 1929,
    "HCmHCM7": 1930,
    "HAMHAMHDMHDM": 1931,
    "He+He+He+He+": 1932,
    "HEoHAm7": 1933,
    "HEMHbo": 1934,
    "HGm7HGo": 1935,
    "HFMHFD7": 1936,
    "HD+HC+": 1937,
    "HFm7HGo": 1938,
    "HFM7HbM": 1939,
    "HaMHesus2": 1940,
    "HeM7HNA": 1941,
    "HgM7HCo": 1942,
    "HFM7HGD7": 1943,
    "HEMHbM": 1944,
    "HDMHCo": 1945,
    "HBmHDsus2": 1946,
    "Hem7HgM": 1947,
    "HbMHFMHGm": 1948,
    "HFm7HGm": 1949,
    "HBoHDm": 1950,
    "HAmHFm": 1951,
    "HBD7HEmHEm": 1952,
    "HGsus2HAm7": 1953,
    "Hbm7HFm": 1954,
    "HDMHBmHBm": 1955,
    "HCMHa+": 1956,
    "HGmHGmHeMHeM": 1957,
    "HamHNA": 1958,
    "Hasus2HdM": 1959,
    "HAmHAmHDm7": 1960,
    "HGsus2HGM7": 1961,
    "HEMHEMHEMHBM": 1962,
    "HBMHBMHBMHBMHBMHBM": 1963,
    "HDMHb+": 1964,
    "HDmHDMHDm": 1965,
    "HCMHCMHCMHEm": 1966,
    "HEmHgM": 1967,
    "Hbsus4HbM": 1968,
    "HbM7HFMHbM7": 1969,
    "HCmHCmHaM7": 1970,
    "HDMHCm7": 1971,
    "HCMHEMHEM": 1972,
    "HGMHBmHGM": 1973,
    "HbmHbo": 1974,
    "HCoHGm": 1975,
    "HNAHNAHNAHNAHNAHNAHNAHNAHNAHNAHNAHNAHNAHNAHNAHNAHNAHNAHNAHNAHNAHNAHNAHNA": 1976,
    "HgoHAM": 1977,
    "HAsus2HAMHAM": 1978,
    "HdoHgm7": 1979,
    "HC+HDo": 1980,
    "He+HCm": 1981,
    "HDMHDMHbM": 1982,
    "HaoHED7": 1983,
    "HgM7Hbm7": 1984,
    "HEsus2HEsus2HEsus2HEsus2": 1985,
    "HdoHgM": 1986,
    "HDMHeo": 1987,
    "HFmHGD7": 1988,
    "HeoHdM": 1989,
    "HDMHBmHDMHBm": 1990,
    "HDM7HDMHDM7": 1991,
    "HDsus2HDsus2HDsus2": 1992,
    "HCmHCmHeMHeM": 1993,
    "HGsus2HGm7": 1994,
    "HCmHgo": 1995,
    "HFmHbD7": 1996,
    "HAM7Ham7": 1997,
    "HBsus2HBoHBsus2": 1998,
    "HGMHCMHNA": 1999,
    "HCM7HGD7": 2000,
    "HDD7HDm7": 2001,
    "HCM7HCsus2": 2002,
    "Hbm7HFM": 2003,
    "HAMHEMHAM": 2004,
    "HEMHBsus2": 2005,
    "HDmHDmHGmHGm": 2006,
    "HbMHbD7": 2007,
    "HCMHesus2": 2008,
    "HFMHGsus2": 2009,
    "HDMHdm7": 2010,
    "HDMHGMHGMHGMHGM": 2011,
    "HBmHBmHBmHBmHBmHBmHBmHBm": 2012,
    "HAM7Hdm": 2013,
    "HFMHC+": 2014,
    "HbMHFm7": 2015,
    "HCmHdM7": 2016,
    "HboHFM": 2017,
    "HFM7HFMHFM": 2018,
    "HFoHdM": 2019,
    "HCsus2HeM": 2020,
    "HEmHgm7": 2021,
    "HemHemHemHemHemHemHemHem": 2022,
    "Hd+Hdm": 2023,
    "HCMHNAHNAHNA": 2024,
    "HFoHNA": 2025,
    "HGmHdo": 2026,
    "HAMHEMHgm": 2027,
    "HgMHdMHdM": 2028,
    "HFmHdMHeM": 2029,
    "HgoHGM": 2030,
    "HDoHGD7": 2031,
    "HGm7HFsus2": 2032,
    "HFmHa+": 2033,
    "HbmHdM7": 2034,
    "HBD7HEM7": 2035,
    "HFmHCMHFm": 2036,
    "HEM7HEM7HEM7": 2037,
    "HGMHGMHGMHGMHGMHGMHGMHGMHGMHGMHGMHGMHGMHGMHGMHGM": 2038,
    "HdmHeM": 2039,
    "HF+HbM": 2040,
    "HGmHGmHeM7": 2041,
    "HGm7HDo": 2042,
    "HEm7HDm": 2043,
    "HCm7HGo": 2044,
    "HCMHCMHAmHAm": 2045,
    "HNAHGm": 2046,
    "HBMHAMHBMHAM": 2047,
    "HCmHCmHGmHGm": 2048,
    "HEm7HDM": 2049,
    "HBmHAMHAM": 2050,
    "HBMHDM": 2051,
    "HgMHd+": 2052,
    "HCmHbM7": 2053,
    "HAmHGM7": 2054,
    "HCMHAMHAM": 2055,
    "HAmHFMHCMHGMHAmHFMHCMHGM": 2056,
    "HGMHCMHEm": 2057,
    "HAsus2HAm7": 2058,
    "HGMHGM7HGMHGM7": 2059,
    "HDm7HDm7HDm7HDm7HDm7HDm7HDm7HDm7": 2060,
    "HemHesus2": 2061,
    "HEMHEMHEM7": 2062,
    "HFM7HbM7": 2063,
    "Hgm7HBm7": 2064,
    "HCMHCM7HCMHCM7": 2065,
    "HEoHFMHFM": 2066,
    "HaM7HFM": 2067,
    "HBoHBm": 2068,
    "HAMHBm7": 2069,
    "HCD7HCD7HFMHFM": 2070,
    "HC+HNA": 2071,
    "HboHbM": 2072,
    "HgMHDM7": 2073,
    "HGM7HAD7": 2074,
    "HCmHbsus2": 2075,
    "HgoHEm7": 2076,
    "HFmHGM": 2077,
    "HaMHaD7": 2078,
    "HDMHA+": 2079,
    "HaMHFmHaMHFm": 2080,
    "HFm7HCo": 2081,
    "HgM7HdM7": 2082,
    "HFmHFmHFmHFmHFmHFm": 2083,
    "HFsus2HFMHFM": 2084,
    "HAsus2HNA": 2085,
    "HCmHCmHCm7": 2086,
    "HGmHGmHGmHGm7": 2087,
    "HBM7HdM": 2088,
    "Hdm7Hdm7Hdm7Hdm7": 2089,
    "HFMHCMHGM": 2090,
    "HNAHbMHNA": 2091,
    "HDMHAm7HDMHAm7": 2092,
    "HdMHdMHeMHeM": 2093,
    "HgoHgoHgoHgo": 2094,
    "HbMHAm7": 2095,
    "HemHeo": 2096,
    "HNAHNAHAM": 2097,
    "HdoHgm": 2098,
    "HAoHDD7": 2099,
    "Hem7Hbm7": 2100,
    "HGmHeM7HGmHeM7": 2101,
    "HAD7HAD7HAD7": 2102,
    "HDMHGo": 2103,
    "HEoHAD7": 2104,
    "HdmHDm": 2105,
    "HGMHFMHCM": 2106,
    "HDm7HCsus2": 2107,
    "HdMHdMHdM7": 2108,
    "HAoHgo": 2109,
    "HDsus2HEm": 2110,
    "HC+HC+HC+HC+": 2111,
    "HgMHBMHgMHBM": 2112,
    "HDMHDMHGMHDM": 2113,
    "HgmHGm": 2114,
    "Hbm7HaM7": 2115,
    "HCmHGD7": 2116,
    "HGsus2HDm": 2117,
    "HdoHbo": 2118,
    "HDMHDMHDMHDMHDMHDMHDMHDMHDMHDMHDMHDMHDMHDMHDMHDM": 2119,
    "HDMHDMHDMHDM7": 2120,
    "HaMHbsus2": 2121,
    "HAM7HAM7HAM7": 2122,
    "HFsus2HFsus2HFsus2": 2123,
    "HGmHbsus2": 2124,
    "HAoHbM7": 2125,
    "HGD7HEm7": 2126,
    "HFoHgM": 2127,
    "HCmHCmHFm": 2128,
    "HFM7HCM": 2129,
    "HGm7HaM7": 2130,
    "HemHgM7": 2131,
    "HAoHAM": 2132,
    "HgMHgMHdM": 2133,
    "Hasus2HbM": 2134,
    "HamHao": 2135,
    "HGmHaM7": 2136,
    "HGMHGMHGMHGM7": 2137,
    "HdoHdm": 2138,
    "HGmHGmHFMHFM": 2139,
    "HgmHgmHgmHgmHgmHgmHgmHgm": 2140,
    "HCD7HFD7": 2141,
    "HGMHGMHGm": 2142,
    "HCmHbD7": 2143,
    "HCM7HEM": 2144,
    "HGMHGsus2HAm7": 2145,
    "HGMHFMHeM": 2146,
    "HCMHCMHCMHCMHCMHCMHCMHCMHCMHCMHCMHCM": 2147,
    "HAoHAm": 2148,
    "HbMHFMHCMHFM": 2149,
    "HCmHBm": 2150,
    "HFm7HeMHeM": 2151,
    "HDD7HEm7": 2152,
    "HD+HeM7": 2153,
    "HbMHFm": 2154,
    "HDD7HGMHDD7HGM": 2155,
    "HBmHAsus2": 2156,
    "HdM7HNA": 2157,
    "HBM7HBM": 2158,
    "HBmHdm7": 2159,
    "HgMHdMHaMHbm": 2160,
    "HDm7HeM": 2161,
    "HDmHDmHFM": 2162,
    "HBmHGMHBmHGM": 2163,
    "HBoHNA": 2164,
    "HGMHDsus4": 2165,
    "HCMHCMHCMHAm7": 2166,
    "HGmHGmHGm7": 2167,
    "HboHboHboHbo": 2168,
    "Hdm7HEM": 2169,
    "HDMHgmHDMHgm": 2170,
    "HBm7HAM7": 2171,
    "HAD7HDmHAD7HDm": 2172,
    "HBM7HeM": 2173,
    "HDmHC+": 2174,
    "HEsus2HEM": 2175,
    "Hbm7HaM": 2176,
    "HAsus2HAsus2HAsus2": 2177,
    "HCM7HC+": 2178,
    "HAoHFD7": 2179,
    "HAoHGmHAoHGm": 2180,
    "HgmHNA": 2181,
    "HDm7HCm7": 2182,
    "HGm7HCsus2": 2183,
    "HNAHNAHNAHNAHNAHNAHNAHNAHNA": 2184,
    "Hgm7Hgm7Hgm7": 2185,
    "HCoHCm7HFM": 2186,
    "HEmHEmHCM7": 2187,
    "HeMHeMHFM": 2188,
    "HDmHDmHGm7": 2189,
    "HEMHEMHEMHEMHEMHEMHEM": 2190,
    "HFmHbMHFmHbM": 2191,
    "Hgsus2HD+": 2192,
    "HAmHGMHCM": 2193,
    "HaoHaoHaoHao": 2194,
    "HGmHeMHFM": 2195,
    "HaoHAM7": 2196,
    "HCM7HCM7HCM7HCM7HCM7HCM7HCM7HCM7": 2197,
    "HCD7HAm7": 2198,
    "HaMHEM": 2199,
    "Hbm7HCm7": 2200,
    "HgoHAm": 2201,
    "HbmHFMHbm": 2202,
    "HBM7Ham7": 2203,
    "HDM7HNA": 2204,
    "HGmHDmHGmHDm": 2205,
    "HAmHAmHDm": 2206,
    "HCmHCmHCmHCm7": 2207,
    "HDMHDMHdo": 2208,
    "HD+HCsus2": 2209,
    "HBsus4HBsus4": 2210,
    "HFMHFM7HFM": 2211,
    "HGMHGMHEmHEm": 2212,
    "HBmHAD7": 2213,
    "HCmHaMHaM": 2214,
    "Hb+HbM": 2215,
    "HbMHbMHaMHaM": 2216,
    "HDMHBm7HDMHBm7": 2217,
    "HeM7HeMHeM7": 2218,
    "HamHe+": 2219,
    "HDMHDMHAD7": 2220,
    "HAmHFM7HAmHFM7": 2221,
    "HDMHCMHFM": 2222,
    "HboHeM": 2223,
    "HDm7HDo": 2224,
    "HDM7HDsus2": 2225,
    "HAMHdo": 2226,
    "HgoHBM": 2227,
    "HFM7HC+": 2228,
    "HFmHFmHeM": 2229,
    "HAmHDmHAmHDm": 2230,
    "HDMHAMHEMHgm": 2231,
    "HgMHgMHdMHdM": 2232,
    "HGmHGmHGmHGmHGm": 2233,
    "HBM7HBM7HBM7HBM7": 2234,
    "HEM7HgM": 2235,
    "HCMHAMHCMHAM": 2236,
    "HdM7HGo": 2237,
    "HAoHCm": 2238,
    "HDoHGM": 2239,
    "HEm7HEo": 2240,
    "HeMHeMHNA": 2241,
    "HBmHgo": 2242,
    "HFD7HeM7": 2243,
    "Hem7HgM7": 2244,
    "HEM7Hdm": 2245,
    "Hgm7HDM7": 2246,
    "HgMHgMHEMHEM": 2247,
    "HGMHGMHEm7": 2248,
    "HAoHNA": 2249,
    "HAMHEm7": 2250,
    "Hbm7Hbm7Hbm7": 2251,
    "HEMHDMHAM": 2252,
    "HD+HbM7": 2253,
    "HGoHGm": 2254,
    "HGM7Hgm": 2255,
    "HgD7HgM": 2256,
    "HEoHGm7": 2257,
    "HFmHFmHFM": 2258,
    "HEMHAMHAMHAM": 2259,
    "HAmHgm": 2260,
    "HBoHED7": 2261,
    "HGMHGMHCmHCm": 2262,
    "HAMHAMHDm": 2263,
    "HBm7HED7": 2264,
    "HAoHD+": 2265,
    "Hesus2HeM7": 2266,
    "HAMHAMHAMHDM": 2267,
    "HAM7Heo": 2268,
    "HGMHFMHFM": 2269,
    "HCm7HCsus2": 2270,
    "HaMHCmHaM": 2271,
    "HC+HGm": 2272,
    "HaMHem": 2273,
    "HNAHNAHbM": 2274,
    "HDMHNAHNAHNA": 2275,
    "HDmHbM7HDmHbM7": 2276,
    "HbMHCMHFM": 2277,
    "Hbsus2Hbsus2Hbsus2Hbsus2": 2278,
    "HDMHBmHGMHGMHDMHBmHGMHGM": 2279,
    "HemHDm": 2280,
    "HFMHFMHFsus2": 2281,
    "HAMHDmHAM": 2282,
    "HCm7HCD7": 2283,
    "HCm7HeMHeM": 2284,
    "HCMHCMHCD7": 2285,
    "HaM7HeMHeM": 2286,
    "HeMHesus2": 2287,
    "HDoHGm": 2288,
    "HCMHGMHGMHGMHGM": 2289,
    "HA+HAM": 2290,
    "HCMHCmHCMHCm": 2291,
    "HNAHGMHNA": 2292,
    "HCMHCMHCmHCm": 2293,
    "HGoHdo": 2294,
    "HbD7HbD7HbD7": 2295,
    "HCM7HGMHGM": 2296,
    "HGoHbm": 2297,
    "HBoHFo": 2298,
    "HgoHFM": 2299,
    "HEm7HEsus2": 2300,
    "Hem7HBM": 2301,
    "HBm7Hgo": 2302,
    "HCMHCMHCMHCMHCMHFM": 2303,
    "Hd+Hbm": 2304,
    "HbMHbMHGm7": 2305,
    "HDmHFMHFM": 2306,
    "HFD7HGm": 2307,
    "HDmHDmHDmHDM": 2308,
    "HD+Hb+": 2309,
    "Hem7Hbm": 2310,
    "HDm7HDM": 2311,
    "HCm7HCM": 2312,
    "HFmHEm": 2313,
    "HEMHGMHEM": 2314,
    "HEmHEmHEmHEmHEmHEmHEm": 2315,
    "HCMHCM7HCM7": 2316,
    "HemHam": 2317,
    "HCmHCmHCmHCmHCm": 2318,
    "HAMHAMHAM7": 2319,
    "HDD7HDM": 2320,
    "HEm7Hgm": 2321,
    "HAmHAm7HAmHAm7": 2322,
    "HCmHCoHCMHE+": 2323,
    "HCmHCoHCMHE+HCoHCm7HFM": 2324,
    "HCmHCoHCMHE+HCoHCm7HFMHFsus2HGm7": 2325,
    "HCmHCoHCMHE+HCoHCm7HFMHFsus2HGm7HGMHGsus2HAm7": 2326,
    "HBm7HCM7HDMHGM": 2327,
    "HCMHCMHbM": 2328,
    "HGMHFo": 2329,
    "HAoHeM7": 2330,
    "HDMHbMHDMHbM": 2331,
    "HCMHGMHAm7": 2332,
    "HFMHCMHDm7": 2333,
    "HdMHdMHdMHdMHdMHdM": 2334,
    "HEMHBM7": 2335,
    "HGmHDm7HGmHDm7": 2336,
    "HCMHCMHFMHGM": 2337,
    "Hdm7Ham7": 2338,
    "HCsus2HAM": 2339,
    "HFoHgm": 2340,
    "HGMHDMHEm7": 2341,
    "HCmHCoHCMHE+HCoHCm7HFMHFsus2HGm7HGMHGsus2HAm7HCmHCoHCMHE+HCoHCm7HFMHFsus2HGm7HGMHGsus2HAm7": 2342,
    "HGD7HCMHFM": 2343,
    "HGMHGMHAm7": 2344,
    "HgM7HbM": 2345,
    "HFMHbMHFMHFM": 2346,
    "HEoHdo": 2347,
    "HamHbm": 2348,
    "HCMHeMHCMHeM": 2349,
    "HCM7HBM": 2350,
    "HAmHAmHFM7": 2351,
    "HFm7HFo": 2352,
    "HFMHCMHFMHFM": 2353,
    "HGMHGMHCM": 2354,
    "HgM7HaM": 2355,
    "HFMHDmHFM": 2356,
    "HGm7HFD7": 2357,
    "HDMHAMHDMHDM": 2358,
    "HBmHCsus2": 2359,
    "HFmHbMHeM": 2360,
    "HFMHFMHFMHbM": 2361,
    "HFmHbsus2": 2362,
    "HgMHD+": 2363,
    "HEMHDm7": 2364,
    "Hbm7HGo": 2365,
    "HeMHeMHDMHDM": 2366,
    "HdM7HaM": 2367,
    "HGmHEm": 2368,
    "HCMHCMHDMHDM": 2369,
    "HCm7HDm": 2370,
    "HbD7HGm7": 2371,
    "HBoHFM7": 2372,
    "HGsus2HFsus2": 2373,
    "HeoHeoHeo": 2374,
    "HCMHCMHCMHFM7": 2375,
    "HAmHAmHAmHAM": 2376,
    "HFMHDm7HFMHDm7": 2377,
    "HFoHDo": 2378,
    "HgoHgoHgo": 2379,
    "HAmHAmHAmHAm7": 2380,
    "HFmHCmHCm": 2381,
    "HDM7HDm": 2382,
    "HgMHBsus2": 2383,
    "HaoHgm7": 2384,
    "HEMHFMHEM": 2385,
    "HCm7HbMHbM": 2386,
    "HBoHAm7": 2387,
    "HGM7HNA": 2388,
    "Hd+Hd+Hd+Hd+": 2389,
    "HEMHDMHDM": 2390,
    "HCmHGmHCmHGm": 2391,
    "HCMHCMHCm": 2392,
    "HC+Hbm": 2393,
    "HGoHbM": 2394,
    "HDmHam": 2395,
    "HDsus2HDM": 2396,
    "HAoHeo": 2397,
    "HDMHGMHCMHGM": 2398,
    "HGMHbm": 2399,
    "HCMHGmHCMHGm": 2400,
    "HaoHeM": 2401,
    "HBm7HEM": 2402,
    "HBoHAm": 2403,
    "HaM7HGo": 2404,
    "HFD7HDm": 2405,
    "HaMHbMHaMHbM": 2406,
    "Hbm7HFm7": 2407,
    "HDM7Hdm": 2408,
    "HAsus2HEm": 2409,
    "HNAHCMHNA": 2410,
    "HCmHaM7HCmHaM7": 2411,
    "HeMHeMHeMHeM7": 2412,
    "HEoHbo": 2413,
    "HAMHAMHEMHEM": 2414,
    "HeMHeMHeMHFM": 2415,
    "HFMHFMHFMHFM7": 2416,
    "Hd+HAMHAM": 2417,
    "HGMHAmHGM": 2418,
    "HCmHbMHbM": 2419,
    "HBM7HEM7": 2420,
    "HCMHCMHGD7": 2421,
    "HGmHDMHGm": 2422,
    "HGsus2HGMHGM": 2423,
    "HamHbo": 2424,
    "HBm7Hdm7": 2425,
    "HFM7HEo": 2426,
    "HBoHCM7": 2427,
    "HCMHaMHCMHaM": 2428,
    "HGsus2HDm7": 2429,
    "HCmHbMHeM": 2430,
    "Hesus2Hesus2Hesus2Hesus2": 2431,
    "HbM7HFMHFM": 2432,
    "HFD7HFD7HFD7": 2433,
    "HGmHb+": 2434,
    "HaM7He+": 2435,
    "HBMHBmHBm": 2436,
    "HBmHEMHAM": 2437,
    "HDMHAMHDMHGM": 2438,
    "HDmHGMHDmHGM": 2439,
    "HbMHbMHGmHGm": 2440,
    "Hesus4Hesus4": 2441,
    "HFmHeM7": 2442,
    "HBoHao": 2443,
    "HBMHEmHBMHEm": 2444,
    "HAMHEMHEM": 2445,
    "HdM7HFm7": 2446,
    "HDMHEMHDMHEM": 2447,
    "Hgsus2Hgm": 2448,
    "HCm7HFMHFM": 2449,
    "HCmHFo": 2450,
    "HgMHFm": 2451,
    "HGM7HgM": 2452,
    "HCoHem": 2453,
    "HAMHgmHAMHgm": 2454,
    "HCMHDMHEm": 2455,
    "HFsus2HDm": 2456,
    "HEMHBsus4": 2457,
    "HgMHgMHBM": 2458,
    "HCoHgo": 2459,
    "HAM7HBM": 2460,
    "HAm7HbM7": 2461,
    "HeMHDM": 2462,
    "HgM7Hbm": 2463,
    "HDD7HDD7HDD7": 2464,
    "HCMHDMHAM": 2465,
    "HEMHCsus2": 2466,
    "HAMHAMHgm": 2467,
    "HFmHDm": 2468,
    "HBoHDo": 2469,
    "HeMHem": 2470,
    "Hbm7HeD7": 2471,
    "HAM7HDM7": 2472,
    "HAMHBm": 2473,
    "HDsus2HFsus2": 2474,
    "Hdm7HAMHdm7HAM": 2475,
    "HBD7Heo": 2476,
    "He+He+He+": 2477,
    "HAmHG+": 2478,
    "HDMHGD7": 2479,
    "Ham7HgM": 2480,
    "HGmHGmHCm7": 2481,
    "HbMHCmHaMHeM": 2482,
    "HCMHGMHEm": 2483,
    "HFmHFmHbm": 2484,
    "HdMHGo": 2485,
    "HaMHCmHCm": 2486,
    "HbMHbM7HbMHbM7": 2487,
    "HDMHDM7HDM7": 2488,
    "HeMHgM": 2489,
    "HD+HEo": 2490,
    "HbMHCMHDm": 2491,
    "HAmHeo": 2492,
    "HFsus4HbM": 2493,
    "HaMHdMHaM": 2494,
    "HDMHAD7HDMHAD7": 2495,
    "HDmHCM7": 2496,
    "HBmHAMHBmHAM": 2497,
    "HdMHd+": 2498,
    "HGsus2HEo": 2499,
    "HFMHFM7HFMHFM7": 2500,
    "HCoHgM": 2501,
    "HeMHGm7": 2502,
    "HAMHDMHgm": 2503,
    "HAMHeo": 2504,
    "HbMHFMHbMHbM": 2505,
    "HAMHEo": 2506,
    "HFMHEo": 2507,
    "HAoHCm7": 2508,
    "HCmHG+": 2509,
    "HBm7Hdo": 2510,
    "HCMHCMHFm": 2511,
    "HAMHBD7": 2512,
    "HaMHaMHaMHaMHaM": 2513,
    "HEmHgo": 2514,
    "HdmHdsus2": 2515,
    "HEMHCMHEM": 2516,
    "HGMHGMHFM": 2517,
    "HAoHCo": 2518,
    "HFD7HD+": 2519,
    "HCD7HbM7": 2520,
    "HDM7HED7": 2521,
    "HgMHgMHgMHgMHgMHgM": 2522,
    "HCMHCMHGm7": 2523,
    "HbmHDm": 2524,
    "HDMHDMHEmHEm": 2525,
    "HCD7HFMHCD7HFM": 2526,
    "HEsus2Hgm7": 2527,
    "HAmHDmHDm": 2528,
    "HaoHDo": 2529,
    "HDMHEMHEM": 2530,
    "HBM7HFo": 2531,
    "HDMHDsus2HDMHDsus2": 2532,
    "HbMHDo": 2533,
    "HFMHFMHFMHFMHFMHFMHFMHFMHFMHFMHFMHFMHFMHFMHFMHFM": 2534,
    "He+HNA": 2535,
    "HC+HCM": 2536,
    "HAoHGo": 2537,
    "HBm7HBM": 2538,
    "HgoHDD7": 2539,
    "HdMHeD7": 2540,
    "HAm7HBm7": 2541,
    "HeMHbMHeM": 2542,
    "HgmHeo": 2543,
    "HeMHGM": 2544,
    "HDMHDMHDMHNA": 2545,
    "HgM7HFM": 2546,
    "HFmHFmHdMHdM": 2547,
    "HAsus2HAsus2HAsus2HAsus2": 2548,
    "HCD7HGm7": 2549,
    "HCMHGMHNA": 2550,
    "HdMHCm": 2551,
    "HGmHbMHeM": 2552,
    "Hbm7HgM": 2553,
    "HGM7HDM": 2554,
    "HAMHCM": 2555,
    "HCsus2HGm": 2556,
    "HDMHg+": 2557,
    "HCmHb+": 2558,
    "HCmHCmHFm7": 2559,
    "HBmHEsus2": 2560,
    "Hd+Hgm7": 2561,
    "HC+HD+": 2562,
    "HgMHdMHgM": 2563,
    "HDmHDmHDM": 2564,
    "HC+Hbsus2": 2565,
    "HBMHCM": 2566,
    "HCMHCMHCMHDm7": 2567,
    "Hbm7HdM7": 2568,
    "HDmHDmHDmHDmHDmHDmHDm": 2569,
    "Hasus2Hasus2Hasus2Hasus2": 2570,
    "HAMHAMHAsus2": 2571,
    "Hgsus2HgM": 2572,
    "HDm7HeM7": 2573,
    "HEM7Ham7": 2574,
    "HGM7HDM7": 2575,
    "HCm7HFsus2": 2576,
    "HBD7HEM": 2577,
    "Hbm7HFo": 2578,
    "HgMHGM": 2579,
    "Hesus2HNA": 2580,
    "HED7Hao": 2581,
    "HDmHDMHDM": 2582,
    "HDMHFsus2": 2583,
    "Hesus2HFm7": 2584,
    "HFmHFMHFm": 2585,
    "HD+HGm7": 2586,
    "HCMHCMHDmHDm": 2587,
    "HDMHAMHgm": 2588,
    "HaMHBM": 2589,
    "HemHFo": 2590,
    "Hbsus2HbM7": 2591,
    "HGMHGMHFMHFM": 2592,
    "HGMHGMHGMHNA": 2593,
    "HGoHCD7": 2594,
    "HDMHGM7HDMHGM7": 2595,
    "HCMHd+": 2596,
    "HAmHEMHEM": 2597,
    "HBmHAMHDM": 2598,
    "HGm7HCM": 2599,
    "HCmHam": 2600,
    "HCmHCsus4": 2601,
    "HDMHFMHDMHFM": 2602,
    "HaMHaMHaMHdM": 2603,
    "HGm7HFm7": 2604,
    "HDMHDMHDMHgm": 2605,
    "Hgm7HAM7": 2606,
    "HAmHAmHAmHAmHAm": 2607,
    "HDMHCMHbM": 2608,
    "HDmHGm7HDmHGm7": 2609,
    "HGD7HFM": 2610,
    "HDoHFsus2": 2611,
    "HD+HbMHD+": 2612,
    "HGmHeMHbMHFMHGmHeMHbMHFM": 2613,
    "HBmHGMHAM": 2614,
    "HDoHFm7": 2615,
    "HCMHbm7": 2616,
    "HDoHCo": 2617,
    "HFmHe+": 2618,
    "HBm7HAsus2": 2619,
    "HDsus2HEm7": 2620,
    "HAmHAM7": 2621,
    "HeoHGm": 2622,
    "HGmHGmHFM": 2623,
    "HGm7HF+": 2624,
    "HGMHbsus2": 2625,
    "HFMHCMHFM7": 2626,
    "HFD7HbMHFD7HbM": 2627,
    "HGMHAsus4": 2628,
    "HNAHbMHbM": 2629,
    "HDD7HDD7HGMHGM": 2630,
    "HGmHGmHGmHGmHGmHGmHGm": 2631,
    "HCsus2Hbsus2": 2632,
    "HBm7HCM7HDMHGMHBm7HCM7HDMHGM": 2633,
    "HDoHCmHCm": 2634,
    "HdMHdo": 2635,
    "HEMHEMHEmHEm": 2636,
    "HDD7HNA": 2637,
    "HGMHFm7": 2638,
    "HAmHFMHAm": 2639,
    "HEMHGsus2": 2640,
    "HdM7HeD7": 2641,
    "HGoHDm": 2642,
    "HGmHGMHGm": 2643,
    "HbMHem": 2644,
    "Hdsus4HdM": 2645,
    "HbMHGm7HbMHGm7": 2646,
    "HCMHCsus2HCMHCsus2": 2647,
    "HbMHbMHbMHbM7": 2648,
    "HbMHAo": 2649,
    "HAm7HGD7": 2650,
    "HbMHGmHbM": 2651,
    "HeMHeD7": 2652,
    "HaM7HCmHCm": 2653,
    "HamHBM7": 2654,
    "HEmHEm7HEm": 2655,
    "Hbm7HbD7": 2656,
    "HDMHDMHDMHDm7": 2657,
    "HGMHGMHGMHGm": 2658,
    "HGMHCMHCMHCMHCM": 2659,
    "HAMHAo": 2660,
    "HeoHNA": 2661,
    "HCMHEsus2": 2662,
    "HCmHFmHbMHeM": 2663,
    "HCoHFm7": 2664,
    "HDM7HdM": 2665,
    "HaMHFo": 2666,
    "HeM7HCm": 2667,
    "Hasus4HdM": 2668,
    "HBmHgD7": 2669,
    "HgMHBmHBm": 2670,
    "HGMHeMHeM": 2671,
    "HAD7HDM": 2672,
    "HAoHAoHAo": 2673,
    "HbMHbMHbm": 2674,
    "HBMHNAHNA": 2675,
    "HaD7HdMHdM": 2676,
    "HCMHAmHFM": 2677,
    "HBmHBMHBM": 2678,
    "HDD7HeM": 2679,
    "HDm7HEm": 2680,
    "HbMHFMHD+": 2681,
    "HBMHBo": 2682,
    "HaMHAM": 2683,
    "HCmHbMHaM": 2684,
    "HAmHAMHAMHAM": 2685,
    "HDMHDMHEm7": 2686,
    "HAmHAmHEmHEm": 2687,
    "Ham7Ham7Ham7Ham7": 2688,
    "HGmHFMHbM": 2689,
    "HGoHFm": 2690,
    "HCmHdo": 2691,
    "Hesus2HeMHeM": 2692,
    "HCmHGsus4": 2693,
    "HFMHD+": 2694,
    "HCoHCm7": 2695,
    "HEsus2HEsus2HEsus2": 2696,
    "HCMHCMHEmHEm": 2697,
    "HGMHCMHFM7": 2698,
    "HCMHCMHFmHFm": 2699,
    "HGMHGMHCM7": 2700,
    "HGMHCMHCMHCM": 2701,
    "HCsus2HCM7": 2702,
    "Hbm7HeMHeM": 2703,
    "HAmHFsus2": 2704,
    "HCmHCmHNA": 2705,
    "HCMHEMHAm": 2706,
    "HDmHF+": 2707,
    "HaM7HaMHaM": 2708,
    "Hem7Hem7Hem7": 2709,
    "HCMHFMHFM7": 2710,
    "HEMHFo": 2711,
    "HgoHgm7": 2712,
    "HFm7HbMHFm7HbM": 2713,
    "HNAHNAHNAHNAHNAHNAHNAHNAHNAHNA": 2714,
    "HAMHAMHDMHAM": 2715,
    "HEmHdoHEmHdo": 2716,
    "HaoHNA": 2717,
    "HBmHCMHGM": 2718,
    "Hdsus2HaM": 2719,
    "HgM7Hem": 2720,
    "HgMHDM": 2721,
    "HDmHFo": 2722,
    "HCD7HbM": 2723,
    "HDmHDmHGMHGM": 2724,
    "HCMHFMHCMHCM": 2725,
    "HG+HCM7": 2726,
    "HEoHFm": 2727,
    "HaM7HNA": 2728,
    "HDMHFMHFM": 2729,
    "HaM7HC+": 2730,
    "HBm7HNA": 2731,
    "HGM7HGsus2": 2732,
    "HDmHCMHCM": 2733,
    "HGoHNA": 2734,
    "HbMHFMHDm": 2735,
    "HDsus2HEM": 2736,
    "HCMHDsus4": 2737,
    "HAm7HCsus2": 2738,
    "HDMHDMHBmHBm": 2739,
    "HAMHAmHAM": 2740,
    "HFMHbsus2": 2741,
    "HAD7Hgm7": 2742,
    "HbM7HbM7HbM7HbM7HbM7HbM7HbM7HbM7": 2743,
    "Hd+HDM": 2744,
    "HaD7Hdm": 2745,
    "HAMHAMHgm7": 2746,
    "HC+HDm7": 2747,
    "HAMHNAHNA": 2748,
    "HAMHAMHAmHAm": 2749,
    "HBMHGMHGM": 2750,
    "HDM7HEM": 2751,
    "HDsus2HAsus2": 2752,
    "HgmHAM7": 2753,
    "HCmHFMHbM": 2754,
    "Hbsus2Hbsus2Hbsus2": 2755,
    "HFmHCmHFm": 2756,
    "HAsus2HGsus2": 2757,
    "HDMHBMHDMHBM": 2758,
    "HgD7Hgm7": 2759,
    "HAmHFMHGMHCM": 2760,
    "HD+HCm7": 2761,
    "He+HdM": 2762,
    "HBm7HBo": 2763,
    "HgoHCM7": 2764,
    "HCD7HFMHFMHFM": 2765,
    "HCMHGMHCMHGMHCMHGM": 2766,
    "HGm7HFMHGm7HFM": 2767,
    "HEM7HeM": 2768,
    "HeoHbM": 2769,
    "HEM7Ham": 2770,
    "HEm7HED7": 2771,
    "HCMHGm7HCMHGm7": 2772,
    "HgMHemHgMHem": 2773,
    "HB/o7HB/o7": 2774,
    "HbMHFMHGm7": 2775,
    "HEMHEMHdm": 2776,
    "HFD7HbMHeM": 2777,
    "HDmHeM7": 2778,
    "HDmHDmHFMHFM": 2779,
    "HFm7HFD7": 2780,
    "HDMHDM7HDMHDM7": 2781,
    "HeM7HeM7HeM": 2782,
    "HgMHgMHNA": 2783,
    "HDMHAMHDMHAMHDMHAM": 2784,
    "HED7HED7HED7": 2785,
    "HNAHNAHNAHNAHNAHNAHNAHNAHNAHNAHNAHNA": 2786,
    "HCm7HbD7": 2787,
    "HED7HAMHED7": 2788,
    "HBMHd+": 2789,
    "HCmHFMHCmHFM": 2790,
    "HDoHeMHeM": 2791,
    "HAmHCm": 2792,
    "HeoHeoHeoHeo": 2793,
    "HAoHAm7": 2794,
    "HCD7HNA": 2795,
    "HGM7HD+": 2796,
    "Hd+HD+": 2797,
    "HCMHCD7HFM": 2798,
    "Hesus2Hbm": 2799,
    "HGmHbMHFM": 2800,
    "HEMHamHEMHam": 2801,
    "Hbsus2HGm7": 2802,
    "HAMHAMHFM": 2803,
    "HD+HbMHbM": 2804,
    "HaD7HCo": 2805,
    "HFmHFmHeMHeM": 2806,
    "HGM7HGMHGM7": 2807,
    "HNAHDMHNA": 2808,
    "HGmHGm7HGmHGm7": 2809,
    "HEoHDmHDm": 2810,
    "HdM7Hem7": 2811,
    "HFM7HFM7HFMHFM": 2812,
    "HaMHaMHbM": 2813,
    "HFMHbMHbM": 2814,
    "HCMHC+HCMHC+": 2815,
    "HAmHGMHFM": 2816,
    "HEMHCMHCM": 2817,
    "HGmHFM7": 2818,
    "HdMHC+": 2819,
    "HeMHbm": 2820,
    "HAM7HNA": 2821,
    "HGM7HAm7": 2822,
    "HEmHDsus2": 2823,
    "HGMHGMHGMHEm": 2824,
    "HaMHeMHFmHeM": 2825,
    "HAMHF+": 2826,
    "HgMHdm": 2827,
    "HDMHGMHgm": 2828,
    "HBmHDMHDM": 2829,
    "HEm7HFM": 2830,
    "HEM7HEsus2": 2831,
    "HFsus2HDm7": 2832,
    "HBMHCM7": 2833,
    "HFmHFM7": 2834,
    "HGsus2HeM": 2835,
    "Ham7Ham": 2836,
    "HgoHGMHGM": 2837,
    "HaMHFMHaMHFM": 2838,
    "HbM7HFD7": 2839,
    "HCMHFMHD+": 2840,
    "HCm7HdM": 2841,
    "HC+HBo": 2842,
    "HGM7HDMHDM": 2843,
    "HFm7Hbsus2": 2844,
    "HFoHFoHFo": 2845,
    "HCmHbm7": 2846,
    "HbmHbmHbmHbmHbmHbmHbmHbm": 2847,
    "HAMHAMHDM": 2848,
    "HGMHCMHAm7": 2849,
    "HgMHdo": 2850,
    "HA+HFM": 2851,
    "HBMHFM": 2852,
    "HCMHCMHbMHbM": 2853,
    "HCmHeMHaM": 2854,
    "HbD7HeMHbD7HeM": 2855,
    "HC+HFM7": 2856,
    "HCMHGMHeM": 2857,
    "HBMHgMHgM": 2858,
    "HBD7HEMHEM": 2859,
    "HAsus2HAm": 2860,
    "HCmHeMHbM": 2861,
    "HCMHbo": 2862,
    "HCMHCMHCMHCm": 2863,
    "HCMHF+": 2864,
    "HGMHDD7HGM": 2865,
    "HBM7Hbm7": 2866,
    "HDMHEm7HDMHEm7": 2867,
    "HDMHDMHeM": 2868,
    "HaM7HeMHaM7HeM": 2869,
    "HFmHesus2": 2870,
    "HCsus2HbM": 2871,
    "HbMHeMHbMHeMHbMHeM": 2872,
    "HAMHGMHGM": 2873,
    "HAMHAMHFMHFM": 2874,
    "HGMHCMHDm": 2875,
    "HbM7HbMHbM7": 2876,
    "HDsus2HGsus2": 2877,
    "HgmHdm7": 2878,
    "HCMHFMHCMHDm": 2879,
    "HeoHem7": 2880,
    "HCMHFMHCMHFMHCMHFMHCMHFM": 2881,
    "HAmHAmHAmHFM": 2882,
    "HGM7Hgo": 2883,
    "HEmHCMHEm": 2884,
    "HDMHDMHDMHBm7": 2885,
    "HGD7HFo": 2886,
    "HCmHCmHaM": 2887,
    "HCMHCMHFsus2": 2888,
    "HGMHEm7HGMHEm7": 2889,
    "HDMHD+HDMHD+": 2890,
    "HAMHFMHAM": 2891,
    "HEm7HDM7": 2892,
    "HbMHFMHNA": 2893,
    "HEoHGo": 2894,
    "HemHeMHemHeM": 2895,
    "HAmHbm": 2896,
    "HaMHa+": 2897,
    "HCMHCMHdM": 2898,
    "HBoHCm": 2899,
    "HAmHEmHGMHDM": 2900,
    "HFmHFmHFmHFm7": 2901,
    "HBMHBMHEmHEm": 2902,
    "HDsus2HBo": 2903,
    "HEMHgMHgM": 2904,
    "HDoHaM7": 2905,
    "HbMHbMHbsus2": 2906,
    "HemHe+": 2907,
    "HFmHDm7": 2908,
    "HCD7HGm": 2909,
    "HBD7HBD7HBD7HBD7": 2910,
    "Ham7Hem": 2911,
    "HFMHGMHAM": 2912,
    "HGMHGMHGm7": 2913,
    "HDmHFMHDm": 2914,
    "HD+HAm": 2915,
    "HDMHGMHDMHGMHDMHGMHDMHGM": 2916,
    "HCsus2HDM": 2917,
    "HCmHGMHCmHGMHCm": 2918,
    "HBMHEMHAM": 2919,
    "HgmHgo": 2920,
    "HGD7HCMHGD7": 2921,
    "HCMHGmHCMHGm7": 2922,
    "HFsus2HeM7": 2923,
    "HdMHAM7": 2924,
    "HDsus2HFM7": 2925,
    "HCMHGMHAmHGM": 2926,
    "HCm7Hbm": 2927,
    "HBmHDMHAM": 2928,
    "HFMHgM": 2929,
    "HBMHem7": 2930,
    "HDmHDmHNA": 2931,
    "HDmHAMHDm": 2932,
    "HboHgM": 2933,
    "HaMHaMHNA": 2934,
    "HAMHAMHBMHBM": 2935,
    "HDD7HGMHGMHGM": 2936,
    "HEMHem7": 2937,
    "HGmHGmHeMHFM": 2938,
    "HNAHNAHNAHNAHNAHNAHNAHNAHNAHNAHNA": 2939,
    "HDmHDmHbM7HbM7": 2940,
    "HFD7HNA": 2941,
    "HCMHeMHeM": 2942,
    "HbMHGmHCm7": 2943,
    "HGmHGM7": 2944,
    "HCMHFMHEm": 2945,
    "HFMHCMHbM": 2946,
    "HCm7HCmHCm": 2947,
    "HCMHAm7HAm7": 2948,
    "HaoHdm7": 2949,
    "HAmHe+": 2950,
    "HEsus2HgM": 2951,
    "HbMHCMHFMHFM": 2952,
    "HEm7HGMHGM": 2953,
    "HGmHeMHbM": 2954,
    "HdM7HCo": 2955,
    "HAmHGMHDM": 2956,
    "Hem7Hdsus2": 2957,
    "HaM7HFsus2": 2958,
    "HCm7HFMHCm7HFM": 2959,
    "HDD7HGMHCM": 2960,
    "HBm7HAMHAM": 2961,
    "HgM7HNA": 2962,
    "HBMHBMHEm": 2963,
    "HdMHdMHgMHgM": 2964,
    "HAm7Hgo": 2965,
    "HAM7HAMHAM7": 2966,
    "HGM7HBM": 2967,
    "Hdm7Hdm7Hdm7": 2968,
    "HEm7HCsus2": 2969,
    "HDmHDmHDmHbM": 2970,
    "HAm7HAD7": 2971,
    "HAoHCsus2": 2972,
    "HFoHBM": 2973,
    "HeD7Ham": 2974,
    "HGMHGMHGMHFM": 2975,
    "HCMHGmHGm": 2976,
    "HAmHGMHFM7": 2977,
    "HdMHFm7": 2978,
    "HBmHEmHBmHEm": 2979,
    "HdoHDMHDM": 2980,
    "HDoHC+": 2981,
    "HGMHGMHCm": 2982,
    "HAoHGmHGm": 2983,
    "HFmHFMHFmHFM": 2984,
    "HBMHbm7": 2985,
    "HBmHBMHBmHBM": 2986,
    "HboHBm": 2987,
    "HCmHem": 2988,
    "HEmHAMHEmHAM": 2989,
    "HAM7HEM7": 2990,
    "HCMHGMHCM7": 2991,
    "HCMHFMHCM": 2992,
    "HdMHdm7": 2993,
    "HCM7HDD7": 2994,
    "HAoHEm": 2995,
    "HEM7Hem7": 2996,
    "HC+HGo": 2997,
    "Hasus4Hasus4": 2998,
    "Hbsus2HGm": 2999,
    "HDmHGmHDm": 3000,
    "HdmHAMHdm": 3001,
    "HbmHd+": 3002,
    "HbMHeMHeM7": 3003,
    "HDoHgm": 3004,
    "HDm7HDmHDm7": 3005,
    "HboHaM": 3006,
    "Ham7HeM": 3007,
    "HCM7HBm": 3008,
    "HNAHEMHEM": 3009,
    "HGMHNAHNAHNA": 3010,
    "HAMHgo": 3011,
    "HAMHED7": 3012,
    "HDsus2HAm7": 3013,
    "HNAHFMHNA": 3014,
    "HEoHEm7": 3015,
    "HDMHDMHCsus2": 3016,
    "HCmHaMHCm": 3017,
    "HbMHbMHeMHbM": 3018,
    "HDMHDMHAD7HAD7": 3019,
    "HDMHG+": 3020,
    "HEm7Hgo": 3021,
    "HdmHCo": 3022,
    "HeMHeMHeMHeMHeMHeMHeMHeMHeMHeMHeMHeMHeMHeMHeMHeM": 3023,
    "HDmHdo": 3024,
    "HD+HDm7": 3025,
    "HbMHesus2": 3026,
    "HGMHGMHGmHGm": 3027,
    "HaMHNAHNA": 3028,
    "HBM7HBM7HBM7": 3029,
    "HCMHNAHCM": 3030,
    "HFmHCo": 3031,
    "HEMHEMHEMHEMHEMHEMHEMHEMHEMHEMHEMHEMHEMHEMHEMHEM": 3032,
    "HgMHgD7": 3033,
    "HbM7HF+": 3034,
    "HaMHD+": 3035,
    "HBmHBmHEmHEm": 3036,
    "HEMHDMHEMHAM": 3037,
    "HCm7HbMHCm7": 3038,
    "HDMHFMHCM": 3039,
    "HemHgm": 3040,
    "HDmHeo": 3041,
    "HEsus2Hgm": 3042,
    "HaMHdMHeM": 3043,
    "HFMHCm": 3044,
    "HDMHCsus2HBmHD+HDMHCsus2HBmHD+": 3045,
    "HFsus2HEm": 3046,
    "HFsus2HFm": 3047,
    "HGmHAD7": 3048,
    "HaM7HeD7": 3049,
    "HAm7HFMHFM": 3050,
    "HEMHgD7": 3051,
    "HDMHDMHgm7": 3052,
    "HCMHCMHaM": 3053,
    "HGMHao": 3054,
    "HFMHDmHDm": 3055,
    "Hgm7Hdm7": 3056,
    "HaMHao": 3057,
    "HAoHbm": 3058,
    "HDMHGMHNA": 3059,
    "HboHbm": 3060,
    "HDm7HAM": 3061,
    "HdMHdMHeM": 3062,
    "HEmHAmHEm": 3063,
    "HGMHGMHGMHGm7": 3064,
    "HbM7HAo": 3065,
    "HemHeMHeM": 3066,
    "HbD7HeMHbM": 3067,
    "HGm7HGD7": 3068,
    "HBMHBMHBMHBMHBM": 3069,
    "Hd+HgM": 3070,
    "Ham7Hdm7": 3071,
    "HBmHBmHGMHGM": 3072,
    "HGM7HDD7": 3073,
    "HFmHgM7": 3074,
    "HCMHdm": 3075,
    "HEMHCMHGM": 3076,
    "HCMHFMHDm7": 3077,
    "HCoHFD7": 3078,
    "HeoHdm": 3079,
    "HaMHaMHC+": 3080,
    "HGm7HFm": 3081,
    "HFsus2HFMHFsus2": 3082,
    "HC+HCM7": 3083,
    "HCMHCMHCm7": 3084,
    "HDMHDD7HGM": 3085,
    "Hd+HAM7": 3086,
    "HCMHGmHDm": 3087,
    "HCsus2HCo": 3088,
    "HbMHFMHbMHFMHbMHFMHbMHFM": 3089,
    "HBm7Hao": 3090,
    "HAMHDMHNA": 3091,
    "HdmHdmHdmHdmHdmHdmHdmHdm": 3092,
    "HEMHEMHBMHBM": 3093,
    "HGMHAm7HGMHAm7": 3094,
    "HGm7HCM7": 3095,
    "HeM7HFD7": 3096,
    "HbmHeD7": 3097,
    "HBoHEo": 3098,
    "HA+Hgm": 3099,
    "HDMHE+": 3100,
    "HDmHCMHbM": 3101,
    "HEMHEMHgm": 3102,
    "HGMHesus2": 3103,
    "HEMHAo": 3104,
    "HaMHaMHFmHFm": 3105,
    "HaMHem7": 3106,
    "HEsus2HDsus2": 3107,
    "HCM7HDm7HCM7HDm7": 3108,
    "HG+HeM": 3109,
    "Hem7HaD7": 3110,
    "HbM7HGsus2": 3111,
    "HBsus2HAsus2": 3112,
    "HdMHdMHNA": 3113,
    "HCoHeo": 3114,
    "HDM7HD+": 3115,
    "HaMHaMHFm7": 3116,
    "HbM7HAm": 3117,
    "HgM7HgM7HgM7": 3118,
    "HGMHDMHDMHDM": 3119,
    "HGmHGmHNA": 3120,
    "HeM7HaM": 3121,
    "HFmHasus2": 3122,
    "HFMHbMHGm": 3123,
    "HbmHgMHbmHgM": 3124,
    "HGMHA+": 3125,
    "HCMHEmHEmHEm": 3126,
    "HgMHBMHgM": 3127,
    "HAMHGm": 3128,
    "HFoHEm": 3129,
    "HCD7HCD7HFM": 3130,
    "HCMHCMHCMHCm7": 3131,
    "HDM7HBo": 3132,
    "HCMHCm7HCMHCm7": 3133,
    "HBmHBm7HBmHBm7": 3134,
    "HCMHAmHFMHFM": 3135,
    "HbMHFMHCMHDmHbMHFMHCMHDm": 3136,
    "HGmHGMHeM": 3137,
    "HAm7HbM": 3138,
    "HBMHdo": 3139,
    "HDm7HDm7HDm7HDm": 3140,
    "HBmHDD7": 3141,
    "HGD7HNA": 3142,
    "HAm7HAsus2": 3143,
    "HboHNA": 3144,
    "HAsus2HBm7": 3145,
    "HeMHbMHCm": 3146,
    "HdMHgM7": 3147,
    "HCMHFMHNA": 3148,
    "Hbm7Hasus2": 3149,
    "HFMHGsus4": 3150,
    "HEMHNAHNAHNA": 3151,
    "HAmHCMHEm": 3152,
    "HGMHCD7": 3153,
    "HdmHEM7": 3154,
    "HFoHAM": 3155,
    "HCMHFD7": 3156,
    "HdoHGM7": 3157,
    "Hgsus4Hgsus4": 3158,
    "HBmHBmHBmHBmHBmHBm": 3159,
    "HBMHBMHBM7": 3160,
    "HAm7HGm": 3161,
    "HdMHbmHdMHbm": 3162,
    "HAsus2HAM7": 3163,
    "HC+HCsus2": 3164,
    "HFMHNAHFM": 3165,
    "HGMHGMHGsus2": 3166,
    "HBsus2HBsus2HBsus2HBsus2": 3167,
    "HgoHBm7": 3168,
    "HEmHEmHAm7": 3169,
    "HAD7HDD7": 3170,
    "HbMHbMHbMHbMHbMHbMHbMHbMHbMHbMHbMHbMHbMHbMHbMHbM": 3171,
    "HFmHdMHbm": 3172,
    "Hd+Hdo": 3173,
    "HDmHGMHCM": 3174,
    "HBMHgo": 3175,
    "HBMHBMHeM": 3176,
    "HgMHgMHBMHBM": 3177,
    "HeD7HeD7HeD7": 3178,
    "HaMHNAHaMHNA": 3179,
    "HCmHFm7HCmHFm7": 3180,
    "HAMHGMHAM": 3181,
    "HbMHeMHbMHFM": 3182,
    "HDMHEmHCMHGMHDMHEmHCMHGM": 3183,
    "HdMHeMHdMHeM": 3184,
    "HdoHCD7": 3185,
    "HCMHFM7HFM7": 3186,
    "HDmHAo": 3187,
    "HeoHgm7": 3188,
    "HFM7HFM7HFM7HFM7HFM7HFM7HFM7HFM7": 3189,
    "HDmHFMHCM": 3190,
    "Hbm7HbmHbm": 3191,
    "He+HBo": 3192,
    "HEoHDmHEoHDm": 3193,
    "HbMHCmHCm": 3194,
    "HD+HDo": 3195,
    "HFmHFmHFm7": 3196,
    "HAMHAMHEM": 3197,
    "HgMHNAHgMHNA": 3198,
    "HDMHGmHeM": 3199,
    "HGMHBMHGMHBM": 3200,
    "HCMHCMHFMHDm": 3201,
    "HgMHdMHaMHbmHgMHdMHaMHbm": 3202,
    "HbMHbMHFD7HFD7": 3203,
    "HbMHbMHbMHbMHeM": 3204,
    "HD+HeMHbM": 3205,
    "HAMHAMHAMHAM7": 3206,
    "HEm7HGsus2": 3207,
    "HGMHGMHBMHBM": 3208,
    "Hbsus2Hbm": 3209,
    "HCmHCmHCmHCmHCmHCmHCm": 3210,
    "HD+HEm": 3211,
    "HAmHAmHEm": 3212,
    "Hbm7HeM7": 3213,
    "HgMHgo": 3214,
    "HFsus2HGM": 3215,
    "HCMHCMHGMHCM": 3216,
    "HDD7HGmHDD7HGm": 3217,
    "HEMHEMHEsus2": 3218,
    "HFmHaMHFm": 3219,
    "HEm7HAsus2": 3220,
    "HF+HDm7": 3221,
    "HFM7HCsus2": 3222,
    "HDoHEo": 3223,
    "HEMHFMHFM": 3224,
    "HFmHam": 3225,
    "HNAHAMHAM": 3226,
    "HCMHCMHCo": 3227,
    "HemHdsus2": 3228,
    "HAMHam": 3229,
    "HdMHaMHdM": 3230,
    "HDMHGMHDMHDM": 3231,
    "HEm7HGD7": 3232,
    "HGm7HeMHeM": 3233,
    "HDMHC+": 3234,
    "Hgm7HBM": 3235,
    "HAmHDMHAmHDM": 3236,
    "HdMHgMHdM": 3237,
    "HBmHGMHEm": 3238,
    "HDmHDmHGm": 3239,
    "HCMHFMHBo": 3240,
    "HbD7HbD7HeMHeM": 3241,
    "HAm7HC+": 3242,
    "HDMHeMHeM": 3243,
    "HCMHeo": 3244,
    "HaM7Hasus2": 3245,
    "HBmHEo": 3246,
    "Hb+HeM7": 3247,
    "HCMHCMHEMHEM": 3248,
    "HD+HeMHeM": 3249,
    "HEmHgoHEm": 3250,
    "HDMHDMHDMHDMHDMHDMHDMHDMHDMHDM": 3251,
    "HEmHEmHEm7": 3252,
    "HGm7HGsus2": 3253,
    "HeD7HeD7HaMHaM": 3254,
    "HFoHe+": 3255,
    "HEM7HEm": 3256,
    "HdmHd+": 3257,
    "HAsus2Hgm": 3258,
    "HFmHFmHdM7": 3259,
    "HdMHdMHbm": 3260,
    "HGMHCMHGMHCMHGM": 3261,
    "HbM7HDM": 3262,
    "HDMHDm7HDMHDm7": 3263,
    "HFmHFmHFmHFM": 3264,
    "HDMHEMHFMHEM": 3265,
    "HGmHFm7": 3266,
    "HCmHGmHCm": 3267,
    "HDD7HCo": 3268,
    "HGoHeD7": 3269,
    "HbMHbMHbMHeM7": 3270,
    "HEM7HEMHEM": 3271,
    "HGmHFMHGm": 3272,
    "HAM7Hdm7": 3273,
    "HAmHDmHAm": 3274,
    "HgoHBD7": 3275,
    "HdoHDM7": 3276,
    "HDm7HDsus2": 3277,
    "HBsus2HgM": 3278,
    "Hdsus4Hdsus4Hdsus4Hdsus4Hdsus4Hdsus4Hdsus4Hdsus4": 3279,
    "HgmHd+": 3280,
    "HDmHGsus2": 3281,
    "HamHbM": 3282,
    "HDMHDMHgM": 3283,
    "HCMHEMHAM": 3284,
    "HeMHeMHeMHNA": 3285,
    "HAMHNAHAM": 3286,
    "HeMHeMHeMHeMHeMHeMHeMHeMHeM": 3287,
    "HdMHdMHbmHbm": 3288,
    "HbD7HeMHeMHeM": 3289,
    "Hesus2HdM7": 3290,
    "He+HbM": 3291,
    "HGMHCM7HGMHCM7": 3292,
    "HBMHBMHNA": 3293,
    "HFM7HCMHCM": 3294,
    "HCmHCmHCmHeM": 3295,
    "HCmHCmHbMHbM": 3296,
    "Hasus2HgM": 3297,
    "HamHB+": 3298,
    "HbMHbMHeMHFM": 3299,
    "HBM7Hem7": 3300,
    "HFsus2Hbsus2": 3301,
    "HAMHAMHd+": 3302,
    "HbM7HCsus2": 3303,
    "HFm7HeMHFm7HeM": 3304,
    "HEMHAMHgm": 3305,
    "HFoHCm": 3306,
    "HDmHDmHDo": 3307,
    "HCsus2HCMHCsus2": 3308,
    "HgoHNA": 3309,
    "Ha+HFm": 3310,
    "HCMHGMHCMHGMHCMHGMHCMHGM": 3311,
    "HGMHB+": 3312,
    "HAmHFD7": 3313,
    "HCm7HDo": 3314,
    "HGm7HCMHFM": 3315,
    "HaoHBo": 3316,
    "HBm7HDMHDM": 3317,
    "HCMHCMHFMHCMHFM": 3318,
    "HGMHDMHDMHDMHDM": 3319,
    "HDMHDMHDMHGM7": 3320,
    "HDMHFm": 3321,
    "HaMHeMHbMHeM": 3322,
    "HGMHGMHGMHeM": 3323,
    "HBMHNAHBMHNA": 3324,
    "HCMHCMHCMHAm": 3325,
    "HeoHam7": 3326,
    "HbMHDm7HbMHDm7": 3327,
    "HAMHFMHCMHGM": 3328,
    "HFMHdM7": 3329,
    "HdoHeM": 3330,
    "HemHFm7": 3331,
    "HFMHFMHFMHDm7": 3332,
    "HdoHCo": 3333,
    "HCmHeMHeMHeM": 3334,
    "HFMHeM7": 3335,
    "HDmHED7": 3336,
    "HEmHDMHEm": 3337,
    "Hesus2HaM": 3338,
    "HaD7HdM7": 3339,
    "HCMHCMHNAHNA": 3340,
    "HbMHFMHFM7": 3341,
    "HCD7HCm7": 3342,
    "HEM7Hbo": 3343,
    "HDsus2HCM7": 3344,
    "HGMHCM7HCM7": 3345,
    "HFMHFMHFMHNA": 3346,
    "Hem7HCo": 3347,
    "HbMHNAHNA": 3348,
    "HEM7HBM": 3349,
    "HEMHGM7": 3350,
    "HAoHBo": 3351,
    "HAMHAmHAm": 3352,
    "Ha+HC+": 3353,
    "HEmHEMHEm": 3354,
    "HGMHDMHGMHDMHGM": 3355,
    "HBD7HBm7": 3356,
    "Hgm7HgM": 3357,
    "HamHbm7": 3358,
    "HDMHGM7HGM7": 3359,
    "HCmHDoHCm": 3360,
    "HCmHDMHGm": 3361,
    "HAD7HDMHAD7": 3362,
    "HFMHAo": 3363,
    "HCM7HGsus2": 3364,
    "HDM7HgM": 3365,
    "HgmHBm": 3366,
    "HEmHG+": 3367,
    "HD+Hbsus2": 3368,
    "HEM7Hem": 3369,
    "Hdm7Ham": 3370,
    "HCMHCMHAmHFM": 3371,
    "HCMHFMHGM": 3372,
    "HAMHGMHFM": 3373,
    "Hdm7HNA": 3374,
    "HD+HGM": 3375,
    "HEoHbM7": 3376,
    "Hgsus2HD+Hgsus2HD+": 3377,
    "HGsus4HGm7": 3378,
    "HaMHaMHaMHaMHaMHaMHaM": 3379,
    "HFmHdMHFm": 3380,
    "HBMHG+": 3381,
    "HeM7HaM7HeM7": 3382,
    "HGmHGmHGmHeM7": 3383,
    "HdmHAMHdmHAM": 3384,
    "HBsus2HBM": 3385,
    "HCsus2HCm": 3386,
    "HBmHDm7": 3387,
    "HAmHCMHFM7": 3388,
    "HFMHDmHbM": 3389,
    "HAmHao": 3390,
    "HdmHE+": 3391,
    "HbMHbMHbMHNA": 3392,
    "HEmHNAHEmHNA": 3393,
    "HDmHDmHDmHGm7": 3394,
    "HGMHDMHNA": 3395,
    "Hasus2HFM": 3396,
    "HboHdM": 3397,
    "HEmHEmHAMHAM": 3398,
    "HAMHAMHAMHNA": 3399,
    "HGmHGMHGmHGm": 3400,
    "HDMHDMHGsus2": 3401,
    "Hbm7HNA": 3402,
    "HGoHaM": 3403,
    "HAmHAsus4": 3404,
    "HEMHEmHEmHEm": 3405,
    "HEoHD+": 3406,
    "HGMHDMHGMHGM": 3407,
    "HEm7HDo": 3408,
    "HGMHCMHeM": 3409,
    "HBD7He+": 3410,
    "HBmHGM7HBmHGM7": 3411,
    "HDMHDMHDMHD+": 3412,
    "HEmHdM": 3413,
    "HEMHBMHEM": 3414,
    "HaoHBm": 3415,
    "HAoHDM": 3416,
    "HNAHNAHNAHNAHNAHNAHNAHNAHNAHNAHNAHNAHNAHNAHNAHNAHNAHNAHNAHNAHNAHNAHNAHNAHNAHNAHNAHNAHNAHNAHNAHNAHNAHNAHNAHNAHNAHNAHNAHNAHNAHNAHNAHNAHNAHNAHNAHNAHNAHNAHNAHNAHNAHNAHNAHNAHNAHNAHNAHNAHNAHNAHNAHNAHNAHNAHNAHNAHNAHNAHNAHNAHNAHNAHNAHNAHNAHNAHNAHNAHNAHNAHNAHNAHNAHNAHNAHNAHNAHNAHNAHNAHNAHNAHNAHNAHNAHNAHNAHNAHNAHNAHNAHNAHNAHNAHNAHNAHNAHNAHNAHNAHNAHNAHNAHNAHNAHNAHNAHNAHNAHNAHNAHNAHNAHNAHNAHNA": 3417,
    "HFoHFm": 3418,
    "HAMHDMHAMHAM": 3419,
    "HCmHFmHFm": 3420,
    "HAm7HAmHAm": 3421,
    "HEmHAsus2": 3422,
    "HEmHDM7": 3423,
    "HEmHe+": 3424,
    "HC+HCm7": 3425,
    "HDoHdM": 3426,
    "HBmHGMHBm": 3427,
    "HFm7HFMHFM": 3428,
    "HFsus2HGsus2": 3429,
    "HAmHEMHAM": 3430,
    "HEmHem": 3431,
    "HeMHeMHGm": 3432,
    "HDMHDMHDMHDMHDMHDMHDMHDMHDMHDMHDMHDM": 3433,
    "HEsus2HBM": 3434,
    "HAm7HAm7HAm7HAm7HAm7HAm7HAm7HAm7": 3435,
    "HbM7HDmHDm": 3436,
    "HAMHFMHFM": 3437,
    "HFmHFm7HFmHFm7": 3438,
    "HCm7HGmHGm": 3439,
    "HgmHBM": 3440,
    "HaMHaMHaM7": 3441,
    "HAmHFo": 3442,
    "HGmHbMHGm": 3443,
    "HFMHDm7HFM": 3444,
    "HamHasus2": 3445,
    "HCMHCMHCMHDm": 3446,
    "HAmHbsus2": 3447,
    "HEMHEMHFMHFM": 3448,
    "HdmHBMHdmHBM": 3449,
    "Hbm7Hbsus2": 3450,
    "HCMHCMHCM7HCM7": 3451,
    "HaD7HaM": 3452,
    "HDmHbMHbM": 3453,
    "HDM7Hd+": 3454,
    "HGMHGMHGMHGMHGMHGMHGMHGMHGMHGMHGMHGM": 3455,
    "HAmHBD7": 3456,
    "HAMHdm7": 3457,
    "HCM7HDm": 3458,
    "HDsus2HFM": 3459,
    "HCMHCMHCMHC+": 3460,
    "HAmHaM": 3461,
    "HDoHCM": 3462,
    "HCMHCMHEm7": 3463,
    "HDm7HEo": 3464,
    "HbMHCMHDM": 3465,
    "HgmHgmHDMHDM": 3466,
    "HaMHbmHaMHbm": 3467,
    "HbMHbMHdM": 3468,
    "HFD7HGm7": 3469,
    "HBM7HbM": 3470,
    "HEm7HAMHAM": 3471,
    "HbMHbmHbM": 3472,
    "HAmHEmHEmHEm": 3473,
    "HGmHFMHFMHFM": 3474,
    "HEmHEMHEM": 3475,
    "HEmHDMHGM": 3476,
    "HCMHCMHCMHGD7": 3477,
    "HDMHDMHFMHFM": 3478,
    "HFmHCD7": 3479,
    "HgMHNAHNA": 3480,
    "HbD7HCm7": 3481,
    "HBD7HBM": 3482,
    "HeMHAo": 3483,
    "HeMHeMHaMHeM": 3484,
    "HeM7HFm7": 3485,
    "HDMHBsus2": 3486,
    "HEMHAMHNA": 3487,
    "HDm7HAo": 3488,
    "HCMHCMHbsus2": 3489,
    "HAm7HGMHGM": 3490,
    "HD+HBm": 3491,
    "HFM7HGM": 3492,
    "HCD7HFMHbM": 3493,
    "HbMHbMHbMHD+": 3494,
    "HbmHFm7": 3495,
    "HFMHCMHNA": 3496,
    "HbmHbmHgMHgM": 3497,
    "HEmHBo": 3498,
    "Ha+HFM": 3499,
    "HDMHEsus4": 3500,
    "HF+HAM": 3501,
    "Hgm7Hdm": 3502,
    "HBsus4HBM": 3503,
    "HCmHCmHbM": 3504,
    "HBMHAsus2HBMHAsus2": 3505,
    "HGm7HGm7HGm7HGm7HGm7HGm7HGm7HGm7": 3506,
    "HbMHeMHbMHbM": 3507,
    "HBmHDo": 3508,
    "HFMHCMHGmHDm": 3509,
    "HCsus2HCm7": 3510,
    "HEMHEMHBM": 3511,
    "HDMHGmHFM": 3512,
    "HAmHAmHAmHDm7": 3513,
    "HGmHbm": 3514,
    "HdMHaM7": 3515,
    "HDD7HBm7": 3516,
    "HAMHEsus2": 3517,
    "HbMHbMHFD7": 3518,
    "HaoHd+": 3519,
    "HAM7HEM": 3520,
    "HEMHEsus4HEMHEsus4": 3521,
    "HdoHbM": 3522,
    "HGmHgM": 3523,
    "HCmHaM7HeM": 3524,
    "HFMHDmHFMHDmHFMHDmHFMHDm": 3525,
    "HDm7HbM7HEo": 3526,
    "HDMHDMHDM7HDM7": 3527,
    "HaMHFm7HaMHFm7": 3528,
    "HaMHCmHeM": 3529,
    "Hem7HNA": 3530,
    "HAMHDMHEM": 3531,
    "HCMHDm7HDm7": 3532,
    "HBm7HEsus2": 3533,
    "HGMHbo": 3534,
    "HdMHdMHdsus2": 3535,
    "HCMHGMHDMHGM": 3536,
    "HemHemHeM": 3537,
    "HGmHCm7HGm": 3538,
    "HeMHeMHeMHbMHeM": 3539,
    "HdMHdMHbm7": 3540,
    "HDmHDm7HDm": 3541,
    "Ham7HaM": 3542,
    "HDm7HGMHDm7": 3543,
    "HAmHAmHFM7HFM7": 3544,
    "HCD7HFm7": 3545,
    "HFM7HGm7": 3546,
    "HGmHGmHbMHbM": 3547,
    "HCMHGmHCMHGm7HCMHGmHCMHGm7": 3548,
    "HaMHaMHaMHeM": 3549,
    "HdoHC+": 3550,
    "HFM7HFM7HFM": 3551,
    "HDMHFo": 3552,
    "HdMHCm7": 3553,
    "HAMHBo": 3554,
    "HBMHdMHBMHdM": 3555,
    "HFsus4HeM": 3556,
    "HGmHeMHCm": 3557,
    "HEmHGMHEm": 3558,
    "HEm7HD+": 3559,
    "HDMHEmHEmHEm": 3560,
    "HAmHNAHNA": 3561,
    "HGMHCMHBo": 3562,
    "HCMHCMHCMHCMHFMHFM": 3563,
    "HAMHAMHAMHAMHAMHAMHAMHAMHAMHAMHAMHAMHAMHAMHAMHAM": 3564,
    "Hgm7Hdo": 3565,
    "HEmHGMHGM": 3566,
    "HBoHgm": 3567,
    "HdmHbo": 3568,
    "HDMHF+": 3569,
    "HgM7HgMHgM": 3570,
    "HaM7HeMHeMHeM": 3571,
    "HFmHeMHFm": 3572,
    "HFM7HFsus2": 3573,
    "HdMHdMHgm": 3574,
    "HFmHCM7": 3575,
    "HAM7HBD7": 3576,
    "HAmHEM7": 3577,
    "HG+HAm7": 3578,
    "HdMHCM": 3579,
    "HBsus2HdM": 3580,
    "HDMHDMHDD7": 3581,
    "HBm7HgM": 3582,
    "HFoHbm7": 3583,
    "HBM7HgM7": 3584,
    "HFsus2HFo": 3585,
    "HEmHGsus2": 3586,
    "HBm7HEo": 3587,
    "HdoHCm7": 3588,
    "HGMHeMHFsus2HeM": 3589,
    "HCmHeMHCmHeMHCmHeMHCmHeM": 3590,
    "HGMHeMHFM": 3591,
    "HGoHGm7": 3592,
    "HAm7HAo": 3593,
    "HGoHbsus2": 3594,
    "HaMHbMHbM": 3595,
    "HDM7HGm": 3596,
    "HaoHaoHao": 3597,
    "HBD7HBD7HBD7": 3598,
    "HBm7HDsus2": 3599,
    "Hgm7HEM": 3600,
    "HDMHGMHDMHGMHDMHGM": 3601,
    "HBmHAMHGMHgm": 3602,
    "HgoHEmHEm": 3603,
    "HDoHCsus2": 3604,
    "HDMHDMHdm": 3605,
    "HaMHaMHFm": 3606,
    "HCM7HG+": 3607,
    "HGMHGMHGMHGsus2": 3608,
    "HD+HFMHFM": 3609,
    "HFMHFMHEmHEm": 3610,
    "HBMHbo": 3611,
    "HbMHFsus2": 3612,
    "HeMHbMHNA": 3613,
    "HgmHGsus2": 3614,
    "HGMHGMHBm": 3615,
    "HaMHeMHFm7": 3616,
    "HGmHCo": 3617,
    "HeoHdo": 3618,
    "HbMHDmHbM": 3619,
    "HEm7HEMHEM": 3620,
    "HFM7HFMHFM7": 3621,
    "HDmHAmHAm": 3622,
    "HFsus2HdM": 3623,
    "HCM7HEmHCM7HEm": 3624,
    "HFoHdD7": 3625,
    "HCmHeMHCm": 3626,
    "HbM7HFMHbM7HFM": 3627,
    "HDMHGMHEm7": 3628,
    "HAm7HDmHDm": 3629,
    "HDmHao": 3630,
    "HAm7HCD7": 3631,
    "Hdm7HAsus2": 3632,
    "He+HEM7": 3633,
    "HeM7HDo": 3634,
    "HAMHDmHDmHDm": 3635,
    "HGMHGMHGMHCMHGM": 3636,
    "HFm7HD+": 3637,
    "HEmHCMHCM": 3638,
    "HdMHem7": 3639,
    "HGMHdm": 3640,
    "HaMHgm": 3641,
    "HGD7HCMHGM": 3642,
    "HgmHDMHDM": 3643,
    "Ha+Ha+Ha+Ha+": 3644,
    "HDM7HDMHAM": 3645,
    "HbMHeMHCm7": 3646,
    "HEMHAM7HEMHAM7": 3647,
    "HDM7HAMHAM": 3648,
    "HCM7HCm": 3649,
    "HAm7HEmHAm7": 3650,
    "HED7HEM": 3651,
    "HdMHFMHdM": 3652,
    "HbMHbMHbMHGm7": 3653,
    "HNAHEMHNA": 3654,
    "HCmHCmHCm7HCm7": 3655,
    "Hb+HGmHGm": 3656,
    "HEMHDMHCM": 3657,
    "HCMHCMHCMHaM": 3658,
    "HBoHA+": 3659,
    "HFsus2HBo": 3660,
    "Hbm7Hem": 3661,
    "HGMHDmHDm": 3662,
    "HeMHFm": 3663,
    "HGMHCMHCM7": 3664,
    "HGD7HCmHGD7HCm": 3665,
    "HEm7HBM": 3666,
    "Hgm7Hgm7Hgm7Hgm7Hgm7Hgm7Hgm7Hgm7": 3667,
    "HbmHCm": 3668,
    "HEMHCo": 3669,
    "HGMHAMHDMHDM": 3670,
    "Hasus2Hbsus2": 3671,
    "HCMHCMHCMHCMHFM": 3672,
    "HdmHAMHEMHBM": 3673,
    "HGmHGm7HGm": 3674,
    "HDMHDMHbM7": 3675,
    "HbMHFMHGmHFM": 3676,
    "HGMHCMHAm": 3677,
    "HDmHbMHGm": 3678,
    "HamHeo": 3679,
    "HC+HCm": 3680,
    "HbM7HDo": 3681,
    "HDMHCsus2HDMHCsus2": 3682,
    "HbMHGm7HeM": 3683,
    "HAsus2HBM": 3684,
    "HCoHDo": 3685,
    "HaM7Hbsus2": 3686,
    "HGM7HEo": 3687,
    "HAmHAmHDmHDm": 3688,
    "HAm7HGMHAm7": 3689,
    "HCmHCmHCmHFm": 3690,
    "HAmHbMHFM": 3691,
    "HbMHbMHbMHbsus2": 3692,
    "HCMHCMHAM": 3693,
    "HgMHDMHgM": 3694,
    "HCm7HCmHCm7": 3695,
    "HCMHFMHCMHFM7": 3696,
    "Ham7Hdm": 3697,
    "HemHGm": 3698,
    "HBmHGsus2": 3699,
    "Ham7HBM7": 3700,
    "HamHamHamHamHamHamHamHam": 3701,
    "HaM7HGM": 3702,
    "HGMHCMHDm7": 3703,
    "HBmHEmHEm": 3704,
    "HCmHBM": 3705,
    "HCsus2HCMHFM": 3706,
    "HEMHEsus2HEMHEsus2": 3707,
    "He+Ham": 3708,
    "HCMHED7": 3709,
    "HCmHeo": 3710,
    "HGmHFMHCM": 3711,
    "HDMHGmHGmHGm": 3712,
    "HDMHDMHbMHbM": 3713,
    "HgM7HeM": 3714,
    "HdMHdMHaM": 3715,
    "HGMHGMHbM": 3716,
    "HBoHGM": 3717,
    "HDMHAMHNA": 3718,
    "HBsus2HBoHBsus2HDM": 3719,
    "Hbsus2HFMHFM": 3720,
    "HDoHbD7HCm7HeM": 3721,
    "HGD7HDm": 3722,
    "HAM7HAMHAM": 3723,
    "HeM7HeM7HeMHeM": 3724,
    "HCMHCsus2HCsus2": 3725,
    "HFm7HeMHFm7": 3726,
    "HDM7HA+": 3727,
    "HDMHDMHAm7": 3728,
    "HFmHCsus2": 3729,
    "HCD7HFMHFMHFMHFM": 3730,
    "HGm7HaM": 3731,
    "HBm7HGMHBm7": 3732,
    "HAmHAmHAmHGM": 3733,
    "HAmHAmHNA": 3734,
    "HNAHNAHdM": 3735,
    "HGoHeM7": 3736,
    "HCm7Hesus2": 3737,
    "HGM7HDMHGM": 3738,
    "HCm7HeMHCm7HeM": 3739,
    "HC+HAm": 3740,
    "HEMHAMHEMHAMHEMHAMHEMHAM": 3741,
    "HBmHBmHBmHBm7": 3742,
    "HAmHAmHAmHAmHAmHAmHAm": 3743,
    "HFm7HbM7": 3744,
    "HCMHaMHaM": 3745,
    "HCMHCMHCMHFMHFM": 3746,
    "HAD7HNA": 3747,
    "HDmHgm": 3748,
    "HbMHbMHbMHbm": 3749,
    "HaMHEM7": 3750,
    "HGD7HFsus2": 3751,
    "HbmHCo": 3752,
    "HDsus2HAm": 3753,
    "HAmHFMHDm7": 3754,
    "Hgm7HEm": 3755,
    "HBmHFo": 3756,
    "HAmHAmHAmHFM7": 3757,
    "HFMHEmHFMHEm": 3758,
    "HGmHDmHGm": 3759,
    "HaoHAMHAM": 3760,
    "HDsus2HDMHDM": 3761,
    "Hd+HbM": 3762,
    "HGD7HCMHAm": 3763,
    "HGMHBmHBm": 3764,
    "HGD7HCD7": 3765,
    "HEoHeo": 3766,
    "HCMHCMHCMHBo": 3767,
    "HBD7Hgm": 3768,
    "HEMHCMHAM": 3769,
    "HCm7HdM7": 3770,
    "HDm7HDD7": 3771,
    "HEm7HEmHEm7HEm": 3772,
    "HCmHaMHeMHeM": 3773,
    "HdM7HgM7": 3774,
    "HDmHDmHAMHAM": 3775,
    "HGMHGsus2HGMHGsus2": 3776,
    "HFMHFMHAM": 3777,
    "HGm7HeM7HGm7HeM7": 3778,
    "HCMHCMHCMHCMHCMHCM7": 3779,
    "HAD7HAD7HDmHDm": 3780,
    "HFMHFMHFm": 3781,
    "Hesus2HbMHesus2HbM": 3782,
    "HbMHeM7HbMHeM7": 3783,
    "HFsus2HaM": 3784,
    "HCMHCMHCMHCMHCMHCMHCMHCMHCMHCM": 3785,
    "HD+HDsus2": 3786,
    "HCoHaM": 3787,
    "HGMHGM7HGM7": 3788,
    "HaMHeMHCmHeM": 3789,
    "Hgsus2Ham7": 3790,
    "Hgm7HEm7": 3791,
    "HGmHGmHGmHeM": 3792,
    "HEMHgMHEMHgM": 3793,
    "HCMHGMHCMHDM": 3794,
    "HEMHFMHGM": 3795,
    "HBmHGMHDMHAMHBmHGMHDMHAM": 3796,
    "HBmHam": 3797,
    "HdMHaMHbm": 3798,
    "HeM7HeMHeM7HeM": 3799,
    "HEmHd+": 3800,
    "HBM7HNA": 3801,
    "HGMHCsus4": 3802,
    "HFMHDo": 3803,
    "HCm7HCm7HeM": 3804,
    "HamHAM7": 3805,
    "HdM7HgM": 3806,
    "HGMHEsus2": 3807,
    "HBmHbm": 3808,
    "HGm7HDmHDm": 3809,
    "HCM7HGMHCM7": 3810,
    "HGoHbm7": 3811,
    "HGsus2HDM": 3812,
    "HGMHBMHBM": 3813,
    "HaMHdMHgM": 3814,
    "HboHboHbo": 3815,
    "HDoHDM": 3816,
    "HDMHAMHGMHAM": 3817,
    "HFm7HDm7": 3818,
    "HFmHCMHFM": 3819,
    "HCM7HEmHEm": 3820,
    "HDsus2HBM": 3821,
    "HdMHdMHgmHgm": 3822,
    "HBmHDm": 3823,
    "HEm7HCMHGM": 3824,
    "HbM7Hbsus2": 3825,
    "HAm7HAmHAm7": 3826,
    "HFmHBo": 3827,
    "HdMHbMHdMHbM": 3828,
    "Hbsus2HNA": 3829,
    "HeoHem": 3830,
    "HGMHGMHGMHEm7": 3831,
    "HbD7Hem": 3832,
    "HBMHAMHBM": 3833,
    "HeM7HbMHbM": 3834,
    "HGm7HGmHGm": 3835,
    "HbMHGsus2": 3836,
    "HCMHAMHDM": 3837,
    "HdD7HgM7": 3838,
    "HAsus2HEM": 3839,
    "HBM7HgM": 3840,
    "HbmHam": 3841,
    "HC+HFm7": 3842,
    "HBmHCM": 3843,
    "HCsus2HFm7": 3844,
    "HbMHeMHaM": 3845,
    "HGD7He+": 3846,
    "HGMHAMHBM": 3847,
    "HFMHFMHeMHeM": 3848,
    "HAM7HDm": 3849,
    "HGMHCMHAM": 3850,
    "HGmHCMHGm": 3851,
    "HGM7HDsus2": 3852,
    "HEMHAMHDMHAM": 3853,
    "HAD7HDMHDMHDMHDM": 3854,
    "HDMHDMHFM": 3855,
    "HDmHDmHFM7": 3856,
    "HCMHAmHFM7": 3857,
    "HeoHgo": 3858,
    "HDmHDmHDmHDmHDmHDmHDmHDmHDmHDmHDmHDmHDmHDmHDmHDm": 3859,
    "Hgm7HBD7": 3860,
    "HEsus4HAM": 3861,
    "HeM7HGM": 3862,
    "HAsus2HFM": 3863,
    "HNAHNAHNAHNAHNAHNAHNAHNAHNAHNAHNAHNAHNAHNA": 3864,
    "HgoHEmHEmHEm": 3865,
    "Hasus2HeMHeM": 3866,
    "HEMHEMHBD7": 3867,
    "HGMHGm7HGMHGm7": 3868,
    "HEMHEMHAMHEM": 3869,
    "HFMHFMHFMHFsus2": 3870,
    "HGmHGsus4": 3871,
    "HgmHgmHgmHgmHgmHgm": 3872,
    "HGmHd+": 3873,
    "HD+HCm": 3874,
    "HdmHdMHdmHdM": 3875,
    "HCMHCMHBM": 3876,
    "He+Hd+": 3877,
    "HDmHbMHFMHFM": 3878,
    "HEoHAo": 3879,
    "HCMHDmHDmHDm": 3880,
    "HdM7HaM7": 3881,
    "HdMHEM": 3882,
    "HAmHAm7HAm7": 3883,
    "HED7HAmHED7HAm": 3884,
    "HCsus2HeM7": 3885,
    "HEsus2HNA": 3886,
    "HGmHFMHGmHFMHGmHFMHGmHFM": 3887,
    "HEsus2Hdm": 3888,
    "HCMHGMHFM": 3889,
    "HAmHAmHFMHGM": 3890,
    "HboHdo": 3891,
    "HCMHAMHDm": 3892,
    "Hdm7HEM7": 3893,
    "HAmHAmHBo": 3894,
    "HFoHeMHeM": 3895,
    "HaoHdM": 3896,
    "HGD7HEm": 3897,
    "HDMHDMHNAHNA": 3898,
    "HDD7HGMHDM": 3899,
    "HFm7HgM": 3900,
    "HDMHem": 3901,
    "HGm7HCMHCM": 3902,
    "Hgm7HNA": 3903,
    "Ham7HAM7": 3904,
    "HEoHDo": 3905,
    "HgMHb+": 3906,
    "HDmHDmHDsus2": 3907,
    "HeD7HaMHeD7HaM": 3908,
    "HFMHFMHFMHeM": 3909,
    "HCm7HFM7": 3910,
    "HdMHaMHaM": 3911,
    "HDm7HDm7HDm7HDm7HDm7HDm7": 3912,
    "HEm7HEm7HEm": 3913,
    "HFm7HFm7HFm7HFm7HFm7HFm7HFm7HFm7": 3914,
    "HbM7HDmHbM7": 3915,
    "HCmHaMHbM": 3916,
    "HBoHE/o7": 3917,
    "HgoHEsus2": 3918,
    "HCMHCMHFM7HFM7": 3919,
    "HaMHgMHaMHgM": 3920,
    "HboHAo": 3921,
    "He+HAM": 3922,
    "HDMHEmHAM": 3923,
    "HAMHDMHDM7": 3924,
    "HGMHEmHAm7": 3925,
    "HEMHAmHFM": 3926,
    "HbMHCMHeM": 3927,
    "HCMHCmHCmHCm": 3928,
    "HCm7HCm7HaM7HaM7": 3929,
    "HBmHBM7": 3930,
    "HbD7HeMHeMHeMHeM": 3931,
    "HAD7HDm7": 3932,
    "HFsus2Hesus2": 3933,
    "HgoHCm": 3934,
    "HGMHeM7HGm7HeM7": 3935,
    "HbMHbMHDm": 3936,
    "HFmHCMHCM": 3937,
    "HCMHCMHCMHeM": 3938,
    "HBMHAMHEM": 3939,
    "HGMHGMHDm7": 3940,
    "HFMHFMHbM7": 3941,
    "HCMHFMHCMHAm": 3942,
    "HDD7HDMHGM": 3943,
    "Hd+HDm7": 3944,
    "HFmHFmHFmHdM": 3945,
    "HCMHDMHDMHDM": 3946,
    "HdMHdM7HdM": 3947,
    "HaMHFsus2": 3948,
    "HEm7Hdm7": 3949,
    "HBsus2HAM": 3950,
    "HAD7HEo": 3951,
    "HBmHEMHEM": 3952,
    "HCM7HFM7HCM7": 3953,
    "HGMHCMHDMHGM": 3954,
    "HDmHDmHDm7HDm7": 3955,
    "HbmHbmHgM": 3956,
    "HGM7HGMHDM": 3957,
    "HaoHFo": 3958,
    "HAmHFM7HFM7": 3959,
    "HboHem7": 3960,
    "HDM7HDD7": 3961,
    "HCsus2HCMHCM": 3962,
    "HCmHgM": 3963,
    "HDoHCmHaMHeM": 3964,
    "HDMHFMHGM": 3965,
    "HGmHdM": 3966,
    "HDMHDMHDMHDMHDMHGM": 3967,
    "HED7HDm7": 3968,
    "HdmHAMHAM": 3969,
    "HD+HGM7": 3970,
    "HFm7HgM7": 3971,
    "Hdm7Hgo": 3972,
    "HAm7HDmHAm7": 3973,
    "HBMHBMHBMHNA": 3974,
    "HDmHdm": 3975,
    "HbMHbM7HbM": 3976,
    "HED7HAD7": 3977,
    "Ham7Hem7": 3978,
    "HGm7HFMHGm7": 3979,
    "HemHemHemHemHemHem": 3980,
    "HNAHNAHNAHFM": 3981,
    "HAoHGM": 3982,
    "HGmHCMHCM": 3983,
    "HGMHeMHbM": 3984,
    "HamHEMHEM": 3985,
    "HC+HCo": 3986,
    "HDMHCMHBM": 3987,
    "HEoHFo": 3988,
    "HGMHGMHdo": 3989,
    "HEMHBMHgM": 3990,
    "HEMHEMHEMHEMHEMHEMHEMHEMHEMHEMHEMHEM": 3991,
    "HEMHEMHgmHgm": 3992,
    "HFsus2HGo": 3993,
    "Hbm7HeMHbm7HeM": 3994,
    "HFsus2HAm7": 3995,
    "HeMHbM7": 3996,
    "HDMHDMHDMHDmHDM": 3997,
    "HAMHNAHNAHNA": 3998,
    "HemHgMHem": 3999,
    "HDMHdoHDMHdo": 4000,
    "HCMHCMHCMHCMHGMHGMHGMHGM": 4001,
    "HGm7Hbm7": 4002,
    "HaMHaMHbMHbM": 4003,
    "HGMHGMHNAHNA": 4004,
    "HeMHeMHeMHesus2": 4005,
    "HEsus2Hgsus2": 4006,
    "HGmHDMHDM": 4007,
    "HGm7HBo": 4008,
    "HbM7HCMHFM": 4009,
    "HdoHBM": 4010,
    "HEm7HDMHGM": 4011,
    "HFmHbmHFmHbm": 4012,
    "HBMHCo": 4013,
    "HDMHDMHDMHDMHDMHAM": 4014,
    "HGMHCmHCmHCmHCm": 4015,
    "HFmHeD7": 4016,
    "HCMHgoHCMHgo": 4017,
    "HeMHeo": 4018,
    "HBmHgMHBmHgM": 4019,
    "HAm7HAm7HFM7": 4020,
    "HgmHgMHgm": 4021,
    "HCm7Hb+": 4022,
    "HFMHCMHAm7": 4023,
    "HGMHGMHAmHAm": 4024,
    "HFm7HbMHbM": 4025,
    "HdmHgD7": 4026,
    "HGMHGMHGMHCM7": 4027,
    "HGmHGMHCM": 4028,
    "HFm7HbMHeM": 4029,
    "HDmHDsus2HDmHDsus2": 4030,
    "HbD7HaM": 4031,
    "Hd+HGo": 4032,
    "HEm7HC+": 4033,
    "HAmHFMHFMHFM": 4034,
    "HCsus2HBm7": 4035,
    "HCD7HFMHbMHFM": 4036,
    "HBo7HFo": 4037,
    "HCoHesus2": 4038,
    "HgMHEm": 4039,
    "HGoHD+": 4040,
    "Hd+HC+": 4041,
    "HCM7HAsus2": 4042,
    "HFmHFmHFm7HFm7": 4043,
    "HDMHDMHDMHDMHDMHDM7": 4044,
    "HbMHCMHCM": 4045,
    "HdmHdmHAMHAM": 4046,
    "HBmHgmHBmHgm": 4047,
    "Hbsus2HCm7": 4048,
    "HCMHCMHEM": 4049,
    "HGMHGD7HGMHGD7": 4050,
    "HEm7HBmHBm": 4051,
    "HEsus2HEMHEM": 4052,
    "HbMHGo": 4053,
    "HCmHDMHGmHGm": 4054,
    "HaM7Hbm7": 4055,
    "HNAHeMHNAHeM": 4056,
    "HbMHBM": 4057,
    "HbMHFMHeMHbM": 4058,
    "HbM7HCM": 4059,
    "HE+HC+": 4060,
    "HDM7HDm7": 4061,
    "Hgm7HBm": 4062,
    "HDMHFMHDM": 4063,
    "Ham7HEM7": 4064,
    "HaD7HFm7": 4065,
    "HCmHNAHNA": 4066,
    "HeM7Hesus2": 4067,
    "HaM7HCo": 4068,
    "HDoHeMHeMHeM": 4069,
    "HCD7HFMHCD7": 4070,
    "HemHemHBMHBM": 4071,
    "HEM7HNA": 4072,
    "HDMHDMHDMHDMHNA": 4073,
    "HFmHgm": 4074,
    "HFmHFMHFMHFM": 4075,
    "HBsus2Hgm": 4076,
    "HAoHDo": 4077,
    "Hasus2HNA": 4078,
    "Hasus2HaM7": 4079,
    "HAMHAMHDM7": 4080,
    "HAsus4HDm": 4081,
    "HdoHdm7": 4082,
    "HgMHgMHgMHgMHgM": 4083,
    "HFMHesus2": 4084,
    "HAmHGMHGMHGM": 4085,
    "HdMHeMHaM": 4086,
    "HaMHgsus2": 4087,
    "HCMHCD7HFMHFM": 4088,
    "HDMHGMHGsus2": 4089,
    "HFMHFMHGm7": 4090,
    "HeMHFMHbMHeM": 4091,
    "HEm7HCM7HCM7": 4092,
    "HBM7HEm": 4093,
    "HEmHGMHDM": 4094,
    "HBm7HBmHBm": 4095,
    "HCsus2HAo": 4096,
    "HGmHGm7HGmHGM": 4097,
    "HaMHgM7": 4098,
    "HAmHAmHAmHDm": 4099,
    "HeMHbMHeMHeM": 4100,
    "HAmHDMHDM": 4101,
    "HBmHAmHGM": 4102,
    "HEMHG+": 4103,
    "HCmHCoHCMHE+HCoHCm7HFMHFsus2HGm7HGMHGsus2HAm7HCmHCoHCMHE+HCoHCm7HFMHFsus2HGm7HGMHGsus2HAm7HCmHCoHCMHE+HCoHCm7HFMHFsus2HGm7HGMHGsus2HAm7HCmHCoHCMHE+HCoHCm7HFMHFsus2HGm7HGMHGsus2HAm7": 4104,
    "HGmHCmHCm": 4105,
    "HDmHEMHDmHEM": 4106,
    "HbmHEo": 4107,
    "HGMHGMHCMHCMHGMHGM": 4108,
    "HGmHGmHCmHCm": 4109,
    "HFmHaMHaM": 4110,
    "HNAHCm": 4111,
    "HF+HF+HF+": 4112,
    "HdMHdD7": 4113,
    "HGMHEMHEM": 4114,
    "HbD7HeD7": 4115,
    "HDMHgmHgm": 4116,
    "HCD7HCM": 4117,
    "HEMHgsus2": 4118,
    "HCmHCmHFM": 4119,
    "HFMHFMHEm": 4120,
    "HbD7Hbm7": 4121,
    "HC+HAM": 4122,
    "HeMHGo": 4123,
    "HGMHbMHGMHbM": 4124,
    "HbMHGm7HbM": 4125,
    "HGsus2HFM7": 4126,
    "HCsus2HD+": 4127,
    "HBmHGD7": 4128,
    "HeM7HDMHGm": 4129,
    "HCm7HEo": 4130,
    "HbmHbmHFMHFM": 4131,
    "HBmHA+": 4132,
    "HAoHbMHbM": 4133,
    "HGmHFmHAm": 4134,
    "HDsus2HAMHAM": 4135,
    "HGMHBmHEm": 4136,
    "He+HaM": 4137,
    "HbMHbMHGm7HGm7": 4138,
    "Hdsus2Hem7": 4139,
    "HFMHCD7": 4140,
    "HFmHdMHaMHaM": 4141,
    "HFmHFmHFmHFmHFmHFmHFm": 4142,
    "HEMHCMHDM": 4143,
    "HNAHNAHBM": 4144,
    "HCMHCMHCMHCo": 4145,
    "HEMHEMHEMHEM7": 4146,
    "HDmHbMHGm7": 4147,
    "HaoHgM": 4148,
    "HFmHFsus4": 4149,
    "HDMHGmHGmHGmHGm": 4150,
    "HgMHgMHaMHaM": 4151,
    "HaoHdo": 4152,
    "HdoHBm7": 4153,
    "HaMHeMHFmHdMHaMHeMHFmHdM": 4154,
    "HCmHdm": 4155,
    "Hasus2Hbm7": 4156,
    "HGMHeo": 4157,
    "HCm7HD+": 4158,
    "HBMHgM7": 4159,
    "HDmHDmHDMHDM": 4160,
    "HAM7HAsus2": 4161,
    "HGmHeMHeM7": 4162,
    "HAmHDm7HAmHDm7": 4163,
    "HCoHb+": 4164,
    "HFM7HCD7": 4165,
    "Hasus4HaM": 4166,
    "HDsus2Hdm": 4167,
    "HgmHgm7Hgm": 4168,
    "HBmHBmHAMHAM": 4169,
    "HGMHGMHGMHGMHGMHGMHGMHGMHGMHGM": 4170,
    "HA+Hd+": 4171,
    "HDMHAMHEMHgmHDMHAMHEMHgm": 4172,
    "HFMHGMHDm7": 4173,
    "HCMHGMHDM": 4174,
    "HAmHCM7HGMHDM": 4175,
    "HbMHbMHDmHDm": 4176,
    "HFsus2HDo": 4177,
    "HCmHFMHFM": 4178,
    "HbMHCmHaMHeMHbMHCmHaMHeM": 4179,
    "HGmHGmHDmHDm": 4180,
    "HCsus4HFMHFM": 4181,
    "HbmHbmHbm7": 4182,
    "HbMHbMHAMHAM": 4183,
    "HCMHDMHNA": 4184,
    "HFsus2HAM": 4185,
    "HaMHeMHaMHdM": 4186,
    "HFMHFMHdM": 4187,
    "HgoHBo": 4188,
    "HEMHAmHDm7": 4189,
    "HCm7HbMHeM": 4190,
    "HCMHEMHEm": 4191,
    "HbMHbMHbM7HbM7": 4192,
    "HBM7Hem": 4193,
    "HCMHCMHAm7HAm7": 4194,
    "HDMHNAHDM": 4195,
    "HAm7HCMHAm7": 4196,
    "HCMHFMHeM": 4197,
    "HGM7HDMHGM7": 4198,
    "HEm7Hdm": 4199,
    "HCMHao": 4200,
    "HeM7HGo": 4201,
    "HEMHBMHEMHEM": 4202,
    "HGmHbMHbM": 4203,
    "HCm7HaM7HCm7": 4204,
    "HCsus2HC+": 4205,
    "HBmHeM": 4206,
    "HCMHCMHCMHCMHNA": 4207,
    "HEMHAmHAmHAm": 4208,
    "HDmHaM": 4209,
    "HCmHCMHFM": 4210,
    "HbmHFo": 4211,
    "HBmHDMHgm": 4212,
    "Ham7Hgm7": 4213,
    "HD+HD+HD+HD+HD+HD+HD+HD+": 4214,
    "HEmHAo": 4215,
    "HCMHGD7HCMHFM": 4216,
    "Hg+Hem": 4217,
    "HaMHaMHdMHdM": 4218,
    "HEm7HGm7": 4219,
    "HFMHCm7": 4220,
    "HCMHCMHG+": 4221,
    "HCmHCmHCmHaM": 4222,
    "HGMHGMHDM": 4223,
    "HDm7HFMHFM": 4224,
    "HFmHdM7HFmHdM7": 4225,
    "HGsus2HCM7": 4226,
    "HCmHAoHCmHAo": 4227,
    "HEMHdmHdm": 4228,
    "HCMHCMHDM": 4229,
    "HBmHCMHCM": 4230,
    "HGMHam": 4231,
    "HgD7HBmHBm": 4232,
    "HAMHGm7": 4233,
    "HeD7HaM7": 4234,
    "HEmHGm": 4235,
    "HEmHdm": 4236,
    "HBmHBm7HBm7": 4237,
    "HEMHAsus4": 4238,
    "HCMHFMHbMHDm": 4239,
    "HAsus2HAMHAsus2": 4240,
    "HBm7HGsus2": 4241,
    "HdMHdMHdm": 4242,
    "HAMHDMHBm7": 4243,
    "HamHdD7": 4244,
    "Hd+Heo": 4245,
    "HC+HaM7": 4246,
    "HgoHFM7": 4247,
    "HCM7HGMHCM": 4248,
    "HEoHDM": 4249,
    "HAMHCMHAM": 4250,
    "HEMHAMHEMHAMHEMHAM": 4251,
    "HFm7Hasus2": 4252,
    "He+HEM": 4253,
    "HCMHA+": 4254,
    "HGmHesus2": 4255,
    "HGMHDm7HGMHDm7": 4256,
    "HDM7HAMHDM7HAM": 4257,
    "HaMHeo": 4258,
    "HFD7HbMHbMHbMHbM": 4259,
    "HeM7HCo": 4260,
    "HFMHFMHbMHFM": 4261,
    "HemHaD7": 4262,
    "HboHeD7": 4263,
    "HAmHF+": 4264,
    "HbMHNAHbM": 4265,
    "HEmHFsus2": 4266,
    "HCM7HDMHEm": 4267,
    "HCD7HFmHCD7HFmHFm": 4268,
    "HFmHEo": 4269,
    "HEM7HBM7": 4270,
    "Ham7HgM7": 4271,
    "HGMHGMHDm": 4272,
    "HboHBmHBm": 4273,
    "HdoHDo": 4274,
    "HemHD+": 4275,
    "HCMHam": 4276,
    "HCM7HDM": 4277,
    "HeMHeMHaM7": 4278,
    "HaMHAo": 4279,
    "HeoHBD7": 4280,
    "HEm7HAmHAm": 4281,
    "HEM7HdM": 4282,
    "HGD7HCmHGD7": 4283,
    "HBm7Hdm": 4284,
    "HeMHe+": 4285,
    "Hbm7Ha+": 4286,
    "HEm7HAMHEm7HAM": 4287,
    "HCD7HCM7": 4288,
    "HbM7HaM7HbM7HaM7": 4289,
    "HbD7HaM7": 4290,
    "HdMHdMHdMHdMHdMHdMHdM": 4291,
    "Hesus2Hesus2Hesus2": 4292,
    "HFMHbMHDm": 4293,
    "HFMHbMHbM7": 4294,
    "HdmHao": 4295,
    "Hdm7HBM7": 4296,
    "HGmHGmHCm": 4297,
    "HbMHb+": 4298,
    "HAmHCm7": 4299,
    "HAmHAmHCMHCM": 4300,
    "HbM7HFsus2": 4301,
    "HFMHCo": 4302,
    "HGm7HeMHGm7": 4303,
    "HCMHCMHCMHCMHCMHCm": 4304,
    "HbMHeMHD+": 4305,
    "HGMHGMHGMHGD7": 4306,
    "HDM7HGM7HDM7": 4307,
    "HCMHdMHCMHdM": 4308,
    "HNAHNAHNAHNAHNAHNAHNAHNAHNAHNAHNAHNAHNAHNAHNA": 4309,
    "HD+HaM": 4310,
    "HCMHCMHdMHdM": 4311,
    "HDMHAMHEm7": 4312,
    "HDD7HGMHEm": 4313,
    "HGmHDsus4": 4314,
    "HdoHEm7": 4315,
    "HbM7Hb+": 4316,
    "HemHFm": 4317,
    "HDMHDMHDMHDMHGMHGM": 4318,
    "HAmHAmHFMHDm": 4319,
    "HFmHdD7": 4320,
    "HFsus2HGm": 4321,
    "HDMHAMHDm": 4322,
    "HDsus2HDM7": 4323,
    "HBMHBMHBMHEM": 4324,
    "Hd+HDM7": 4325,
    "HA+HdM": 4326,
    "HDsus2HEo": 4327,
    "HCsus2HGsus2": 4328,
    "HDMHGMHeM": 4329,
    "HGMHDmHGM": 4330,
    "HFmHFmHbmHbm": 4331,
    "HCMHAmHCMHAmHCMHAmHCMHAm": 4332,
    "HFsus2HCo": 4333,
    "HaM7Hesus2": 4334,
    "HFMHGo": 4335,
    "HGMHGMHGMHdo": 4336,
    "HFoHam": 4337,
    "HCMHAmHDm7": 4338,
    "HEmHGm7": 4339,
    "HEMHGo": 4340,
    "HGmHeM7HCm7": 4341,
    "HeM7He+": 4342,
    "HCMHCMHeMHeM": 4343,
    "HFMHNAHNA": 4344,
    "HDmHAmHDm": 4345,
    "HEMHDMHGM": 4346,
    "HCMHFMHCMHDm7": 4347,
    "HF+HDmHDm": 4348,
    "HF+HdM": 4349,
    "HAMHAMHAMHAsus2": 4350,
    "HAsus4HAm7": 4351,
    "HdMHesus2": 4352,
    "HDD7HAm7": 4353,
    "HDsus2Hgm7": 4354,
    "HEmHFMHGM": 4355,
    "HgoHDm7": 4356,
    "Hd+HAsus2": 4357,
    "HCmHCmHCmHaM7": 4358,
    "HCM7HAm7HCM7HAm7": 4359,
    "HGmHGmHCm7HCm7": 4360,
    "HNAHGm7": 4361,
    "HCMHEmHCMHEmHCMHEmHCMHEm": 4362,
    "HAmHAmHAMHAM": 4363,
    "HdMHeMHeM": 4364,
    "HgmHgmHgmHgmHgm": 4365,
    "HAmHEsus4": 4366,
    "HCD7HeM": 4367,
    "HbmHCm7": 4368,
    "HbMHbM7HbM7": 4369,
    "HCMHCMHDo": 4370,
    "HB+He+": 4371,
    "HFmHdM7HeM": 4372,
    "HNAHNAHNAHeM": 4373,
    "HbM7HFMHDm7": 4374,
    "HGMHCMHDMHEm": 4375,
    "HCMHCMHCMHCMHCMHCMHCMHCMHCMHCMHCM": 4376,
    "HDmHDmHDmHbM7": 4377,
    "HdM7HdMHdM": 4378,
    "HdMHgMHgM": 4379,
    "HDmHDmHDmHFM": 4380,
    "HBmHAM7": 4381,
    "HGMHFMHbM": 4382,
    "HBoHbM": 4383,
    "HFmHdMHeMHaM": 4384,
    "HAm7HFM7HFM7": 4385,
    "HgMHdm7": 4386,
    "HNAHFM7": 4387,
    "Hgsus2Hem7": 4388,
    "HNAHAMHNA": 4389,
    "HG+HGM": 4390,
    "HCmHasus2": 4391,
    "HCmHF+": 4392,
    "HgMHdsus2": 4393,
    "HEmHDMHDM": 4394,
    "HCD7HFMHCM": 4395,
    "HaMHbMHaM": 4396,
    "HbMHFMHCM": 4397,
    "HED7HAm7": 4398,
    "HNAHDm7": 4399,
    "HCMHGMHAM": 4400,
    "HNAHFsus2": 4401,
    "HCMHBMHAM": 4402,
    "HGD7HCm7": 4403,
    "Hasus2Hbm": 4404,
    "HBmHFM": 4405,
    "HGM7HGm": 4406,
    "HAM7HDM": 4407,
    "HGMHGMHGD7": 4408,
    "HFm7HFMHFm7": 4409,
    "HEM7Heo": 4410,
    "HgD7HEo": 4411,
    "HCoHDm7": 4412,
    "HGmHDmHeM": 4413,
    "HFMHFMHDmHDm": 4414,
    "HCmHFD7HCmHFD7": 4415,
    "HboHbm7": 4416,
    "HgMHgMHBmHBm": 4417,
    "HDmHDoHDmHDo": 4418,
    "HDMHgMHgM": 4419,
    "HAmHAmHAmHAmHAmHAmHAmHAmHAmHAmHAmHAmHAmHAmHAmHAm": 4420,
    "HboHDm": 4421,
    "HdmHdmHdmHdmHdmHdmHdm": 4422,
    "HbMHbMHGmHeM": 4423,
    "HCMHaM7HCMHaM7": 4424,
    "HNAHaMHaM": 4425,
    "HaMHaMHam": 4426,
    "HDMHCMHGMHGM": 4427,
    "HNAHAm": 4428,
    "HamHGm": 4429,
    "HemHemHem7": 4430,
    "HDsus4HDM": 4431,
    "HdM7Hdsus2": 4432,
    "Hb+HFM": 4433,
    "HCmHFmHeM": 4434,
    "HDMHEMHAMHAM": 4435,
    "HDsus4HDsus2": 4436,
    "HaM7HFo": 4437,
    "HCsus2HFM7": 4438,
    "Hdm7Hem7": 4439,
    "HdmHdMHdm": 4440,
    "HDMHDMHd+": 4441,
    "HEmHCMHAm": 4442,
    "HDMHGMHDsus2": 4443,
    "HeM7HbMHeM7": 4444,
    "HgoHDM": 4445,
    "HEMHEMHEMHEsus2": 4446,
    "HdmHdmHdm7": 4447,
    "HED7HAMHED7HAM": 4448,
    "HD+HeD7": 4449,
    "HAM7HAMHAM7HAM": 4450,
    "HAMHDMHDsus2": 4451,
    "HAMHCMHFM": 4452,
    "HDD7HD+": 4453,
    "HAmHDsus4": 4454,
    "HCMHEmHCMHAD7": 4455,
    "HbMHbMHbMHGm": 4456,
    "HFD7HFM7": 4457,
    "HEMHEMHdm7": 4458,
    "HFMHCsus4": 4459,
    "HaMHGMHaM": 4460,
    "HbD7HbD7HeM": 4461,
    "HCMHGD7HGD7": 4462,
    "HGmHGmHAo": 4463,
    "HDMHDMHDMHCsus2": 4464,
    "Hd+HAMHd+": 4465,
    "Hg+HD+": 4466,
    "HgoHG+": 4467,
    "HboHgD7": 4468,
    "HEmHCMHDM": 4469,
    "Ha+HdM7": 4470,
    "HCM7HEmHCM7": 4471,
    "HDMHAMHBM": 4472,
    "HboHGo": 4473,
    "HCM7HEo": 4474,
    "HFsus2HC+": 4475,
    "HgM7HFm": 4476,
    "HFMHbMHGm7": 4477,
    "HgoHdM": 4478,
    "HDoHasus2": 4479,
    "HFm7HaMHaM": 4480,
    "HDMHAMHEM": 4481,
    "HC+HBM": 4482,
    "HEMHGMHCM": 4483,
    "HCMHGMHFMHGM": 4484,
    "HDoHem": 4485,
    "HAMHbM7": 4486,
    "HBoHEM": 4487,
    "HgM7HaD7": 4488,
    "HaMHaMHbm7": 4489,
    "HdoHDMHGM": 4490,
    "HGmHF+": 4491,
    "HDmHDMHDmHDm": 4492,
    "HaMHamHam": 4493,
    "HaMHGD7": 4494,
    "HFMHbMHDm7": 4495,
    "HBMHgsus2": 4496,
    "Ham7Hbm7": 4497,
    "HFM7HDm7HFM7": 4498,
    "HCMHCMHEo": 4499,
    "HGD7HGD7HCmHCm": 4500,
    "Hd+HDsus2": 4501,
    "HCsus4HCM": 4502,
    "HbMHDm7HbM": 4503,
    "HCM7Hdo": 4504,
    "HAmHCMHDm": 4505,
    "HEoHGsus2": 4506,
    "HCMHEm7HCMHEm7": 4507,
    "HdMHNAHNA": 4508,
    "HFMHFMHFMHbMHFM": 4509,
    "HbmHCD7": 4510,
    "HFm7HeD7": 4511,
    "HA+HDm": 4512,
    "HaMHaMHFMHFM": 4513,
    "HCMHBMHEm": 4514,
    "HBm7HdM": 4515,
    "HBm7HDMHBm7": 4516,
    "Hdsus2Hdsus2Hdsus2Hdsus2": 4517,
    "HAMHCM7": 4518,
    "HGmHGmHDm7": 4519,
    "HGsus2HDsus4": 4520,
    "HNAHD+": 4521,
    "HFD7HFm7": 4522,
    "HgMHC+": 4523,
    "HE+Ham": 4524,
    "HCMHNAHDMHNA": 4525,
    "HaMHeMHdM": 4526,
    "HGmHGmHGmHGM": 4527,
    "HGMHGMHeMHeM": 4528,
    "HGmHCmHGm": 4529,
    "HEMHEMHEMHNA": 4530,
    "HaMHdm7": 4531,
    "HDmHGm7HDm": 4532,
    "HCsus2HaM7": 4533,
    "HGMHEMHAM": 4534,
    "HCMHCMHAMHAM": 4535,
    "HGMHGMHAMHAMHGMHGMHAMHAM": 4536,
    "HCm7HeMHCm7": 4537,
    "HCMHFMHbMHFM": 4538,
    "HGM7HGM7HGM7HGM7HGM7HGM7HGM7HGM7": 4539,
    "HEMHAMHgm7": 4540,
    "HFoHCo": 4541,
    "HEmHC+": 4542,
    "HCoHCoHCoHCoHCoHCoHCoHCo": 4543,
    "Hbsus2HCsus2": 4544,
    "HAMHAMHAMHFM": 4545,
    "HGMHGMHgm": 4546,
    "HdM7HeMHeM": 4547,
    "HFM7HEM": 4548,
    "HED7HNA": 4549,
    "HgMHgMHgm": 4550,
    "HbMHC+": 4551,
    "HgMHgMHgMHBM": 4552,
    "HCMHDMHCMHDMHCMHDM": 4553,
    "HDM7HAm7": 4554,
    "HEmHEmHGMHGM": 4555,
    "HFMHFMHGmHGm": 4556,
    "HAmHAmHDm7HDm7": 4557,
    "HAMHDMHFM": 4558,
    "HC+HDm": 4559,
    "HGMHGMHgo": 4560,
    "HFmHFmHbm7": 4561,
    "Hesus4HaM": 4562,
    "Hasus2Hesus2": 4563,
    "HFMHFMHD+": 4564,
    "HAMHDo": 4565,
    "HdMHgm7": 4566,
    "HFD7HCo": 4567,
    "HCMHCMHaM7": 4568,
    "HDMHGsus4": 4569,
    "HE+HAM": 4570,
    "HEMHBMHAM": 4571,
    "Hgsus2HNA": 4572,
    "HbM7HDm7HbM7": 4573,
    "HAD7HDmHbM": 4574,
    "HBmHgmHgm": 4575,
    "HbmHD+": 4576,
    "Ham7Ham7Ham7": 4577,
    "HGmHeM7HGm": 4578,
    "He+Heo": 4579,
    "HCmHCmHCo": 4580,
    "HBmHBmHGM7": 4581,
    "HBMHBMHdMHdM": 4582,
    "HAoHGsus2": 4583,
    "HDMHDMHFMHFMHGMHGM": 4584,
    "HbMHbMHDm7": 4585,
    "HGoHFM7": 4586,
    "HbMHCMHDmHDm": 4587,
    "HGMHFMHCMHFM": 4588,
    "HBmHbM": 4589,
    "HGoHCo": 4590,
    "HDMHGMHDMHEm": 4591,
    "HCmHCmHCmHCmHCmHCmHCmHCmHCmHCmHCmHCmHCmHCmHCmHCm": 4592,
    "HdmHED7": 4593,
    "HAmHNAHAmHNA": 4594,
    "Hbsus2HAo": 4595,
    "HNAHNAHDm": 4596,
    "HgMHgsus4": 4597,
    "HCmHaM7HFm7": 4598,
    "HaM7HaMHaM7": 4599,
    "HAD7Hd+": 4600,
    "HbMHbMHCm7": 4601,
    "HFoHeo": 4602,
    "HAMHAMHAm": 4603,
    "HamHFM": 4604,
    "HAoHEo": 4605,
    "HGM7HGD7": 4606,
    "HeMHbMHeM7": 4607,
    "HEmHGMHCM": 4608,
    "HEoHFMHEo": 4609,
    "HAm7HFM7HAm7HFM7": 4610,
    "HGM7HCM7HGM7HCM7": 4611,
    "HCsus2HGm7": 4612,
    "HCM7HAmHCM7": 4613,
    "HAm7HEM": 4614,
    "HAM7HaM": 4615,
    "HCm7HCm7HFD7HFD7": 4616,
    "HAMHAMHAm7": 4617,
    "HEmHAMHDM": 4618,
    "HFMHaM7": 4619,
    "HBm7HA+": 4620,
    "HbmHGm": 4621,
    "HCsus2HDm": 4622,
    "HbMHbMHaM": 4623,
    "HCmHCmHCmHFm7": 4624,
    "HbMHeMHGm": 4625,
    "HFM7HF+": 4626,
    "HaMHaMHasus2": 4627,
    "HCM7HDo": 4628,
    "HaMHaMHeMHaM": 4629,
    "HeMHam": 4630,
    "HDm7HDsus4": 4631,
    "HaoHDM7": 4632,
    "HgMHg+": 4633,
    "HBmHCm": 4634,
    "HFM7HDo": 4635,
    "HeD7HCm7": 4636,
    "HDMHDMHBM": 4637,
    "HGM7HFM7": 4638,
    "HdD7HFo": 4639,
    "HdMHam": 4640,
    "HGm7HbMHGm7": 4641,
    "HEsus2Hdo": 4642,
    "HaMHeMHNA": 4643,
    "HamHeMHam": 4644,
    "Hbsus2HFsus2": 4645,
    "HemHBMHgMHdM": 4646,
    "HDMHesus2": 4647,
    "HC+HAm7": 4648,
    "HaoHam": 4649,
    "HCD7HGo": 4650,
    "Hd+HEM": 4651,
    "HGMHEmHEmHEm": 4652,
    "HCMHGMHAm": 4653,
    "HGsus4HGM": 4654,
    "HCmHCm7HCm7": 4655,
    "HGMHGMHDMHGM": 4656,
    "HgMHgMHgMHdM": 4657,
    "HAm7HAm7HFM7HFM7": 4658,
    "HC+Hbm7": 4659,
    "HBm7HBD7": 4660,
    "HCD7HFmHCD7HFmHFmHCmHCmHCmHCm": 4661,
    "HAm7HDo": 4662,
    "HbMHCo": 4663,
    "HEMHaMHaM": 4664,
    "HgMHeo": 4665,
    "HbMHNAHNAHNA": 4666,
    "HAMHEMHgm7": 4667,
    "HbM7Hbm": 4668,
    "HFm7HDm": 4669,
    "HeMHEM": 4670,
    "HGMHbMHFM": 4671,
    "Hbsus2HDm7": 4672,
    "HAm7HGMHCM": 4673,
    "HbmHaMHbm": 4674,
    "HAMHbMHAM": 4675,
    "HCMHbMHaM": 4676,
    "HED7Hdm7": 4677,
    "HBM7He+": 4678,
    "HDM7HDM7HDM7HDM7HDM7HDM7HDM7HDM7": 4679,
    "HDM7HCM7": 4680,
    "Hdsus2HNA": 4681,
    "HFMHFMHFMHFMHFMHFMHFMHFMHFMHFM": 4682,
    "HCMHFsus4": 4683,
    "HFoHem": 4684,
    "HDMHGmHGM": 4685,
    "HGMHBsus2": 4686,
    "HDM7Hgo": 4687,
    "HCMHDmHCMHbM": 4688,
    "HNAHdm": 4689,
    "HDMHAMHAMHAM": 4690,
    "HGoHaM7": 4691,
    "HFMHAmHFM": 4692,
    "HFoHgMHdM": 4693,
    "HeMHeMHesus2": 4694,
    "Hbsus2Hbm7": 4695,
    "HCM7HAo": 4696,
    "HEoHAm": 4697,
    "HDmHNAHDmHNA": 4698,
    "HEoHEM": 4699,
    "HD+HCD7": 4700,
    "HbmHbmHbM": 4701,
    "HC+HdM7": 4702,
    "HDMHGMHGM7": 4703,
    "Hesus2HeMHesus2HeM": 4704,
    "HCMHGMHAmHFM": 4705,
    "HCMHGMHDm7": 4706,
    "HFMHFMHFMHFMHbM": 4707,
    "HGmHDD7": 4708,
    "HED7Hgm7": 4709,
    "HFMHFMHFMHDm": 4710,
    "HAM7HE+": 4711,
    "HaMHeMHaMHeMHaMHeM": 4712,
    "HeoHEo": 4713,
    "HDmHDmHDmHDmHDmHDmHDmHDmHDmHDmHDmHDm": 4714,
    "HCMHem": 4715,
    "HAMHAMHBM": 4716,
    "HdmHe+": 4717,
    "HeMHeMHbMHeM": 4718,
    "HCMHCm7HCm7": 4719,
    "HGmHGmHGmHCm7": 4720,
    "HD+HD+HeM": 4721,
    "HdmHdmHAM": 4722,
    "HAD7HDMHAM": 4723,
    "HEmHEmHEmHEm7": 4724,
    "HEMHAMHAMHAMHAM": 4725,
    "HGoHFMHFM": 4726,
    "HG+He+": 4727,
    "HDMHDMHDmHDM": 4728,
    "HBoHAo": 4729,
    "HAmHED7HAm": 4730,
    "HGMHGMHCMHCMHCMHCM": 4731,
    "HCmHFD7HbM": 4732,
    "HbM7HGm7HGm7": 4733,
    "HdoHBm": 4734,
    "Hasus2HFm": 4735,
    "HCD7HFMHDm": 4736,
    "HGMHDMHDMHDMHGM": 4737,
    "HdoHaM": 4738,
    "HBmHDMHEM": 4739,
    "HDMHDMHAMHDM": 4740,
    "HFMHAmHAm": 4741,
    "HDmHdM": 4742,
    "HBMHBMHgM": 4743,
    "HgMHgmHgMHgm": 4744,
    "HbD7HeMHaMHeM": 4745,
    "HBm7HBm7HBm7HBm7HBm7HBm7HBm7HBm7": 4746,
    "HGmHGmHGMHGM": 4747,
    "HGmHGmHCMHCM": 4748,
    "HgMHAsus2": 4749,
    "HEm7HEmHAD7": 4750,
    "HFMHbMHD+": 4751,
    "HDMHGMHCMHEm": 4752,
    "HC+HFo": 4753,
    "HdMHbMHCMHDM": 4754,
    "HAoHG+": 4755,
    "HCM7HCM7HFM7": 4756,
    "HGmHbMHeM7": 4757,
    "Hem7HdM7": 4758,
    "HBmHCMHDM": 4759,
    "HCmHeD7": 4760,
    "HGD7HGMHGD7": 4761,
    "HCsus2HAsus2": 4762,
    "HDmHCm7": 4763,
    "HAMHEMHDMHEMHAM": 4764,
    "HNAHNAHEM": 4765,
    "HGD7HDo": 4766,
    "HdmHem7": 4767,
    "HGmHe+": 4768,
    "HFMHEMHFMHEM": 4769,
    "HDm7HDmHDm": 4770,
    "HCMHNAHFM": 4771,
    "HBoHDsus2": 4772,
    "HFsus2HFMHFsus2HFM": 4773,
    "HAm7HDsus2": 4774,
    "HDoHD+": 4775,
    "HAD7Hgm": 4776,
    "HAmHAmHAm7HAm7": 4777,
    "HCm7HCm7HCm7HCm7HCm7HCm7": 4778,
    "HGM7HGm7": 4779,
    "HED7HDD7": 4780,
    "HGMHF+": 4781,
    "HeD7HNA": 4782,
    "HBoHCo": 4783,
    "HEmHBmHEm": 4784,
    "HBMHemHBM": 4785,
    "HDMHDMHDMHDMHDMHBm": 4786,
    "HEMHEMHEm7": 4787,
    "HGmHC+": 4788,
    "HamHeMHeM": 4789,
    "HDM7HGsus2": 4790,
    "HAmHd+": 4791,
    "HDMHDMHGMHGMHGMHGM": 4792,
    "HeoHFM": 4793,
    "HE+HCo": 4794,
    "HCoHbm7": 4795,
    "HCM7HDsus2": 4796,
    "HGD7HBoHGD7HGD7": 4797,
    "HaD7HaD7HaD7": 4798,
    "HDM7HGM": 4799,
    "HaM7HaM7HeM": 4800,
    "HEMHAMHEm": 4801,
    "HCMHCoHCMHCo": 4802,
    "HbmHeMHaM": 4803,
    "HDMHeMHDMHeM": 4804,
    "HCmHCmHCMHCm": 4805,
    "HdoHFM": 4806,
    "HDm7HbM7HEoHbo": 4807,
    "HGMHCMHFMHFM": 4808,
    "HCsus4HGm7": 4809,
    "HCmHaD7": 4810,
    "HDoHdm": 4811,
    "HBm7HBsus2": 4812,
    "HdM7HbM": 4813,
    "Ha+HeM": 4814,
    "HDMHBD7": 4815,
    "HDmHbM7HDm": 4816,
    "HCM7HCo": 4817,
    "HemHemHemHem7": 4818,
    "HgD7HgD7HgD7HgD7": 4819,
    "HNAHCm7": 4820,
    "HboHam": 4821,
    "HbmHgMHdM": 4822,
    "HaMHeMHFM": 4823,
    "HeD7HdM7": 4824,
    "HGmHeMHCm7": 4825,
    "HFD7Hb+": 4826,
    "HGoHC+": 4827,
    "HgMHAM7": 4828,
    "Hgm7HGM7": 4829,
    "HCsus2HFsus2": 4830,
    "HEMHgMHBM": 4831,
    "HdmHdmHgm": 4832,
    "HFD7Hbm7": 4833,
    "Hd+HBM": 4834,
    "HCMHbMHeM": 4835,
    "HCmHFMHbMHeM": 4836,
    "HBmHGMHGM7": 4837,
    "HgMHgMHgsus2": 4838,
    "HDMHe+": 4839,
    "HDMHDD7HGMHGM": 4840,
    "HbMHaM7": 4841,
    "HgMHaD7": 4842,
    "HCmHGMHCM": 4843,
    "HEoHEoHDmHDm": 4844,
    "HGD7HCMHCMHCMHCM": 4845,
    "HemHBM7HemHBM7": 4846,
    "HaMHC+HaMHC+": 4847,
    "HbM7HFMHGm7": 4848,
    "HCmHCmHDo": 4849,
    "HEoHC+": 4850,
    "He+Hem": 4851,
    "Hesus2HDm": 4852,
    "HDMHDMHDMHFM": 4853,
    "HbD7HFm": 4854,
    "HBM7Hbm": 4855,
    "HDmHDmHF+": 4856,
    "HBD7HG+": 4857,
    "HbMHeMHNA": 4858,
    "HAsus2Hgm7": 4859,
    "HDM7HAMHDM": 4860,
    "HEM7Hgm7": 4861,
    "HCMHFMHAm7": 4862,
    "HDmHFMHCMHGM": 4863,
    "HboHao": 4864,
    "HCMHCMHFo": 4865,
    "HCM7HFMHCM7": 4866,
    "HbmHF+": 4867,
    "HGsus2HD+": 4868,
    "HBm7HAm": 4869,
    "HgmHFM": 4870,
    "HbMHFMHbMHFMHbMHFM": 4871,
    "Hbsus2Hesus2": 4872,
    "HDD7HGm7": 4873,
    "Hgsus2Hdm": 4874,
    "HDMHEMHdMHgm": 4875,
    "HDMHAmHDM": 4876,
    "HDMHbMHFM": 4877,
    "Ham7Hgm": 4878,
    "HDMHeM7HDMHeM7": 4879,
    "HBm7Hd+": 4880,
    "HgMHGM7": 4881,
    "HaMHbMHCM": 4882,
    "HGMHGMHGMHbM": 4883,
    "HCMHCMHgo": 4884,
    "HaM7HCm7HaM7": 4885,
    "HAMHAMHAMHAD7": 4886,
    "HeMHDm7": 4887,
    "HGMHCMHGsus2": 4888,
    "HEoHd+": 4889,
    "HBmHEm7HBmHEm7": 4890,
    "HCMHAmHAmHAm": 4891,
    "HEm7HDD7": 4892,
    "HamHEMHBM": 4893,
    "HCmHCmHFm7HFm7": 4894,
    "HdD7HdD7HdD7HdD7": 4895,
    "HaMHaMHGMHGM": 4896,
    "HAsus2HFM7": 4897,
    "HaMHCsus2": 4898,
    "HCMHAMHEM": 4899,
    "Hbsus2Hasus2": 4900,
    "HEMHEMHDsus2": 4901,
    "HeMHFMHGm": 4902,
    "HEMHAmHFMHCM": 4903,
    "HCsus2HAm7": 4904,
    "HbMHbMHbD7": 4905,
    "HCmHbMHCm": 4906,
    "HDoHDsus2": 4907,
    "HBmHe+": 4908,
    "HEmHFMHFM": 4909,
    "HGMHDMHGM7": 4910,
    "HbMHbMHFMHbM": 4911,
    "HbMHDsus2": 4912,
    "HDmHCo": 4913,
    "HGmHGmHEo": 4914,
    "HGmHGmHbM": 4915,
    "HDmHAD7": 4916,
    "HdMHFMHdMHFM": 4917,
    "HNAHBMHBM": 4918,
    "HeM7Hb+": 4919,
    "HeD7HaMHeD7": 4920,
    "HgMHgMHeM": 4921,
    "HBm7HGMHGM": 4922,
    "HCsus2HGMHGM": 4923,
    "HEMHEM7HEMHEM7": 4924,
    "HamHEm": 4925,
    "HCMHGMHAmHEm": 4926,
    "HBMHAm7": 4927,
    "HFMHFMHCMHFM": 4928,
    "HDMHBmHgm": 4929,
    "HEmHD+": 4930,
    "HCmHNAHCmHNA": 4931,
    "HeMHeMHamHam": 4932,
    "HaoHD+": 4933,
    "HEMHEMHNAHNA": 4934,
    "HAsus2HDm7": 4935,
    "HbmHgMHbm": 4936,
    "HCMHasus2": 4937,
    "HaMHeMHaM7": 4938,
    "HgmHgmHAM": 4939,
    "HDM7HAsus2": 4940,
    "HCmHAm7": 4941,
    "HBsus2HNA": 4942,
    "HFM7HFMHFMHFM": 4943,
    "HBmHC+": 4944,
    "HFmHFmHFmHFmHFm": 4945,
    "HbMHCMHDMHDM": 4946,
    "HFmHbmHFm": 4947,
    "Hbsus2HeMHbM": 4948,
    "HFsus2HEo": 4949,
    "HDmHbMHFMHCMHDm": 4950,
    "HgoHGD7": 4951,
    "HNAHCMHCMHCMHCM": 4952,
    "Hesus2Hem7": 4953,
    "HFMHGMHDm": 4954,
    "HbmHbmHaMHaM": 4955,
    "HFM7HAmHFM7": 4956,
    "HbmHBM": 4957,
    "HCD7HCD7HFmHFm": 4958,
    "HFsus2HFm7": 4959,
    "HNAHDsus2": 4960,
    "HEm7HDMHDM": 4961,
    "HDMHAMHDMHAMHDMHAMHDMHAM": 4962,
    "HDMHDMHDMHDD7": 4963,
    "HCMHCD7HCD7": 4964,
    "HCMHCmHeM": 4965,
    "HCmHCmHGMHGM": 4966,
    "HNAHCMHGM": 4967,
    "Hd+HDMHDM": 4968,
    "HBm7HAMHDM": 4969,
    "HCM7HCM7HCM7HCM7HCM7HCM7": 4970,
    "HbMHNAHeM": 4971,
    "HFmHbMHeMHeM": 4972,
    "HgMHgMHEMHEMHgMHgMHEMHEM": 4973,
    "HCM7HCm7": 4974,
    "HaoHaM": 4975,
    "HbMHbsus2HbMHbsus2": 4976,
    "HAMHA+": 4977,
    "HDMHDMHDMHBm": 4978,
    "HBM7HdD7": 4979,
    "HAmHAmHAo": 4980,
    "HBM7Heo": 4981,
    "HCsus2HEm": 4982,
    "HboHdm7": 4983,
    "Hd+Ham": 4984,
    "HCsus2HGM7": 4985,
    "HCMHCMHCMHGsus2": 4986,
    "HbM7HAD7": 4987,
    "HBo7HBo7": 4988,
    "HaM7HbM7": 4989,
    "HDMHBm7HBm7": 4990,
    "HDm7HDm7HDm": 4991,
    "HGm7HD+": 4992,
    "HBmHEMHgm": 4993,
    "HGmHGmHGM": 4994,
    "HGMHFD7": 4995,
    "HGMHCMHGMHAD7HDMHGM": 4996,
    "HCmHCmHaM7HaM7": 4997,
    "HB+HEM7": 4998,
    "HFD7HbMHFM": 4999,
    "HFMHFMHFMHFMHFMHFMHFMHFMHFMHFMHFMHFM": 5000,
    "HGmHGMHGMHGM": 5001,
    "HC+Ha+": 5002,
    "HEmHDo": 5003,
    "HED7HC+": 5004,
    "HCMHFsus2HCMHFsus2": 5005,
    "HDMHam": 5006,
    "HAM7HA+": 5007,
    "HFM7HCMHFM7": 5008,
    "HBoHAmHBo": 5009,
    "HDMHEMHgm": 5010,
    "HAMHAMHAMHgm7": 5011,
    "HAMHAMHdm": 5012,
    "HDmHCD7": 5013,
    "Hesus2Hem": 5014,
    "HCMHCMHFMHFMHCMHCMHFMHFM": 5015,
    "HCMHCMHCMHEm7": 5016,
    "HdMHNAHdMHNA": 5017,
    "HBm7HBmHBm7": 5018,
    "HEmHgD7": 5019,
    "HEmHDMHAM": 5020,
    "HCsus2HDo": 5021,
    "HAmHCD7": 5022,
    "HGMHEm7HEm7": 5023,
    "HbMHbMHbMHbMHFM": 5024,
    "HCmHdsus2": 5025,
    "HbMHbMHGMHGM": 5026,
    "HGMHAMHAMHAM": 5027,
    "HAmHAMHAm": 5028,
    "HgMHasus2": 5029,
    "HdD7Hdm7": 5030,
    "HGmHGmHeM7HeM7": 5031,
    "HCMHeMHCMHGM": 5032,
    "HdMHgsus2": 5033,
    "HBMHGMHBM": 5034,
    "HeMHD+": 5035,
    "Hesus2HCm7": 5036,
    "HGmHCMHFMHFM": 5037,
    "HAD7HGM7": 5038,
    "HgMHgMHgMHgMHgMHgMHgM": 5039,
    "HFD7Hesus2": 5040,
    "HCM7HFM7HCM7HFM7": 5041,
    "HEMHEmHEM": 5042,
    "HdMHbmHdM": 5043,
    "HDm7HBm7": 5044,
    "HbMHFMHDm7": 5045,
    "HeMHbMHbM": 5046,
    "HBoHC+": 5047,
    "HEmHAmHAm": 5048,
    "He+HCm7": 5049,
    "He+HFo": 5050,
    "HCMHGMHCMHCMHCMHCM": 5051,
    "HGmHasus2": 5052,
    "HBsus2Hdm7": 5053,
    "HBMHBMHAM": 5054,
    "HGMHGMHGMHAm7": 5055,
    "HDD7HAo": 5056,
    "HbMHFsus4": 5057,
    "Hd+HF+": 5058,
    "HDoHDmHDo": 5059,
    "HbMHeM7HbM": 5060,
    "HGMHaMHGMHaM": 5061,
    "HCm7HbMHeM7": 5062,
    "HGm7HeMHGm7HeM": 5063,
    "HCsus2HCsus2HCsus2HCsus2HCsus2HCsus2HCsus2HCsus2": 5064,
    "HGmHeMHeMHeM": 5065,
    "HDm7HD+": 5066,
    "HFMHFMHFMHFMHFMHFMHFMHFMHFM": 5067,
    "HGMHAMHgm": 5068,
    "HaMHFmHdM7": 5069,
    "HFM7HFM7HEm7HEm7": 5070,
    "HCMHbMHAM": 5071,
    "HFmHeMHaM": 5072,
    "HgMHdMHaM": 5073,
    "HDM7HDo": 5074,
    "HFMHbMHeM": 5075,
    "HGMHGMHGMHGMHGMHGMHGMHCM": 5076,
    "HGMHNAHGMHNAHGMHNA": 5077,
    "HCM7HFMHFM": 5078,
    "HDMHGMHbM": 5079,
    "Hasus2HeMHeMHeM": 5080,
    "HAMHgmHAM": 5081,
    "HGMHDMHEmHEm": 5082,
    "HCM7He+": 5083,
    "HCsus2HBo": 5084,
    "HGMHBMHEM": 5085,
    "HBmHGm": 5086,
    "HGmHEm7": 5087,
    "HCM7HCM7HAm7": 5088,
    "HgMHgMHbm": 5089,
    "HFD7HbMHFD7": 5090,
    "HgMHgMHem7": 5091,
    "HEMHgmHEMHgm": 5092,
    "HDsus4HGm7": 5093,
    "HbM7HFMHbM": 5094,
    "HDMHDMHEsus2": 5095,
    "HDMHDMHgMHgM": 5096,
    "HbMHbo": 5097,
    "HGmHGm7HGm7": 5098,
    "HGsus2Hgm": 5099,
    "HFMHDm7HFM7": 5100,
    "HEmHCD7": 5101,
    "HbM7HCMHDm": 5102,
    "HAm7Hgm": 5103,
    "HFMHeMHdM": 5104,
    "HbmHbmHdM": 5105,
    "HgMHEMHEM": 5106,
    "Hd+HAo": 5107,
    "HGmHGmHGmHGmHCmHCm": 5108,
    "HAoHGmHAoHGmHD+HeD7": 5109,
    "HEMHGMHGM": 5110,
    "HEMHEMHED7": 5111,
    "Hesus2Hbm7": 5112,
    "Hb+Hb+Hb+Hb+": 5113,
    "HgMHFMHgMHFM": 5114,
    "HCMHBoHGD7": 5115,
    "HeMHCM": 5116,
    "HAmHFMHAmHFMHAmHFMHAmHFM": 5117,
    "HbMHbMHbMHbMHbMHbMHbMHbMHbMHbMHbMHbM": 5118,
    "HdoHDMHBm": 5119,
    "HGMHGMHGMHDm7": 5120,
    "HAmHGMHCMHGM": 5121,
    "HCm7HAm7": 5122,
    "HGMHCMHCMHFM": 5123,
    "HbmHFMHbmHFM": 5124,
    "HCM7HAmHAm": 5125,
    "Hbsus2HEo": 5126,
    "HCMHCMHCMHCD7": 5127,
    "HDMHAmHAm": 5128,
    "HFD7HbMHGm7": 5129,
    "HAmHDmHDm7": 5130,
    "HBMHB+": 5131,
    "HGsus2HEm7": 5132,
    "HCMHFMHCMHCMHCM": 5133,
    "HdMHdMHdMHNA": 5134,
    "HaM7HeMHaM": 5135,
    "HEMHEm7HEMHEm7": 5136,
    "HBmHEMHBm": 5137,
    "HDmHDmHAM": 5138,
    "HEMHEMHgm7": 5139,
    "HGm7HGm7HFMHFM": 5140,
    "HCoHdM7": 5141,
    "HEMHAmHEM": 5142,
    "HBMHg+": 5143,
    "HDmHDmHEo": 5144,
    "HAMHAMHGMHGM": 5145,
    "HEMHAD7": 5146,
    "Hd+HDMHAM": 5147,
    "HG+HEm7": 5148,
    "HAm7HEm7HAm7": 5149,
    "HeMHeMHeMHCm7": 5150,
    "HCm7HaM7HeM": 5151,
    "HCMHFMHCMHGM": 5152,
    "HdM7Hbsus2": 5153,
    "HD+HGmHD+": 5154,
    "HFmHdMHdM": 5155,
    "HCMHFMHCM7": 5156,
    "HemHdm": 5157,
    "HGoHB+": 5158,
    "HBD7HED7": 5159,
    "HEMHAMHEMHBM": 5160,
    "HDMHDmHDsus2": 5161,
    "HdoHGM": 5162,
    "HAmHAm7HFM7": 5163,
    "HDMHGMHdo": 5164,
    "HBmHDMHD+": 5165,
    "HFsus2HCm": 5166,
    "HCM7HCMHAm": 5167,
    "HDMHDMHEM": 5168,
    "HeMHaMHeMHeM": 5169,
    "HCmHCmHCsus2": 5170,
    "HeMHeMHdMHdM": 5171,
    "HbMHbMHbMHDm": 5172,
    "HCMHDMHFM": 5173,
    "HEmHAm7HEmHAm7": 5174,
    "HemHem7HemHem7": 5175,
    "HaoHGD7": 5176,
    "HCMHDMHeM": 5177,
    "HemHBMHgM": 5178,
    "HEsus2HEsus2HBm7HBm7": 5179,
    "Ham7HFo": 5180,
    "Hb+HD+": 5181,
    "HBmHEmHAM": 5182,
    "HG+HG+HG+HG+": 5183,
    "HGmHeMHbMHeM": 5184,
    "HAm7HAm7HDm7": 5185,
    "HAMHAMHFM7": 5186,
    "HDoHCmHDoHCm": 5187,
    "HE+HE+HE+HE+": 5188,
    "He+HC+": 5189,
    "HCMHCMHFMHFMHFMHFM": 5190,
    "HbM7HAm7HGm7": 5191,
    "HBMHBMHe+": 5192,
    "HgMHgMHgM7": 5193,
    "HDMHDm7HDm7": 5194,
    "HFm7He+": 5195,
    "HCsus4HFM7": 5196,
    "HDMHFMHDm": 5197,
    "HeD7Hbm": 5198,
    "HEM7HE+": 5199,
    "HbM7HbMHFM": 5200,
    "HBmHCo": 5201,
    "HdoHdoHdMHdM": 5202,
    "HeoHDD7": 5203,
    "HDmHbm": 5204,
    "HCM7HDMHGM": 5205,
    "HamHgMHamHgM": 5206,
    "HDm7HC+": 5207,
    "HAm7HEmHEm": 5208,
    "HaMHbM7": 5209,
    "HdmHAM7HdmHAM7": 5210,
    "HGsus2HDsus2": 5211,
    "He+HDo": 5212,
    "HAMHAMHED7": 5213,
    "HaoHDm7": 5214,
    "HNAHCM7": 5215,
    "HBoHe+": 5216,
    "HGMHdoHGMHdo": 5217,
    "HDMHDsus2HDsus2": 5218,
    "HFMHGMHEm": 5219,
    "HaoHdD7": 5220,
    "HgmHgm7HgmHgm7": 5221,
    "HFsus2HbMHFM": 5222,
    "He+HaM7": 5223,
    "HGMHem": 5224,
    "HFoHCM7": 5225,
    "HBMHBMHBmHBm": 5226,
    "HGoHgo": 5227,
    "HEMHEm7HEm7": 5228,
    "HemHdMHdM": 5229,
    "HFm7HGD7": 5230,
    "HFMHGMHGM": 5231,
    "HgMHBmHgM": 5232,
    "HCMHCMHDm7HDm7": 5233,
    "HAD7HAMHAD7HAM": 5234,
    "Ham7HNA": 5235,
    "HaMHeMHaMHCm": 5236,
    "HEMHA+": 5237,
    "HED7HEm7": 5238,
    "Ham7Hgsus2": 5239,
    "HAmHE+": 5240,
    "HNAHNAHAMHAM": 5241,
    "HAmHBMHEm": 5242,
    "HCMHGmHGM": 5243,
    "HCMHCMHbMHFM": 5244,
    "HGMHCMHbM": 5245,
    "HDMHdMHDMHdM": 5246,
    "HDsus4HDm": 5247,
    "HbMHbMHbmHbm": 5248,
    "HbM7HDsus2": 5249,
    "HDMHGmHGm7": 5250,
    "HbD7HDm": 5251,
    "HEoHem": 5252,
    "HDsus4HDsus4HDsus4HDsus4": 5253,
    "HbmHbMHbm": 5254,
    "HDMHDD7HDD7": 5255,
    "HbM7HCm7HbM7": 5256,
    "HBMHCMHCM": 5257,
    "HeoHdm7": 5258,
    "HbMHbMHbMHbMHbMHbMHbMHbMHbMHbM": 5259,
    "HeMHbMHCm7": 5260,
    "HbMHCMHbMHFM": 5261,
    "HGoHAo": 5262,
    "HDmHDMHDmHDMHDmHDMHDmHDM": 5263,
    "HCsus4HbM": 5264,
    "HGmHeMHEoHeM": 5265,
    "HGMHBm7HGMHBm7": 5266,
    "HFsus4HFMHFM": 5267,
    "HCMHEm7HEm7": 5268,
    "HbMHbMHCm": 5269,
    "HemHgsus2": 5270,
    "HAm7HBm": 5271,
    "HGD7HEo": 5272,
    "Hbsus2HC+": 5273,
    "HGm7HAo": 5274,
    "HDMHDMHDo": 5275,
    "HEMHEMHBD7HBD7": 5276,
    "HFmHaMHeM": 5277,
    "HeMHbMHCmHGm": 5278,
    "HCMHFMHCMHCMHCMHFM": 5279,
    "HDMHAMHAMHAMHAM": 5280,
    "HDMHDMHDMHDMHDMHDMHDMHDMHDMHDMHDM": 5281,
    "HGmHgo": 5282,
    "HCMHBoHBo": 5283,
    "HdMHgmHdMHgm": 5284,
    "HdmHBD7": 5285,
    "HEMHDsus2HEMHDsus2": 5286,
    "HCsus2HDsus2": 5287,
    "HCMHGMHCMHGD7": 5288,
    "HFMHFMHFmHFm": 5289,
    "HgmHgmHgm7": 5290,
    "HFMHCMHBo": 5291,
    "HGmHCm7HGmHCm7": 5292,
    "HdoHAMHAM": 5293,
    "HCMHBoHCMHBo": 5294,
    "HFMHG+": 5295,
    "HdmHEMHdm": 5296,
    "HEMHEMHAM7": 5297,
    "HeMHbMHD+": 5298,
    "HFm7HeMHeMHeM": 5299,
    "HeMHeMHDm": 5300,
    "HDMHDMHDMHDMHDMHDm": 5301,
    "HdoHGm": 5302,
    "HCMHNAHGMHNA": 5303,
    "HFmHdMHaM": 5304,
    "Hdm7HDM7": 5305,
    "HdoHgD7": 5306,
    "HD+HD+HbM": 5307,
    "HB+HB+HB+": 5308,
    "HFD7HCm7": 5309,
    "HeD7HB+": 5310,
    "HCM7HCMHCMHCMHCM": 5311,
    "HAm7HAm7HEm7": 5312,
    "HAmHAmHAsus2": 5313,
    "HAD7HAm7": 5314,
    "HCMHDMHEmHEm": 5315,
    "HeM7HD+": 5316,
    "HBm7HD+": 5317,
    "HCMHCmHCmHCmHCm": 5318,
    "HFMHDsus2": 5319,
    "HBm7HCM7HDMHGMHBm7HCM7HDMHGMHBm7HCM7HDMHGMHBm7HCM7HDMHGM": 5320,
    "HFoHGm7": 5321,
    "HdMHF+": 5322,
    "HemHbMHem": 5323,
    "HBMHNAHBM": 5324,
    "HCMHCMHFMHbM": 5325,
    "HAmHGsus4": 5326,
    "Hbsus4HeMHeM": 5327,
    "HCD7HFMHFM7": 5328,
    "HbM7HFMHFMHFM": 5329,
    "HdmHAMHEM": 5330,
    "HbM7HDm7HDm7": 5331,
    "HdM7HFmHFm": 5332,
    "Hb+HCm7": 5333,
    "HAmHAmHEMHEM": 5334,
    "HDD7HDD7HGmHGm": 5335,
    "HDoHGsus4": 5336,
    "HDMHbMHbM": 5337,
    "HNAHNAHEm": 5338,
    "HFMHFmHFM": 5339,
    "HAmHDMHAm": 5340,
    "HGmHGmHDm": 5341,
    "HdoHd+": 5342,
    "HdMHCo": 5343,
    "HeoHam": 5344,
    "HDM7HDMHGM7": 5345,
    "HD+HgM": 5346,
    "HaM7Ham": 5347,
    "HbM7HbM7HFMHFM": 5348,
    "HFm7HFmHFm": 5349,
    "HgmHA+": 5350,
    "HDM7HDM7HAM": 5351,
    "HFMHFMHCD7": 5352,
    "HGMHGMHGMHGMHCMHCM": 5353,
    "HCMHCM7HCMHCM": 5354,
    "HGM7HEsus2": 5355,
    "HEMHdMHdM": 5356,
    "HGmHAMHDm": 5357,
    "HC+Ham": 5358,
    "HFMHbMHGmHeM": 5359,
    "HGMHFMHCMHCM": 5360,
    "HbmHbmHbmHbmHbmHbm": 5361,
    "HeMHaMHbM": 5362,
    "HNAHNAHGMHGM": 5363,
    "HbMHbMHbm7": 5364,
    "HBmHGMHAMHDM": 5365,
    "HED7HFM7": 5366,
    "HGsus4HDm7": 5367,
    "HBm7HEmHEm": 5368,
    "HCoHEm": 5369,
    "HEMHEMHEMHEMHEMHAM": 5370,
    "HGMHAmHEm": 5371,
    "HCm7HCm7HCm7HCm7HCm7HCm7HCm7HCm7HCm7HCm7HCm7HCm7HCm7HCm7HCm7HCm7": 5372,
    "HAsus2HEMHEM": 5373,
    "HEm7HA+": 5374,
    "HAMHFMHCM": 5375,
    "HbMHeMHbMHeMHbMHeMHbMHeM": 5376,
    "HCMHBMHEM": 5377,
    "HeD7HFm7": 5378,
    "HDMHDMHD+HCsus2": 5379,
    "HCmHGm7HCmHGm7": 5380,
    "HDM7HGM7HDM7HGM7": 5381,
    "HdM7HdM7HdM7HdM7HdM7HdM7HdM7HdM7": 5382,
    "HAm7HDm7HAm7HDm7": 5383,
    "HCMHDmHDm7": 5384,
    "HFmHFm7HFm7": 5385,
    "HCsus4HDm7": 5386,
    "HaMHbMHeMHeM": 5387,
    "HBoHdo": 5388,
    "HGMHGMHGMHGMHGMHGMHGMHGMHGMHGMHGM": 5389,
    "HeM7HCsus2": 5390,
    "HCM7HCM7HCMHCM": 5391,
    "HdmHBsus2": 5392,
    "HFm7HFmHFm7": 5393,
    "HAmHFM7HCMHGM": 5394,
    "HGoHam": 5395,
    "HEoHEmHEm": 5396,
    "HBsus4HEm": 5397,
    "HAMHEmHAM": 5398,
    "HeMHeMHeMHeMHeMHeMHeMHeMHeMHeM": 5399,
    "HEMHdMHEMHdM": 5400,
    "Ha+HdM": 5401,
    "HEoHAMHDm": 5402,
    "HgoHEmHgoHEm": 5403,
    "HBmHBMHBm": 5404,
    "HAo7HAo7": 5405,
    "HGM7HCMHGM": 5406,
    "HdM7HCM": 5407,
    "HamHamHamHamHamHam": 5408,
    "HEoHDmHEo": 5409,
    "HGmHgm": 5410,
    "HG+HEo": 5411,
    "HD+HFm": 5412,
    "HgD7Hbo": 5413,
    "HGMHCmHCmHCm": 5414,
    "HeM7HbD7": 5415,
    "HdmHdMHdM": 5416,
    "HAD7HF+": 5417,
    "HgmHgmHEMHEM": 5418,
    "HBmHBmHBmHBmHBm": 5419,
    "HdmHdmHdM": 5420,
    "HAmHGMHFMHEm": 5421,
    "HGoHAm7": 5422,
    "HEMHAM7HAM7": 5423,
    "HFD7HCm": 5424,
    "HCMHCmHaM": 5425,
    "HFMHGMHNA": 5426,
    "HAoHeMHFMHbM": 5427,
    "HeM7HFM7": 5428,
    "HFmHFmHC+": 5429,
    "HeMHeMHeMHbMHeMHeMHeM": 5430,
    "HbmHbmHbmHbmHbm": 5431,
    "HAsus2Hgo": 5432,
    "HdmHdmHBM": 5433,
    "HGm7HCMHFMHFM": 5434,
    "HFD7HbmHbm": 5435,
    "HCD7Hd+": 5436,
    "HEMHbm": 5437,
    "HAmHFMHAM": 5438,
    "HBmHBmHEm": 5439,
    "HDmHDmHBo": 5440,
    "Hesus2HbMHDm": 5441,
    "Hesus2Hdsus2": 5442,
    "HAmHGMHFMHGM": 5443,
    "HFm7HCM": 5444,
    "HFD7Heo": 5445,
    "HFm7HFMHFm7HFM": 5446,
    "HeMHeMHdM": 5447,
    "HAm7HCMHCM": 5448,
    "HCMHgm7": 5449,
    "HGMHGMHEMHEM": 5450,
    "HbMHbMHEo": 5451,
    "HgMHe+": 5452,
    "HBMHBMHEM": 5453,
    "HgMHdsus4": 5454,
    "HDMHGMHDMHAM": 5455,
    "Hgsus2HEsus2": 5456,
    "HGm7HCmHCm": 5457,
    "Hesus2HD+": 5458,
    "HFoHEo": 5459,
    "HNAHEm7": 5460,
    "HCMHCMHCMHbM": 5461,
    "HGm7HG+": 5462,
    "HGmHDmHAD7HDm": 5463,
    "HGM7HAM7": 5464,
    "HeMHeMHCm": 5465,
    "HbM7HbMHbMHbM": 5466,
    "HamHdMHamHdM": 5467,
    "HaoHC+": 5468,
    "HNAHCsus2": 5469,
    "HCmHFmHCm": 5470,
    "HDM7Hgm7HDM7Hgm7": 5471,
    "HaMHeMHaMHaM": 5472,
    "HCM7HCMHGM": 5473,
    "HE+Hgo": 5474,
    "HaMHaM7HaMHaM7": 5475,
    "HCMHDD7HGM": 5476,
    "HEMHEMHEMHEm7": 5477,
    "HEmHEmHEmHEmHEmHEmHEmHEmHEmHEmHEmHEmHEmHEmHEmHEm": 5478,
    "HgoHDD7HGm": 5479,
    "HDMHDMHDMHDMHDMHGmHGmHGm": 5480,
    "HFD7HbMHbMHbM": 5481,
    "Hem7HFM": 5482,
    "HGMHGMHCMHFM": 5483,
    "HEmHGD7": 5484,
    "HGmHFo": 5485,
    "HbMHCMHDm7": 5486,
    "HCMHeMHFM": 5487,
    "HFmHaMHeMHbM": 5488,
    "HCm7Hasus2": 5489,
    "HCmHaMHCmHaMHCmHaM": 5490,
    "HeD7HEo": 5491,
    "HCm7HaM7HCm7HaM7": 5492,
    "HBsus2HBsus2HBsus2": 5493,
    "HDm7HGD7HDm7HGD7": 5494,
    "HEmHbM": 5495,
    "HeMHaM7": 5496,
    "HDD7HCm7": 5497,
    "HAmHEmHGMHDMHAmHCM7HGMHDM": 5498,
    "HCoHgm": 5499,
    "HEMHBMHdm7": 5500,
    "HaMHDm7": 5501,
    "Hesus2He+": 5502,
    "HgoHeM": 5503,
    "HAm7HDMHAm7": 5504,
    "HdmHgmHdm": 5505,
    "HgoHEo": 5506,
    "HG+HG+HG+": 5507,
    "HgMHEo": 5508,
    "HFoHBM7": 5509,
    "HDMHDMHgo": 5510,
    "HGMHBMHEm": 5511,
    "HaMHaMHeMHeMHaMHaM": 5512,
    "HGsus2HCm7": 5513,
    "HAoHGmHAo": 5514,
    "HFMHGMHFMHGMHFMHGM": 5515,
    "HCmHbMHAo": 5516,
    "HbmHdsus2": 5517,
    "HAmHbMHCMHDm": 5518,
    "HBmHAMHDMHAM": 5519,
    "HGM7He+": 5520,
    "HFMHCMHAM": 5521,
    "HFoHFm7": 5522,
    "HEM7Hgm": 5523,
    "HC+Hdm": 5524,
    "HCMHCMHCMHCMHCMHCMHCMHCMHCMHCMHCMHCMHCMHCM": 5525,
    "HBmHBmHgm": 5526,
    "HFmHgo": 5527,
    "HFMHNAHFMHFM": 5528,
    "HbmHgM7HbmHgM7": 5529,
    "HCMHGMHDMHEmHCMHGM": 5530,
    "HFmHaMHdM": 5531,
    "HFmHCsus4": 5532,
    "HGsus2HGMHGsus2": 5533,
    "HCD7HCD7HCD7HCD7HFM": 5534,
    "HDD7HGmHbMHbM": 5535,
    "HbM7HGm7HbM7": 5536,
    "HCMHGMHDm": 5537,
    "HdD7Hem7": 5538,
    "HGMHaMHeM": 5539,
    "HEMHdsus2": 5540,
    "HbmHC+": 5541,
    "Hem7HFm7": 5542,
    "HCMHGMHCsus2": 5543,
    "HFsus2HCMHGM": 5544,
    "Hbsus2HbMHbM": 5545,
    "HEoHDsus2": 5546,
    "HEm7HAo": 5547,
    "HCMHaMHeM": 5548,
    "HaMHbm7HaMHbm7": 5549,
    "HBMHBMHBMHBMHBMHBMHBM": 5550,
    "Hgm7Heo": 5551,
    "HaM7HaMHeM": 5552,
    "HFMHCMHGm": 5553,
    "HEmHEmHEm7HAM": 5554,
    "HGM7HBo": 5555,
    "HAMHGM7": 5556,
    "HFMHFMHFMHFMHFMHFMHFMHFMHFMHFMHFM": 5557,
    "HgD7HBM7": 5558,
    "HaoHBm7": 5559,
    "Hbsus2HeM7": 5560,
    "HAMHDMHBM": 5561,
    "HCMHCMHCMHGm7": 5562,
    "HboHdm": 5563,
    "HAmHCMHDM": 5564,
    "HGMHbMHeM": 5565,
    "HCmHCMHFm": 5566,
    "HDMHGMHCMHCM": 5567,
    "HaD7HgM7": 5568,
    "HCmHCm7HFM": 5569,
    "HGmHGm7HeM7": 5570,
    "HAsus2HEsus2": 5571,
    "HBsus2Hgm7": 5572,
    "HbmHdo": 5573,
    "HDm7HGsus2": 5574,
    "HaMHbMHdM": 5575,
    "HbMHD+HeM": 5576,
    "HCMHeMHbM": 5577,
    "HNAHNAHNAHNAHNAHNAHNAHNAHNAHNAHNAHNAHNA": 5578,
    "HDMHCMHAM": 5579,
    "Hbsus2HFMHCM": 5580,
    "HFmHgMHdM": 5581,
    "HFsus2HGMHFsus2": 5582,
    "HdoHGsus2": 5583,
    "HDoHED7": 5584,
    "HCsus4HCsus2": 5585,
    "HDMHbo": 5586,
    "HAmHgm7": 5587,
    "HGMHEmHCMHAm": 5588,
    "HamHEMHam": 5589,
    "HEm7HAsus4": 5590,
    "HC/o7HC/o7": 5591,
    "HDsus2HAMHDsus2": 5592,
    "HCoHaD7": 5593,
    "HE+Hdm": 5594,
    "HAMHDMHDMHDM": 5595,
    "HDM7HDMHDMHDMHDM": 5596,
    "HBmHBMHBmHBm": 5597,
    "HgmHDMHgm": 5598,
    "HbD7HFm7": 5599,
    "HGMHGMHD+": 5600,
    "Hbsus2HDm": 5601,
    "HbMHbMHeMHFoHCm": 5602,
    "HGsus4HGMHCM": 5603,
    "HF+HeM": 5604,
    "HA+HDo": 5605,
    "HEsus2HFM": 5606,
    "HDMHCMHEm": 5607,
    "HbMHeMHbMHCm": 5608,
    "HaMHFMHbMHFMHFM": 5609,
    "HAmHGMHCMHFM": 5610,
    "HGmHeo": 5611,
    "HGmHeM7HbMHFM": 5612,
    "HCD7HFmHCD7HFmHFmHCmHCmHCmHCmHGD7HBoHGD7HGD7": 5613,
    "HEmHBD7": 5614,
    "HDMHDMHDm7HDm7": 5615,
    "HEMHCm": 5616,
    "HDMHGm7HDMHGm7": 5617,
    "HGM7HBm7HGM7": 5618,
    "HCD7HCD7HFMHFMHCD7HCD7HFMHFM": 5619,
    "HemHdMHemHdM": 5620,
    "HeD7HeM7": 5621,
    "HCmHCmHeMHFM": 5622,
    "HeM7HeMHeMHeM": 5623,
    "HFmHdm": 5624,
    "HCmHbsus4": 5625,
    "HbmHFMHFM": 5626,
    "HbMHeMHFMHeM": 5627,
    "HGmHGMHeM7": 5628,
    "Hesus2HCo": 5629,
    "HCmHCmHFmHFm": 5630,
    "HCM7HDm7HCM7": 5631,
    "HDmHBM": 5632,
    "HDMHCmHCm": 5633,
    "Hd+HDo": 5634,
    "He+HeMHe+HeM": 5635,
    "Ham7HBMHBM": 5636,
    "HFM7HDsus2": 5637,
    "HDMHDmHDmHDmHDm": 5638,
    "HDsus2HDMHDsus2": 5639,
    "HEmHEmHBmHBm": 5640,
    "HaMHNAHNAHNA": 5641,
    "HCmHbMHaM7": 5642,
    "HCmHAM": 5643,
    "HGD7HE/o7": 5644,
    "HEMHD+": 5645,
    "HGmHNAHNA": 5646,
    "HBoHCMHCM": 5647,
    "Hdsus2Hdsus2Hdsus2": 5648,
    "HgM7HgM7HgM7HgM7HgM7HgM7HgM7HgM7": 5649,
    "Hbm7HFmHFm": 5650,
    "HCmHCmHCmHGm": 5651,
    "HBmHGMHGMHGM": 5652,
    "HAD7HGsus2": 5653,
    "Hem7Ham": 5654,
    "HBMHgsus4": 5655,
    "HEMHgm7HEMHgm7": 5656,
    "HC+HEm": 5657,
    "HGm7HGMHGm7": 5658,
    "HCm7HCm7HaMHaM": 5659,
    "HGM7HbM7": 5660,
    "HbMHCMHNA": 5661,
    "HBM7HdM7": 5662,
    "Hbsus2HGo": 5663,
    "HCmHaMHFm": 5664,
    "HFoHDm7": 5665,
    "HdMHdMHFMHFM": 5666,
    "HCMHNAHCMHNAHCMHNA": 5667,
    "HNAHNAHgM": 5668,
    "Hesus2HCm": 5669,
    "HED7HED7HAMHAM": 5670,
    "HGMHAMHBmHAM": 5671,
    "HCMHb+": 5672,
    "HAM7Hao": 5673,
    "HEMHDoHAoHeMHFMHbM": 5674,
    "HFm7Ha+": 5675,
    "HGmHeD7": 5676,
    "HEM7HeM7": 5677,
    "HEMHAmHAmHAmHAm": 5678,
    "HFsus2HCMHCM": 5679,
    "HAMHDmHFM": 5680,
    "HAm7Hgm7": 5681,
    "HBMHao": 5682,
    "Hbm7HCD7": 5683,
    "HF+HFMHFM": 5684,
    "HAm7HFMHAm7HFM": 5685,
    "HbM7HFMHCM": 5686,
    "HFsus2HeMHeM": 5687,
    "HCMHAMHNA": 5688,
    "HAMHAsus4": 5689,
    "HeoHaM": 5690,
    "HFoHDm": 5691,
    "HdMHdMHFM": 5692,
    "Hdm7Hao": 5693,
    "HF+HNA": 5694,
    "HAmHCMHCMHCMHCM": 5695,
    "HgMHDMHDM": 5696,
    "HCMHBMHCMHBM": 5697,
    "HFmHCm7HFmHCm7": 5698,
    "HdMHdMHdMHgM": 5699,
    "HDsus2HFsus2HDsus2HFsus2": 5700,
    "HFM7HFM7HFM7HFM": 5701,
    "HCsus4HCm7": 5702,
    "HCmHFMHCM": 5703,
    "HEMHEMHEMHdm7": 5704,
    "HFMHFMHEo": 5705,
    "HFoHbm": 5706,
    "HbMHbMHNAHNA": 5707,
    "HEMHdmHEMHdmHEMHdmHEMHdm": 5708,
    "HFMHFM7HDm7": 5709,
    "Hem7HbM": 5710,
    "HFM7HCMHGM": 5711,
    "HFMHDmHGm7": 5712,
    "He+HFM": 5713,
    "HdoHgo": 5714,
    "HDMHNAHDMHNAHDMHNAHDMHNA": 5715,
    "HFD7HFMHFM": 5716,
    "HBoHBm7": 5717,
    "HNAHNAHNAHNAHNAHNAHNAHNAHNAHNAHNAHNAHNAHNAHNAHNAHNAHNAHNAHNA": 5718,
    "HGm7HGMHGm": 5719,
    "HBMHD+": 5720,
    "HdD7HgmHgm": 5721,
    "HAM7HED7": 5722,
    "HCmHGmHaM": 5723,
    "HCMHDm7HCMHFM": 5724,
    "HDMHCMHNA": 5725,
    "HGoHbo": 5726,
    "HGmHGm7HGmHGm": 5727,
    "HDMHdMHdM": 5728,
    "HAmHGMHDm7": 5729,
    "HDMHDMHGMHDMHGM": 5730,
    "HCsus2HbM7": 5731,
    "HeM7HeMHbM": 5732,
    "HGMHgmHBM": 5733,
    "HGM7HDm7": 5734,
    "HaD7HeM": 5735,
    "HAmHDMHGMHGM": 5736,
    "HdoHD+": 5737,
    "HCsus2HGsus4": 5738,
    "HCMHAmHEm": 5739,
    "HCMHEM7": 5740,
    "HAmHA+": 5741,
    "HCMHDMHDMHDMHDM": 5742,
    "HeMHeMHe+": 5743,
    "HFsus2HaM7": 5744,
    "HDD7Hgm": 5745,
    "HCMHCMHCMHGMHGM": 5746,
    "HCMHGMHGMHCMHCMHGMHGM": 5747,
    "HDM7HBmHGM7": 5748,
    "HDM7HgmHDM7": 5749,
    "HGmHbo": 5750,
    "HBMHBm7HBMHBm7": 5751,
    "HAD7HDmHDmHDm": 5752,
    "HDD7HGmHbMHbMHeM7": 5753,
    "HDD7HGmHbMHbMHeM7HDMHbM": 5754,
    "HDD7HGmHbMHbMHeM7HDMHbMHeM7HDMHGm": 5755,
    "HGsus2HGmHGsus2": 5756,
    "HbMHeMHeMHeM": 5757,
    "HAm7HAMHAm7": 5758,
    "HAoHDMHGM": 5759,
    "HAMHDmHDmHDmHDm": 5760,
    "HCoHgM7": 5761,
    "HGMHCmHGMHCmHGMHCm": 5762,
    "HFM7HFm": 5763,
    "HEmHFm": 5764,
    "HDmHDmHGmHDm": 5765,
    "HemHemHBM7": 5766,
    "HDMHAMHBm": 5767,
    "HNAHFm": 5768,
    "HDmHEm7HDmHEm7": 5769,
    "HGsus2HAsus2": 5770,
    "HaMHFmHaM": 5771,
    "HDMHDMHGMHGMHDMHDMHGMHGM": 5772,
    "Hgm7Hgo": 5773,
    "HeMHFMHGMHGM": 5774,
    "HCMHCMHFMHDm7": 5775,
    "HFsus2HCMHFM": 5776,
    "HCMHFM7HDm7": 5777,
    "HEoHa+": 5778,
    "HFmHCMHCMHCM": 5779,
    "Hdm7HBsus2": 5780,
    "HCM7HCM7HFM7HFM7": 5781,
    "HAMHGD7": 5782,
    "HCMHGmHFM": 5783,
    "HBMHBMHdM": 5784,
    "HBMHdD7": 5785,
    "HBMHdsus2": 5786,
    "HBMHEmHAM": 5787,
    "HBmHBmHGMHAM": 5788,
    "HGD7HCsus2": 5789,
    "HDmHDmHbmHbm": 5790,
    "HaMHaMHbm": 5791,
    "HCmHCm7HaM7": 5792,
    "Hesus2HeMHesus2": 5793,
    "HCmHCmHCmHbM": 5794,
    "HAMHAMHAMHgm": 5795,
    "HAMHDMHBm": 5796,
    "HeMHDo": 5797,
    "HDoHEm7": 5798,
    "HAmHFMHCMHFM": 5799,
    "HGoHem7": 5800,
    "HbMHbMHesus2": 5801,
    "HDMHBmHEMHgm": 5802,
    "HDmHDM7": 5803,
    "HGMHaMHaM": 5804,
    "HaMHbsus4": 5805,
    "HAMHAMHbMHbM": 5806,
    "HCMHGMHCMHDm": 5807,
    "HEm7HAmHEm7": 5808,
    "HDM7HBM": 5809,
    "Hdm7HgD7": 5810,
    "HBmHBmHAM": 5811,
    "HCMHCMHGMHDM": 5812,
    "HFM7HAo": 5813,
    "HFMHCMHGMHGM": 5814,
    "HAsus2HDsus2": 5815,
    "HG+HEmHEm": 5816,
    "HBmHGM7HDMHAM": 5817,
    "HGm7HDsus2": 5818,
    "HFMHFMHFMHCMHFMHFMHFMHCM": 5819,
    "HAMHDMHGM7": 5820,
    "HFMHCMHFMHFMHFM": 5821,
    "HGMHdM7": 5822,
    "Hasus2Hasus2Hasus2": 5823,
    "HAm7HAm7HFMHFM": 5824,
    "HGmHFMHeMHDm": 5825,
    "HAmHGo": 5826,
    "HdmHBMHAM": 5827,
    "HeMHaMHeMHeMHeM": 5828,
    "HaMHaMHdsus2": 5829,
    "HCsus2HFMHFM": 5830,
    "HGMHbMHbM": 5831,
    "HAoHGmHAoHGmHD+HeD7HDMHDMHDMHDMHDMHGmHGmHGm": 5832,
    "HCMHGMHGMHEm": 5833,
    "HFoHasus2": 5834,
    "HbD7HGm": 5835,
    "HboHeo": 5836,
    "HGMHGmHeM": 5837,
    "HGm7HCo": 5838,
    "HGm7HGm7HGm7HGm7HGm7HGm7": 5839,
    "HDMHNAHDMHDM": 5840,
    "HbMHGmHDm": 5841,
    "HgMHgMHFMHFM": 5842,
    "HNAHDMHGM": 5843,
    "HAmHAmHFMHDm7": 5844,
    "HgMHgMHamHam": 5845,
    "HgMHbMHgM": 5846,
    "HBMHAm": 5847,
    "HBMHgMHam7": 5848,
    "HBmHNAHNA": 5849,
    "HGmHGmHeM7HFM": 5850,
    "HGm7HAD7": 5851,
    "HgmHgmHgmHgm7": 5852,
    "HGMHGMHGMHGMHNA": 5853,
    "Hdm7HAMHdm7HAMHdm7HAMHdm7HAM": 5854,
    "HCMHAm7HDmHGm7": 5855,
    "HAMHGMHDM": 5856,
    "HdoHBmHBm": 5857,
    "HEm7HEm7HCM7": 5858,
    "HGmHDMHGM": 5859,
    "HCMHGD7HCMHCMHCMHCM": 5860,
    "HCMHCMHCMHCMHCMHAm": 5861,
    "HCMHCMHFM7HFM": 5862,
    "HaoHAo": 5863,
    "HNAHNAHFMHFM": 5864,
    "HGsus2HCsus2": 5865,
    "HCMHAm7HDm7": 5866,
    "HCMHDMHEMHEM": 5867,
    "HEMHEMHEMHAm": 5868,
    "HBMHCMHGM": 5869,
    "HCMHAsus4": 5870,
    "HEoHDmHDmHDm": 5871,
    "HdMHdMHgM7": 5872,
    "HDD7HAm": 5873,
    "HEmHCMHAD7": 5874,
    "HEoHCm": 5875,
    "HbMHbMHAo": 5876,
    "HeoHDM": 5877,
    "HGMHED7": 5878,
    "HeMHFMHeMHFMHeMHFM": 5879,
    "HCm7HbMHCm7HbM": 5880,
    "HFsus2HCsus4": 5881,
    "HaM7HFD7": 5882,
    "HGmHFD7": 5883,
    "HGsus2HG+": 5884,
    "HAMHbo": 5885,
    "HDMHGMHCMHAm": 5886,
    "Hb+Hb+Hb+": 5887,
    "HCmHGMHao": 5888,
    "HDoHCMHCM": 5889,
    "HdoHeo": 5890,
    "HBMHAM7": 5891,
    "HamHAm": 5892,
    "HCMHNAHFMHNA": 5893,
    "HBm7HEMHAM": 5894,
    "HaMHaMHgM": 5895,
    "HCM7HFsus2": 5896,
    "Hb+HbM7": 5897,
    "HgoHGm7": 5898,
    "HGsus2HeM7": 5899,
    "HEMHDMHNA": 5900,
    "He+Hdm": 5901,
    "HFoHao": 5902,
    "HGM7HGMHGMHGM": 5903,
    "HeMHaMHeM": 5904,
    "HC+HCMHFM": 5905,
    "HAMHam7": 5906,
    "HFmHbMHFm": 5907,
    "HaoHDm": 5908,
    "HD+Hbo": 5909,
    "HD+HFM7": 5910,
    "HCM7HeM": 5911,
    "HbMHbMHFMHFMHbMHbMHFMHFM": 5912,
    "HCD7HCo": 5913,
    "HDmHeoHbMHbMHeMHFoHCm": 5914,
    "HFsus2HCm7": 5915,
    "HFMHDmHbMHGm": 5916,
    "HgoHb+": 5917,
    "HEoHeM7": 5918,
    "HbD7HbMHeM": 5919,
    "HEm7HE+": 5920,
    "HBM7Hg+": 5921,
    "HCMHCMHCsus4": 5922,
    "HAD7HDM7HDM7": 5923,
    "HCMHCMHGsus4": 5924,
    "HGMHGMHGM7HGM7": 5925,
    "HEmHCm": 5926,
    "HBoHAmHAm": 5927,
    "HgMHgmHgM": 5928,
    "HDMHgMHDMHgM": 5929,
    "HAoHe+": 5930,
    "HbMHbMHCmHCm": 5931,
    "HBmHEmHBm": 5932,
    "HCMHEoHFM": 5933,
    "HDMHDMHDMHDMHDMHDMHDsus2": 5934,
    "HdMHdMHemHem": 5935,
    "HGmHGmHGmHFM": 5936,
    "HEMHEMHEMHdm": 5937,
    "HCMHGMHCMHCMHCM": 5938,
    "HCMHDmHEm": 5939,
    "HGMHCmHbMHaM": 5940,
    "HaMHbMHCmHCm": 5941,
    "HbMHCMHDmHDmHbM": 5942,
    "HDm7HCm": 5943,
    "HbMHDmHDm": 5944,
    "HdM7HeM7": 5945,
    "HbmHbm7HbmHbm7": 5946,
    "HGMHBmHAM": 5947,
    "HBm7HEm7HBm7HEm7": 5948,
    "HEm7HNAHNA": 5949,
    "HAmHFM7HAm7": 5950,
    "HAoHDMHDM": 5951,
    "HdMHasus2": 5952,
    "HeMHCmHeM": 5953,
    "HEM7HEMHEM7": 5954,
    "HCmHCmHeM7": 5955,
    "HF+HbM7": 5956,
    "HbmHbmHgM7": 5957,
    "HAmHGD7HAmHBo": 5958,
    "HEMHAMHEMHEM": 5959,
    "HBmHBmHgmHgm": 5960,
    "Hbm7Hbm7Hbm7Hbm7Hbm7Hbm7Hbm7Hbm7": 5961,
    "HCD7HCMHFM": 5962,
    "HbMHFMHbM7": 5963,
    "HC+HEM": 5964,
    "HDMHBMHEM": 5965,
    "HGMHNAHGMHGM": 5966,
    "HDmHBoHBo": 5967,
    "HCM7HDM7": 5968,
    "HEmHEmHEmHAm7": 5969,
    "HAmHEsus2": 5970,
    "HFmHFmHCm": 5971,
    "HAM7HBMHdm7": 5972,
    "HCmHGMHCmHGMHCmHaD7": 5973,
    "HGD7HC+": 5974,
    "HAMHBMHBM": 5975,
    "HEMHaMHEMHaM": 5976,
    "HEoHAsus2": 5977,
    "HNAHNAHeMHeM": 5978,
    "HEM7HBD7": 5979,
    "HCMHCMHGD7HGD7": 5980,
    "HGm7Hdo": 5981,
    "HDMHGMHEM": 5982,
    "HCoHem7": 5983,
    "HbM7HbMHbMHeM": 5984,
    "HDoHGo": 5985,
    "HGMHCmHeM": 5986,
    "HDMHBMHGMHGM": 5987,
    "HbMHgM7": 5988,
    "HDMHGMHDMHGMHGM": 5989,
    "He+HeMHeM": 5990,
    "HbmHFMHbmHFMHNA": 5991,
    "HDmHeoHbMHbMHeMHFoHCmHbM7HDm": 5992,
    "HdoHDD7": 5993,
    "HBm7HGMHDM": 5994,
    "HDMHDMHDMHDMHDmHDM": 5995,
    "HFMHDmHFMHFM": 5996,
    "HFD7HbMHGm": 5997,
    "HGsus2Hgo": 5998,
    "HGMHFMHGD7": 5999,
    "HeM7HeM7HCm7": 6000,
    "HGMHGM7HAm7": 6001,
    "Hd+HA+": 6002,
    "HGoHdM7": 6003,
    "HAD7HdoHdo": 6004,
    "HCMHbM7HFMHDm": 6005,
    "HDmHDmHdm": 6006,
    "HemHeMHBD7He+": 6007,
    "HEsus4HEm": 6008,
    "Hg+HeM": 6009,
    "HEMHBMHEMHBMHEMHBM": 6010,
    "HaoHCm": 6011,
    "HE/o7HE/o7": 6012,
    "HFoHCm7": 6013,
    "HCM7HEm7HCM7": 6014,
    "HEMHdoHEMHdo": 6015,
    "HCo7HCo7": 6016,
    "HEmHAmHFMHGM": 6017,
    "HDsus2HEsus2": 6018,
    "HDmHDmHDmHDmHDmHDm7": 6019,
    "HBMHBMHgMHgM": 6020,
    "HCD7Hbsus2": 6021,
    "Hem7HeD7": 6022,
    "HEoHFMHDm": 6023,
    "HbD7HFo": 6024,
    "HFsus2HCM": 6025,
    "HFMHGMHeM": 6026,
    "HAMHEsus4": 6027,
    "HDMHDMHDMHGm": 6028,
    "HCMHbMHCMHFM": 6029,
    "HBmHAo": 6030,
    "HEmHEmHCM": 6031,
    "HaMHdmHaM": 6032,
    "HFmHdsus2": 6033,
    "HGD7HCmHFm": 6034,
    "HFmHFmHdMHeM": 6035,
    "HNAHAsus2": 6036,
    "HGMHCmHaM": 6037,
    "HD+HeMHbMHeM": 6038,
    "HaMHCMHFM": 6039,
    "He+HD+": 6040,
    "HCM7HEMHCM7": 6041,
    "HCm7HFMHFMHFM": 6042,
    "HFMHFMHFMHbMHFMHFM": 6043,
    "Hg+HFM": 6044,
    "Hgsus2Hgsus2Hgsus2": 6045,
    "HamHamHBMHBM": 6046,
    "HCMHCMHBMHBM": 6047,
    "HBsus4HEM": 6048,
    "HFoHFM7": 6049,
    "HGMHb+": 6050,
    "HdD7HNA": 6051,
    "HBMHDMHBM": 6052,
    "HdM7HaMHaM": 6053,
    "HBmHGM7HGM7": 6054,
    "HEMHB+": 6055,
    "HdmHdmHgm7": 6056,
    "HEm7HEm7HAmHAm": 6057,
    "HamHdsus2": 6058,
    "HEoHBM": 6059,
    "HEMHdm7HEMHdm7": 6060,
    "HBm7HDMHDM7": 6061,
    "HdmHeD7": 6062,
    "HFmHD+": 6063,
    "HdmHDM7": 6064,
    "Hdm7Hdo": 6065,
    "HAsus2HDM": 6066,
    "HdoHDsus2": 6067,
    "HAM7HdM": 6068,
    "HaMHCMHaM": 6069,
    "HbMHEM": 6070,
    "HCMHDoHCMHDo": 6071,
    "HGMHFMHNA": 6072,
    "HF+HA+": 6073,
    "HboHBo": 6074,
    "HAmHDMHEm": 6075,
    "HAD7HAD7HDMHDM": 6076,
    "HCoHCmHCm": 6077,
    "HAMHAMHDMHDm": 6078,
    "HaMHNAHaM": 6079,
    "HAsus2HGM7": 6080,
    "HDM7HBm7HDM7HDM7": 6081,
    "HDD7HGMHEm7": 6082,
    "HbMHFMHeMHbMHCmHbM": 6083,
    "HbMHFMHeMHbMHCmHbMHCD7HCD7HCD7HCD7HFM": 6084,
    "HbMHFMHeMHbMHCmHbMHCD7HCD7HCD7HCD7HFMHbmHFMHbmHFMHNA": 6085,
    "HeD7HeD7HeD7HeD7HeD7": 6086,
    "HbMHD+HbM": 6087,
    "HdMHam7": 6088,
    "HboHa+": 6089,
    "HCMHGMHFMHFM": 6090,
    "HGm7HbMHbM": 6091,
    "Hbsus2HD+": 6092,
    "HBm7HAo": 6093,
    "HeMHeMHeMHem": 6094,
    "HBMHGD7": 6095,
    "HGD7HCMHCMHCM": 6096,
    "HDoHbm7": 6097,
    "Hgm7HED7": 6098,
    "HEoHDM7": 6099,
    "HCMHgM7": 6100,
    "HFm7HCmHFm7": 6101,
    "HgM7Hgm": 6102,
    "HgMHeMHeM": 6103,
    "HgoHGo": 6104,
    "HFMHNAHbMHNA": 6105,
    "HAmHGmHFM": 6106,
    "HGMHbMHCM": 6107,
    "Hd+HAMHDM": 6108,
    "HDMHDMHGm7": 6109,
    "HAm7HFM7HAm7": 6110,
    "HeM7HCm7HeM7": 6111,
    "HGmHCmHCo": 6112,
    "HEMHgmHgm": 6113,
    "HdmHgm7HdmHgm7": 6114,
    "HboHCo": 6115,
    "HdMHFMHFM": 6116,
    "HAmHAMHDm": 6117,
    "HbMHAMHbM": 6118,
    "HDsus4HNA": 6119,
    "Hesus2HGm7": 6120,
    "HAmHFMHNA": 6121,
    "HEm7HGMHDM": 6122,
    "HCMHEMHNA": 6123,
    "HGmHGmHGmHGmHGmHGmHGmHGmHGmHGmHGmHGmHGmHGmHGmHGm": 6124,
    "HCMHbMHFMHFM": 6125,
    "HEMHEMHE+": 6126,
    "HAmHCMHCM7": 6127,
    "HBmHDMHGM7": 6128,
    "HCsus2Hesus2": 6129,
    "HGMHgoHGMHgo": 6130,
    "Hb+HAo": 6131,
    "HaMHFD7": 6132,
    "HbD7HeMHbD7": 6133,
    "HGMHg+": 6134,
    "HEmHAMHEm": 6135,
    "HCm7HCMHCM": 6136,
    "HGm7HFMHFMHFM": 6137,
    "HFmHFmHFmHdM7": 6138,
    "HNAHNAHNAHAM": 6139,
    "HGMHGMHCMHAm": 6140,
    "HAoHGMHGM": 6141,
    "HDMHAMHGsus2": 6142,
    "HDsus4HGM": 6143,
    "HCMHCMHCMHCMHCMHGM": 6144,
    "HGm7HGm7HeM7": 6145,
    "HbD7HNA": 6146,
    "HCM7HCMHCMHCM": 6147,
    "HEMHBMHdM": 6148,
    "HCmHGsus2": 6149,
    "Hgm7HEsus2": 6150,
    "HgD7HBD7": 6151,
    "HDMHDMHDMHEm": 6152,
    "HDmHBm7": 6153,
    "HNAHeMHbM": 6154,
    "HCM7HGMHAm7": 6155,
    "HEMHGMHDM": 6156,
    "HaMHgMHaM": 6157,
    "HgM7HBM7": 6158,
    "HGMHCMHGMHCMHGMHCMHGM": 6159,
    "HCsus4HeM": 6160,
    "HFM7HCMHDm": 6161,
    "He+HB+": 6162,
    "HCm7HCm7HFD7HFD7HbMHFMHeMHbMHCmHbMHCD7HCD7HCD7HCD7HFMHbmHFMHbmHFMHNA": 6163,
    "HCm7HCMHCm7": 6164,
    "HFsus2HbM7": 6165,
    "HFM7HFM7HDm7": 6166,
    "HGMHFMHGD7HDm7": 6167,
    "HCMHCMHGo": 6168,
    "HDmHAsus4": 6169,
    "HDMHDMHDmHDmHDm": 6170,
    "HCMHDm7HGD7": 6171,
    "HbmHbmHbmHbmHbmHbmHbm": 6172,
    "HGMHGMHCMHCm": 6173,
    "HDsus2HD+": 6174,
    "HdMHbsus2": 6175,
    "HBmHGMHEm7": 6176,
    "Hb+HDD7": 6177,
    "HDMHDMHdoHdo": 6178,
    "HGoHDm7": 6179,
    "HGMHgMHGMHgM": 6180,
    "HAmHFMHEm": 6181,
    "HCmHCmHe+": 6182,
    "HemHeMHem": 6183,
    "HAmHbo": 6184,
    "HBMHGMHEm": 6185,
    "HNAHC+": 6186,
    "Hb+HAoHGo": 6187,
    "HBo7HFoHBo7HFo": 6188,
    "HFm7HC+": 6189,
    "HFM7HCMHFM": 6190,
    "HDMHDMHAsus2": 6191,
    "HGMHGMHGMHFsus2": 6192,
    "HDoHFMHDo": 6193,
    "HDMHDMHDMHDMHDM7HDM7": 6194,
    "HaMHdMHbm": 6195,
    "HaD7Hbm7": 6196,
    "HAM7HEMHEM": 6197,
    "HFMHCMHDmHDm": 6198,
    "HBD7HEmHBD7HEm": 6199,
    "HaMHdM7HaMHdM7": 6200,
    "HDMHeMHFM": 6201,
    "HNAHCMHFM": 6202,
    "HDMHDMHGMHGMHGM": 6203,
    "HCm7HCm7HFMHFM": 6204,
    "HCD7Ha+": 6205,
    "Hb+HDm7": 6206,
    "HEMHEMHEMHE+": 6207,
    "HGMHbMHGm": 6208,
    "HAmHdM": 6209,
    "HdMHbm7HdMHbm7": 6210,
    "HeMHNAHNA": 6211,
    "HbmHbmHFM": 6212,
    "HCMHGMHCMHAm": 6213,
    "HCMHFmHdM": 6214,
    "HGmHFMHD+": 6215,
    "HgmHeM": 6216,
    "HGmHDmHDmHDm": 6217,
    "HGMHaoHAM": 6218,
    "HDMHDMHg+": 6219,
    "Hd+Hao": 6220,
    "HD+HeMHD+": 6221,
    "HAm7Hdo": 6222,
    "HGmHaMHeM": 6223,
    "HDMHDmHDm7": 6224,
    "HDmHNAHNA": 6225,
    "HdoHED7": 6226,
    "HCmHDmHeM": 6227,
    "HbMHFMHeMHFM": 6228,
    "HDMHAMHBmHgm": 6229,
    "Hdm7Hbo": 6230,
    "HGMHGmHGmHGm": 6231,
    "HEmHCo": 6232,
    "HBmHdD7": 6233,
    "HEMHa+": 6234,
    "HFm7HFsus4": 6235,
    "HGmHGmHGmHDm": 6236,
    "Hesus2HFMHFM": 6237,
    "HEsus2HEm7": 6238,
    "HGMHeMHeMHeM": 6239,
    "HFmHao": 6240,
    "HgmHgmHAMHAM": 6241,
    "HGMHGMHGMHGMHGmHGm": 6242,
    "HG+HGM7": 6243,
    "HGMHCMHGm7": 6244,
    "HCMHCMHFMHCMHCMHCMHFM": 6245,
    "HGm7HGmHGm7": 6246,
    "HboHgo": 6247,
    "HCm7HCm7HFD7HFD7HbMHFMHeMHbMHCmHbMHCD7HCD7HCD7HCD7HFMHbmHFMHbmHFMHNAHDmHeoHbMHbMHeMHFoHCmHbM7HDm": 6248,
    "HCsus4HCsus4HCsus4HCsus4": 6249,
    "Hd+HaM": 6250,
    "HFMHbMHNA": 6251,
    "Hd+Hd+Hd+HAM": 6252,
    "HCMHGD7HCMHGD7HCMHGD7": 6253,
    "HAmHFMHCMHGMHAmHFMHCMHGMHAmHFMHCMHGMHAmHFMHCMHGM": 6254,
    "HGMHGMHGMHG+": 6255,
    "HCm7HaMHaM": 6256,
    "HFMHGMHAMHAM": 6257,
    "HeM7Hasus2": 6258,
    "HDMHAMHDM7": 6259,
    "HeM7Heo": 6260,
    "HDm7HCD7": 6261,
    "HD+HDMHD+": 6262,
    "HDm7HDm7HDm7HDmHDm7HDm7HDm7HDm": 6263,
    "HFMHDmHDm7": 6264,
    "HBoHgo": 6265,
    "HCMHNAHNAHNAHNA": 6266,
    "HBMHBmHBM": 6267,
    "HGMHCMHBm": 6268,
    "HEm7HDm7HFM7": 6269,
    "HeM7HeMHbMHbM": 6270,
    "HbMHasus2": 6271,
    "HAoHbMHAo": 6272,
    "HbMHbsus4": 6273,
    "Hgm7HDM": 6274,
    "HgmHdo": 6275,
    "HDsus2Hgm": 6276,
    "Hb+HGm7": 6277,
    "HGoHFmHFm": 6278,
    "HEMHAmHFMHGM": 6279,
    "HeMHeMHeMHeMHeMHbM": 6280,
    "HAMHD+": 6281,
    "HAMHEMHeo": 6282,
    "HED7HAmHDm": 6283,
    "HgMHbo": 6284,
    "HAMHGo": 6285,
    "HDMHDMHDMHGMHGM": 6286,
    "HDMHDMHDMHDMHDm7": 6287,
    "HFm7HeMHaM": 6288,
    "HeMHC+": 6289,
    "HeoHaD7": 6290,
    "HdmHaD7": 6291,
    "HFmHdo": 6292,
    "HgoHem": 6293,
    "HEmHEmHCM7HCM7": 6294,
    "HA+HDM7": 6295,
    "HBmHBMHBMHBM": 6296,
    "HamHgm7": 6297,
    "HGD7HaM7": 6298,
    "HFmHCmHeM": 6299,
    "HdmHAsus2": 6300,
    "HaMHamHaMHam": 6301,
    "HGoHCm": 6302,
    "HDMHDD7HDMHDD7": 6303,
    "HCMHeMHaM": 6304,
    "HEMHNAHEMHEM": 6305,
    "HFMHbMHFM7": 6306,
    "HAoHaM7": 6307,
    "HbMHDmHeM": 6308,
    "HAD7HDMHGM7": 6309,
    "HDMHgm7HDMHgm7": 6310,
    "HGmHFMHeMHbM": 6311,
    "HEMHEMHEMHEMHNA": 6312,
    "HEMHAmHDm": 6313,
    "HFMHFMHAm7": 6314,
    "HboHbsus2": 6315,
    "Hgsus2HBM": 6316,
    "HDMHEmHDMHCM7": 6317,
    "HCMHEmHNA": 6318,
    "HEmHDD7": 6319,
    "HFsus2HF+": 6320,
    "HdmHdmHdmHdmHdmHdm": 6321,
    "HCoHD+": 6322,
    "HCMHDMHCMHDMHCMHDMHCMHDM": 6323,
    "HgM7Hgsus2": 6324,
    "HCM7HAm7HCM7": 6325,
    "HGMHE+": 6326,
    "HFmHGMHCm": 6327,
    "HDMHBmHGM7": 6328,
    "HDmHbMHDmHbMHDmHbMHDmHbM": 6329,
    "HamHBMHEM": 6330,
    "HbMHCMHbMHCMHbMHCMHbMHCM": 6331,
    "Hesus4HdM": 6332,
    "HgMHBm7": 6333,
    "HCmHGM7": 6334,
    "HCsus2HGMHCsus2": 6335,
    "HAoHem": 6336,
    "HFMHCMHCM7": 6337,
    "HFD7Hd+": 6338,
    "HdMHNAHdM": 6339,
    "HGMHGMHGMHGMHGsus2": 6340,
    "HCMHFmHCMHFmHCMHFm": 6341,
    "HDsus4HDm7": 6342,
    "HaMHGMHCM": 6343,
    "HEmHDMHCM": 6344,
    "HFMHDmHGm": 6345,
    "HDMHbMHDM": 6346,
    "HeMHeMHFm7": 6347,
    "HgMHdMHNA": 6348,
    "HeoHbm": 6349,
    "Hasus2HGm7": 6350,
    "HCMHBMHBM": 6351,
    "HB/o7HCM7": 6352,
    "HaMHFMHNAHNA": 6353,
    "HGm7HGm7HCm7": 6354,
    "HDsus2HFsus2HDm7HDm7": 6355,
    "HemHC+": 6356,
    "HFmHC+HFmHC+": 6357,
    "HDMHEm7HEm7": 6358,
    "HeMHeMHGmHGm": 6359,
    "HbM7HbM7HDm7": 6360,
    "HCMHDmHFM": 6361,
    "Ham7Heo": 6362,
    "HDM7HEsus2": 6363,
    "HEoHCm7": 6364,
    "HDmHbsus2": 6365,
    "HDD7HGM7HDD7HGM7": 6366,
    "HbMHbMHgM": 6367,
    "HbMHeMHDm": 6368,
    "HFMHGMHFM7": 6369,
    "HCMHGMHGD7": 6370,
    "HEm7HCM": 6371,
    "HgMHDo": 6372,
    "HGMHaMHbM": 6373,
    "HbMHF+": 6374,
    "HEm7HAM7": 6375,
    "HDMHNAHAM": 6376,
    "HBMHDsus2": 6377,
    "HDMHBMHBM": 6378,
    "He+HeM7": 6379,
    "HFMHGMHFsus2": 6380,
    "HAD7HDMHDMHDM": 6381,
    "HgoHDMHGM": 6382,
    "HDMHDMHDMHDMHDMHDMHDMHDMHDM": 6383,
    "HFmHbD7HeM": 6384,
    "HGmHGmHAmHAm": 6385,
    "HDMHDMHDsus2HDM": 6386,
    "HEM7HgD7": 6387,
    "HDoHAMHEMHDMHEMHAM": 6388,
    "HFMHFMHCMHCMHFMHFM": 6389,
    "HEmHEMHAM": 6390,
    "HaMHFmHbM": 6391,
    "HAmHAmHCMHGM": 6392,
    "HFMHGMHCMHCM": 6393,
    "HDMHDMHAMHDM7": 6394,
    "Hgsus2Hgm7": 6395,
    "HAmHBoHAmHBo": 6396,
    "HCMHGMHDMHDM": 6397,
    "HdMHdMHDMHDM": 6398,
    "Hdm7HA+": 6399,
    "HEMHEM7HEM7": 6400,
    "HEMHEMHEMHEMHEMHEm": 6401,
    "HaM7Hbm": 6402,
    "HemHgMHgM": 6403,
    "HeMHBM": 6404,
    "HbD7Hao": 6405,
    "HGMHEmHGMHGM": 6406,
    "HdoHDm7": 6407,
    "HAm7HDMHGM": 6408,
    "Hdsus2HdMHdM": 6409,
    "HG+HNA": 6410,
    "HAMHAMHAMHAMHAMHAMHAMHAMHAMHAMHAMHAM": 6411,
    "HGmHFMHGmHFMHGmHFM": 6412,
    "HCMHFMHGMHCM": 6413,
    "HCmHFMHCm": 6414,
    "HGmHNAHGmHNA": 6415,
    "HCD7HCm7HFM": 6416,
    "HeM7HeMHCm7": 6417,
    "HCmHFMHeM": 6418,
    "HEMHEMHEMHam": 6419,
    "HAmHAm7HDm7": 6420,
    "HCMHDM7": 6421,
    "HAmHGMHAm": 6422,
    "HEmHEmHAmHAm": 6423,
    "HbmHbmHFmHFm": 6424,
    "HEm7HGMHEm7": 6425,
    "HBD7Hdm7": 6426,
    "HaM7Ha+": 6427,
    "HeoHAM7": 6428,
    "HbMHFo": 6429,
    "HBMHGM7HBMHGM7": 6430,
    "HC+HaMHaM": 6431,
    "HaMHdMHaMHaM": 6432,
    "HDsus2HDo": 6433,
    "HCMHCM7HAm7": 6434,
    "HEm7HGo": 6435,
    "HbMHbMHbMHeMHeM": 6436,
    "HCmHCm7HCmHCm": 6437,
    "HDmHDMHesus2Hesus2": 6438,
    "HCMHbMHAMHDm": 6439,
    "HFmHFmHaMHaM": 6440,
    "HEoHF+": 6441,
    "HeM7HGmHGm": 6442,
    "HGmHGMHGsus2": 6443,
    "Hesus2HbMHbM": 6444,
    "HEMHBD7HEMHBD7": 6445,
    "HFm7HdMHFm7HdM": 6446,
    "HBoHCsus2": 6447,
    "HBmHAsus4": 6448,
    "HCMHDmHCMHFM": 6449,
    "HCM7HAm7HFM7": 6450,
    "HEMHEMHDMHDM": 6451,
    "HeM7HDD7": 6452,
    "HFm7HFMHFMHFM": 6453,
    "HEmHBMHEm": 6454,
    "HEm7HEsus4": 6455,
    "HFM7Hd+": 6456,
    "HDmHEmHDmHEm": 6457,
    "HAoHDMHGm": 6458,
    "HeD7HdM": 6459,
    "HeD7HeD7HaM": 6460,
    "Hg+Hg+Hg+": 6461,
    "HAmHCM7HCM7": 6462,
    "HDmHDmHAm7": 6463,
    "HGMHEMHGMHEM": 6464,
    "HemHBMHemHBM": 6465,
    "HEMHEMHEm7HEm7": 6466,
    "HbMHbMHFMHCM": 6467,
    "HGD7HBoHBo": 6468,
    "Hbsus4Hbm7": 6469,
    "HFD7HFD7HbMHbM": 6470,
    "HEsus4HAm7": 6471,
    "HAMHAMHNAHNA": 6472,
    "HbM7HbM7HeM": 6473,
    "HEMHamHam": 6474,
    "HGD7HCM7HFM7": 6475,
    "HBsus2HBoHBsus2HDM7": 6476,
    "HFMHFMHCM": 6477,
    "HCMHCMHaMHaM": 6478,
    "HDMHDMHDMHAo": 6479,
    "HEMHCMHEm": 6480,
    "HCMHGMHBMHEm": 6481,
    "HEmHEmHEo": 6482,
    "HFm7Hbsus4": 6483,
    "HdMHbMHCM": 6484,
    "HeMHbMHFM": 6485,
    "HGoHa+": 6486,
    "HeMHeMHeM7HeM7": 6487,
    "HDMHEMHgm7": 6488,
    "HeMHeMHeMHeMHeMHeMHeMHeMHeMHeMHeMHeM": 6489,
    "HgMHFo": 6490,
    "HbM7HGo": 6491,
    "HgMHFm7": 6492,
    "HbMHbMHDo": 6493,
    "HGmHbMHAMHDm": 6494,
    "HGmHDmHAMHDmHDm": 6495,
    "HCMHDMHDm": 6496,
    "HGm7HbMHFM": 6497,
    "HGmHGmHeMHFMHGmHGmHeMHFM": 6498,
    "HDMHDmHbM": 6499,
    "HEMHgMHAM": 6500,
    "HAMHDMHDMHDMHDM": 6501,
    "HaMHeMHCmHGMHao": 6502,
    "HaMHFMHFM": 6503,
    "HDD7HDMHGMHGM": 6504,
    "HDoHe+": 6505,
    "HCD7HbD7": 6506,
    "HNAHDMHAM": 6507,
    "HamHgsus2": 6508,
    "HCD7HFmHCD7": 6509,
    "Hgsus2Hgsus2Hgsus2Hgsus2": 6510,
    "HC+HGm7": 6511,
    "HE+Hgm7": 6512,
    "HEsus2HEmHEm": 6513,
    "HCm7HFMHCMHFM": 6514,
    "HEmHFMHEm": 6515,
    "HDMHDMHao": 6516,
    "HaM7HaMHFm7": 6517,
    "HgM7Hd+": 6518,
    "HeM7HFMHeM7": 6519,
    "HAsus2HAo": 6520,
    "HCmHGmHaMHeM": 6521,
    "HbMHeMHbMHGm": 6522,
    "HFmHNAHNA": 6523,
    "HgMHgMHgMHNA": 6524,
    "HGMHAMHDMHAM": 6525,
    "HCMHCmHCsus2": 6526,
    "Hbsus2HCo": 6527,
    "HAsus4HDMHDM": 6528,
    "HEsus2HCM7": 6529,
    "HCMHGMHGM7": 6530,
    "HaM7HaMHeMHeM": 6531,
    "HDMHeD7": 6532,
    "HdMHaMHbm7": 6533,
    "HAmHAMHAmHAm": 6534,
    "HAm7HG+": 6535,
    "HAM7HBm7": 6536,
    "HAmHAm7HAmHAm": 6537,
    "HAmHCMHAm7": 6538,
    "HGMHGMHCMHGMHGM": 6539,
    "HDMHDMHEm7HEm7": 6540,
    "HEM7He+": 6541,
    "HeoHBM": 6542,
    "HAmHAMHAMHAMHAM": 6543,
    "HDmHDmHDmHNA": 6544,
    "HFsus2HGMHNA": 6545,
    "HgoHAoHemHeMHBD7He+": 6546,
    "HDoHbsus2HbM": 6547,
    "HGm7HGMHGM": 6548,
    "HDmHCMHDmHCMHDm": 6549,
    "HaD7HGD7": 6550,
    "HAMHFMHCMHGMHAMHFMHCMHGM": 6551,
    "HemHd+": 6552,
    "HaMHeMHaMHeMHaMHeMHaMHeM": 6553,
    "Hdsus2HdM7": 6554,
    "HbM7HFsus4": 6555,
    "HAmHFMHFM7": 6556,
    "HDMHbM7HDMHbM7": 6557,
    "HGD7HAD7": 6558,
    "HamHBMHamHBM": 6559,
    "HAMHDMHgm7": 6560,
    "HbM7HGm7HbM7HGm7": 6561,
    "HGD7HGD7HCMHCMHGD7HGD7": 6562,
    "HDMHDMHDMHAMHDMHDMHDMHAM": 6563,
    "HGm7HDm7HGm7HDm7": 6564,
    "HeoHEM": 6565,
    "HGMHGMHDmHDm": 6566,
    "HAMHFMHGM": 6567,
    "HDmHFMHBo": 6568,
    "HbM7HGmHGm": 6569,
    "HCmHFmHdM": 6570,
    "HeoHAMHeoHAM": 6571,
    "HDMHEmHCMHEm": 6572,
    "HDmHDmHDmHDo": 6573,
    "HGsus2HGo": 6574,
    "HaMHeMHC+": 6575,
    "HCD7HFo": 6576,
    "HgoHCMHgo": 6577,
    "HCmHCmHGm7": 6578,
    "Ha+Ha+Ha+": 6579,
    "HgmHGM7": 6580,
    "HFmHbM7": 6581,
    "HaMHGMHGM": 6582,
    "HdoHdoHdoHdoHdoHdoHdoHdo": 6583,
    "HGMHEMHEm": 6584,
    "HAmHFMHAm7": 6585,
    "HNAHNAHNAHdM": 6586,
    "HFmHFmHbM": 6587,
    "HCm7HeD7": 6588,
    "HFMHFMHCM7": 6589,
    "Hbm7HdM7HdM7": 6590,
    "HEoHgm": 6591,
    "HG+HAo": 6592,
    "HAmHDm7HDm7": 6593,
    "HaMHdMHNA": 6594,
    "HGMHGM7HGM": 6595,
    "HAoHesus2": 6596,
    "HBm7HEMHEM": 6597,
    "HCm7Hbo": 6598,
    "HAmHFMHbM": 6599,
    "HeMHFsus2": 6600,
    "HEMHEMHBMHEM": 6601,
    "HgD7HD+": 6602,
    "HEM7HEm7": 6603,
    "HdMHdMHdMHdM7": 6604,
    "HDMHFMHbM": 6605,
    "HCMHCMHCMHCMHCMHCsus2": 6606,
    "HdmHDsus2": 6607,
    "HED7HED7HAmHAm": 6608,
    "HGMHGMHGMHGMHGMHCM": 6609,
    "HCM7HGMHDM": 6610,
    "HbmHBo": 6611,
    "HGMHGmHGMHGM": 6612,
    "HFMHGM7": 6613,
    "HCM7HCM7HFM": 6614,
    "HCMHbMHGm": 6615,
    "HCsus2HDD7": 6616,
    "HFMHFMHCm": 6617,
    "HFsus2HFMHFMHFM": 6618,
    "HAMHAMHAD7": 6619,
    "HGMHGm7HGm7": 6620,
    "HD+Hgm7": 6621,
    "HFoHaM": 6622,
    "HEm7HgM": 6623,
    "HDmHBm": 6624,
    "HCMHFMHGD7": 6625,
    "HgoHao": 6626,
    "HNAHNAHNAHNAHNAHNAHNAHNAHNAHNAHNAHNAHNAHNAHNAHNAHNAHNA": 6627,
    "HdmHEMHAM": 6628,
    "HeoHD+": 6629,
    "HgMHEMHBM": 6630,
    "HCmHbMHFM": 6631,
    "HaMHCMHCM": 6632,
    "HDMHBmHGMHGMHDMHBmHGMHGMHDMHBmHGMHGMHDMHBmHGMHGM": 6633,
    "HBMHGsus2": 6634,
    "HEsus2HBsus2": 6635,
    "Hasus2HaMHaM": 6636,
    "HB+HEm": 6637,
    "HbM7HbD7": 6638,
    "HGmHGmHGmHGmHCmHCmHgoHDD7HGm": 6639,
    "HAoHGmHAoHGmHD+HeD7HDMHDMHDMHDMHDMHGmHGmHGmHCm7HCm7HFD7HFD7HbMHFMHeMHbMHCmHbMHCD7HCD7HCD7HCD7HFMHbmHFMHbmHFMHNAHDmHeoHbMHbMHeMHFoHCmHbM7HDm": 6640,
    "HCMHFMHbm": 6641,
    "HED7HDo": 6642,
    "HbMHbMHbMHaMHCmHeM": 6643,
    "HbMHgMHbMHgM": 6644,
    "Hesus4HeMHesus4": 6645,
    "HGmHbMHCm7": 6646,
    "HFMHGMHD+": 6647,
    "HdMHDsus2": 6648,
    "HCMHCMHCMHCMHCMHAm7": 6649,
    "HBMHCMHDM": 6650,
    "HD+HFMHD+": 6651,
    "HdmHDMHDMHAM": 6652,
    "HamHBsus2": 6653,
    "HDoHdM7": 6654,
    "HBoHCM": 6655,
    "HB+HB+HB+HB+": 6656,
    "HCmHCmHCmHNA": 6657,
    "HFmHdMHGm7": 6658,
    "Hgo7HCo": 6659,
    "HbD7HdM": 6660,
    "HCmHCmHAo": 6661,
    "HeMHeMHem": 6662,
    "HGMHeM7HGMHeM7": 6663,
    "HEmHAmHDMHGM": 6664,
    "HGsus4HFM": 6665,
    "HaD7HaD7HaD7HaD7": 6666,
    "HFmHem7": 6667,
    "HEmHEmHEmHEmHCMHCMHCMHCM": 6668,
    "HFm7HaMHFm7": 6669,
    "HGmHFMHeM7": 6670,
    "HgD7HBMHgD7HBM": 6671,
    "HCmHCmHGm7HGm7": 6672,
    "HDD7HDD7HGm": 6673,
    "HeMHdsus2": 6674,
    "HGM7Hb+": 6675,
    "HFMHCMHEm": 6676,
    "HCmHGmHeM": 6677,
    "HBm7HDD7": 6678,
    "HFMHFsus4": 6679,
    "HAmHDD7HGM": 6680,
    "HBmHbo": 6681,
    "HDm7HAsus2": 6682,
    "HCmHaM7HaM7": 6683,
    "HGM7HeM": 6684,
    "HCMHCMHCMHCMHCM7": 6685,
    "HBm7HG+": 6686,
    "HEsus2HAM7": 6687,
    "HFMHe+": 6688,
    "HFD7Hgo": 6689,
    "HNAHCmHCm": 6690,
    "HdMHFo": 6691,
    "HNAHNAHGm": 6692,
    "HAmHBm7HAmHBm7": 6693,
    "HCD7HCMHCD7": 6694,
    "HAD7HEm": 6695,
    "HbMHGmHGm": 6696,
    "HAMHAMHAMHd+": 6697,
    "Hgm7HEMHEM": 6698,
    "HDMHDMHGMHCM": 6699,
    "HCMHFMHCMHFMHFM": 6700,
    "HCmHbMHCmHeM": 6701,
    "HCm7HFMHCm7": 6702,
    "HCM7HGm": 6703,
    "HaM7HCm7HCm7": 6704,
    "HDM7HgmHDM7Hgm": 6705,
    "HBMHBMHAMHAM": 6706,
    "HDMHgsus2": 6707,
    "HDmHCsus4": 6708,
    "HDMHAMHDsus2": 6709,
    "HbM7HCm": 6710,
    "HFmHdMHFmHdMHFmHdM": 6711,
    "HEM7HEM7HEM7HEM7HEM7HEM7HEM7HEM7": 6712,
    "HgM7HgM7Hem7": 6713,
    "He+HBmHd+": 6714,
    "He+HBmHDM7": 6715,
    "HboHBM7": 6716,
    "HFmHGMHaM": 6717,
    "HCMHFMHCMHGD7": 6718,
    "HDm7HFM7HDm7": 6719,
    "HFmHd+": 6720,
    "Hem7Hd+": 6721,
    "HDMHDMHGMHGM7": 6722,
    "HGMHGD7HGD7": 6723,
    "Hd+HDMHd+": 6724,
    "HaM7HCmHaM7": 6725,
    "HdmHEm": 6726,
    "HDMHBMHEm": 6727,
    "HAm7HDMHDM": 6728,
    "Hd+HDMHGM": 6729,
    "HF+HF+HF+HF+": 6730,
    "HCM7HD+": 6731,
    "HDm7HbMHbM": 6732,
    "HDoHeMHeM7": 6733,
    "HCMHCMHGm": 6734,
    "HA+HBo": 6735,
    "HED7Hd+": 6736,
    "HE+HFm": 6737,
    "HAoHaM": 6738,
    "HAsus4HFM7": 6739,
    "HgoHGmHGmHGm": 6740,
    "HCMHCMHCMHDM": 6741,
    "HBmHBsus4": 6742,
    "HGMHeM7HGm7HeM7HGMHeM7HGm7HeM7": 6743,
    "HBMHaMHdM": 6744,
    "HAMHAMHGsus2": 6745,
    "HCmHGmHGmHGm": 6746,
    "HDMHEMHDM": 6747,
    "HEMHGm": 6748,
    "HAm7HAm7HCM7HCM7": 6749,
    "HGM7HCMHGM7": 6750,
    "HAMHgmHBm7": 6751,
    "HDmHamHFsus2HaM": 6752,
    "HDmHamHFsus2HaMHDmHam": 6753,
    "HFMHbMHeMHeM": 6754,
    "Hg+HbM": 6755,
    "HbM7HDm7HbM7HDm7": 6756,
    "HED7HDsus2": 6757,
    "HGMHDMHDMHAM": 6758,
    "HAMHAMHAMHBD7": 6759,
    "HGmHGmHGmHGo": 6760,
    "HCD7HAo": 6761,
    "HCmHAm": 6762,
    "HdMHeMHFMHFM": 6763,
    "Hem7Heo": 6764,
    "HFmHeMHeMHeM": 6765,
    "HFmHFmHFmHFmHFmHFmHFmHFmHFmHFmHFmHFmHFmHFmHFmHFm": 6766,
    "Hdsus2Hbm7": 6767,
    "HbMHCMHCsus2": 6768,
    "HeoHEMHeo": 6769,
    "HBm7HBMHBM": 6770,
    "HAMHDMHgM": 6771,
    "HFmHFmHdM7HdM7": 6772,
    "HCmHeMHCmHeMHCmHeM": 6773,
    "HbMHbMHD+HD+": 6774,
    "HBoHGMHGM": 6775,
    "HeoHEM7": 6776,
    "HEmHEmHAmHEm": 6777,
    "HC+HFsus2": 6778,
    "HAm7HFMHAm7": 6779,
    "HdmHaMHdm": 6780,
    "HC+HFMHCM": 6781,
    "HFoHGD7": 6782,
    "HAmHGm7HFM": 6783,
    "HGMHCMHGD7": 6784,
    "Hdsus2Hgsus2": 6785,
    "HbMHFMHAm7": 6786,
    "HEm7HEMHAM": 6787,
    "HEm7HG+": 6788,
    "HemHEM7": 6789,
    "HFm7HFm7HeM": 6790,
    "HAm7HFsus2": 6791,
    "HbMHFMHbMHFMHFM": 6792,
    "HCmHFm7HFm7": 6793,
    "HBMHEMHEm": 6794,
    "HEmHEmHNA": 6795,
    "HFMHFMHGm": 6796,
    "HbmHdMHdM": 6797,
    "HgmHgmHdmHdm": 6798,
    "HA+HFM7": 6799,
    "HeMHaMHaM": 6800,
    "HDMHAMHd+": 6801,
    "HE+HNA": 6802,
    "HGoHaMHaM": 6803,
    "HDMHBm7HDMHBm7HDMHBm7": 6804,
    "HEmHEmHFMHFM": 6805,
    "HEMHEMHC+": 6806,
    "HF+Hbm": 6807,
    "HGmHGMHCm7": 6808,
    "HAMHDmHbM": 6809,
    "HAMHFMHGMHCM": 6810,
    "HGMHeMHGM": 6811,
    "HEm7HEm7HEmHEm": 6812,
    "HCMHCMHCMHCMHAm7": 6813,
    "HCsus2HDMHGM": 6814,
    "HAmHGMHEm": 6815,
    "HgMHaMHaM": 6816,
    "HDMHbMHCM": 6817,
    "HEm7Hd+": 6818,
    "HFMHFM7HFMHFM": 6819,
    "HCMHEMHEMHEM": 6820,
    "HAmHAmHC+": 6821,
    "HAmHCMHCMHCM": 6822,
    "HbMHbMHemHem": 6823,
    "HAMHBMHdM": 6824,
    "HCMHNAHCMHCM": 6825,
    "Hbsus2HFMHbsus2HFM": 6826,
    "HbMHFMHEo": 6827,
    "HCMHCMHFMHCMHFMHCMHFM": 6828,
    "HFMHDmHFM7": 6829,
    "HEMHEMHBm7": 6830,
    "HCsus2HDMHCsus2": 6831,
    "HCoHAM": 6832,
    "Hdm7Hgsus2": 6833,
    "HAm7HAm7HAm7HAm7HAm7HAm7": 6834,
    "HgM7Ham7": 6835,
    "HAsus2HAMHAsus2HAM": 6836,
    "HdM7HaMHeD7": 6837,
    "HGmHGmHGmHGmHCmHCmHCmHCm": 6838,
    "HDMHDD7HGm": 6839,
    "HemHdMHgM": 6840,
    "HCoHBo": 6841,
    "HNAHgMHNA": 6842,
    "HBmHG+": 6843,
    "HGMHeM7HDoHeM7": 6844,
    "HgMHGMHGM": 6845,
    "HbmHbmHgM7HgM7": 6846,
    "HA+Hgm7": 6847,
    "HFsus2HFsus2HFsus2HFsus2HFsus2HFsus2HFsus2HFsus2": 6848,
    "HaM7HbMHCm": 6849,
    "HDM7Heo": 6850,
    "HFMHFMHFM7HFM": 6851,
    "HGmHGmHGo": 6852,
    "HNAHeMHeMHeMHeM": 6853,
    "Hbm7Hbo": 6854,
    "HgM7HFo": 6855,
    "HCMHEmHCM7": 6856,
    "HGMHeMHGMHeMHGMHeMHGMHeM": 6857,
    "HDMHAm7HDMHAm7HDMHAm7": 6858,
    "HBmHGMHDMHDM": 6859,
    "HCmHeMHaM7": 6860,
    "HAoHeMHCmHFmHbMHeM": 6861,
    "HFmHbm7HFmHbm7": 6862,
    "HEm7HGM7HGM7": 6863,
    "HAmHGmHCMHFM": 6864,
    "HaoHdm": 6865,
    "HdD7HBD7": 6866,
    "HDD7HGsus4": 6867,
    "HAmHAmHFMHFMHCMHCMHGMHGM": 6868,
    "HAmHFMHGMHCMHAmHFMHGMHCM": 6869,
    "HdmHAMHEMHBMHdmHAMHEMHBM": 6870,
    "HFm7HdM7HFm7HdM7": 6871,
    "HAMHAMHdo": 6872,
    "HGmHGmHeMHGm": 6873,
    "HCD7HCD7HFM7HFM7": 6874,
    "HFM7HDmHFM7HDm": 6875,
    "HbMHbMHFm7": 6876,
    "HEMHBmHBm": 6877,
    "HaMHaMHdMHaM": 6878,
    "HGD7Hdo": 6879,
    "HaMHeMHgMHdM": 6880,
    "HEMHEMHFM": 6881,
    "HBsus2HBoHBsus2HDMHBsus2HBoHBsus2HDM": 6882,
    "HGsus4HGm": 6883,
    "HaM7HaM7HFm7": 6884,
    "HDoHGMHGM": 6885,
    "HCm7HFMHbM": 6886,
    "HGm7HFm7HeM": 6887,
    "HDMHDmHDmHDm": 6888,
    "HbmHasus2": 6889,
    "HF+HGo": 6890,
    "HEsus2HEM7": 6891,
    "HaM7Hdm": 6892,
    "Hd+Hgo": 6893,
    "HGmHDsus2": 6894,
    "HFMHEMHeM": 6895,
    "Hdm7Hd+": 6896,
    "HEMHgsus4": 6897,
    "HAmHGMHAm7": 6898,
    "HDMHDMHeMHeM": 6899,
    "HEoHGM7": 6900,
    "HEMHAMHNAHNA": 6901,
    "HDMHBmHAM": 6902,
    "HboHFm": 6903,
    "HgoHC+": 6904,
    "Hbsus4HeM7": 6905,
    "Hbm7HDo": 6906,
    "HEMHgMHgmHdm7": 6907,
    "Hdsus4Hdsus4Hdsus4Hdsus4Hdsus4Hdsus4Hdsus4Hdsus4Hdsus4Hdsus4Hdsus4Hdsus4Hdsus4Hdsus4Hdsus4Hdsus4": 6908,
    "HBD7HEm7": 6909,
    "HdmHEo": 6910,
    "HFsus2HDm7HDm7": 6911,
    "Hdm7HaM": 6912,
    "HaMHbMHNA": 6913,
    "HBmHBmHBm7": 6914,
    "HDmHDMHD+": 6915,
    "HEMHFm": 6916,
    "HCM7HCM7HCM": 6917,
    "HgmHgmHgM": 6918,
    "HDmHGmHGm": 6919,
    "HDm7HCMHCM": 6920,
    "HGMHGMHGMHDMHGM": 6921,
    "HGD7HGsus2": 6922,
    "HeMHFMHNA": 6923,
    "HemHFD7": 6924,
    "HDMHNAHAMHNA": 6925,
    "HDMHEMHEm": 6926,
    "HgMHEMHgM": 6927,
    "HEm7HCMHCM": 6928,
    "HamHd+": 6929,
    "HAMHAMHAMHAMHAMHAMHAMHAMHAM": 6930,
    "Hdm7He+": 6931,
    "HAmHC+HAmHC+": 6932,
    "HbMHAMHbMHAM": 6933,
    "HFm7Heo": 6934,
    "HGmHD+HeM": 6935,
    "HEm7HDMHEm7": 6936,
    "HGM7HaM7": 6937,
    "HFoHCMHCM": 6938,
    "HbmHdMHbm": 6939,
    "HNAHAm7": 6940,
    "HDmHDmHDmHDmHDmHGm7": 6941,
    "HDMHCMHAm": 6942,
    "HbD7HeMHaM": 6943,
    "HbMHbMHbMHCM": 6944,
    "HCmHCmHDoHDo": 6945,
    "HbMHFMHFMHFM": 6946,
    "HGMHGMHGMHGMHdo": 6947,
    "HFmHFmHCmHCmHFm7": 6948,
    "HgoHDsus2": 6949,
    "HGsus2HGMHGMHGM": 6950,
    "HFMHCMHDmHAm": 6951,
    "HFmHbMHbM": 6952,
    "HBm7HAMHBm7": 6953,
    "HDmHEoHDm": 6954,
    "Hb+HDo": 6955,
    "HCD7HdM7": 6956,
    "HD+HFMHCM": 6957,
    "HdMHdMHaMHdM": 6958,
    "HAmHDD7HGMHGM": 6959,
    "HgmHAsus2": 6960,
    "HDmHCmHDm": 6961,
    "Ham7Hasus2": 6962,
    "HDD7HFM": 6963,
    "HdmHgmHdmHgm": 6964,
    "HGMHCsus2HGMHCsus2": 6965,
    "He+HG+": 6966,
    "HBmHEMHBmHEM": 6967,
    "HDMHEMHFMHEMHDMHEMHFMHEM": 6968,
    "HgMHAMHgMHAM": 6969,
    "HCMHAM7": 6970,
    "HDsus4HFM": 6971,
    "HemHAM": 6972,
    "HBoHBoHBoHBoHBoHBoHBoHBo": 6973,
    "HGMHFMHEM": 6974,
    "HFsus2HDmHGM": 6975,
    "HbMHFMHDmHCM": 6976,
    "HemHemHemHeM": 6977,
    "HGsus4HGMHGM": 6978,
    "HBmHDMHBm7": 6979,
    "HDmHCMHBo": 6980,
    "HCMHGmHCMHGm7HCMHGmHCMHGm7HCMHGmHCMHGm7HCMHGmHCMHGm7": 6981,
    "HEMHEMHAm": 6982,
    "HCm7HCm7HbM": 6983,
    "Hesus2HbMHeM": 6984,
    "HCMHEMHEMHEMHEM": 6985,
    "HeM7HeM7HeM7HeM": 6986,
    "HFm7HBo": 6987,
    "HbMHbM7HFM": 6988,
    "HGMHEMHNA": 6989,
    "HAm7HNAHAm7HNA": 6990,
    "HFM7HFm7": 6991,
    "HCm7HFmHFm": 6992,
    "HAMHAMHDMHDMHDMHDM": 6993,
    "HdoHdM7": 6994,
    "HDM7HGMHDM7": 6995,
    "HDmHDm7HDm7": 6996,
    "HAMHEMHNA": 6997,
    "HEmHFMHbM7": 6998,
    "HCmHCmHCmHCo": 6999,
    "HeMHem7": 7000,
    "HEmHam": 7001,
    "HAMHEMHAMHAM": 7002,
    "HDMHDMHGmHGM": 7003,
    "HGoHEm": 7004,
    "HBD7Ham7": 7005,
    "HD+HDmHbM": 7006,
    "HFM7HGm": 7007,
    "HDmHDMHNA": 7008,
    "HFsus4HFM7": 7009,
    "HCMHBD7": 7010,
    "HbMHDmHGm7": 7011,
    "HGsus2Hgm7": 7012,
    "HCm7HaMHCm7": 7013,
    "HCMHCMHGMHGMHCMHCMHGMHGM": 7014,
    "HFsus4HNA": 7015,
    "HCmHdMHeM": 7016,
    "HEoHEoHEoHEoHEoHEoHEoHEo": 7017,
    "HbmHdMHgM": 7018,
    "HDmHBoHDmHBo": 7019,
    "HCD7HFmHdM": 7020,
    "HbmHa+": 7021,
    "HGMHGMHGMHGMHGMHGMHGMHGMHGM": 7022,
    "HDMHGMHFM": 7023,
    "HAmHCMHAM": 7024,
    "Hb+HEo": 7025,
    "HAm7HCMHGM": 7026,
    "HbMHbMHbMHbMHbMHbM7": 7027,
    "HbM7HDmHGm7": 7028,
    "HGM7HAsus2": 7029,
    "HdMHdMHdMHaM": 7030,
    "HAD7HAsus2": 7031,
    "HDMHNAHGMHNA": 7032,
    "HaoHAMHaoHAM": 7033,
    "HBmHED7HAM": 7034,
    "HGsus2HDMHDM": 7035,
    "HeMHFo": 7036,
    "HD+HGmHD+HGm": 7037,
    "HdmHEMHEM": 7038,
    "HaMHgm7": 7039,
    "Hem7HgMHem7": 7040,
    "HdMHdMHBmHBm": 7041,
    "HbM7HFMHDm": 7042,
    "HAMHDMHGMHGM": 7043,
    "HeoHFo": 7044,
    "HGm7HAm": 7045,
    "HFsus4HFD7": 7046,
    "HAoHGmHAoHGmHD+HeD7HDMHDMHDMHDMHDMHGmHGmHGmHCm7HCm7HFD7HFD7HbMHFMHeMHbMHCmHbMHCD7HCD7HCD7HCD7HFMHbmHFMHbmHFMHNAHDmHeoHbMHbMHeMHFoHCmHbM7HDmHesus2HbMHDm": 7047,
    "HCsus2HGD7": 7048,
    "HFmHeMHbM": 7049,
    "HCoHCsus2": 7050,
    "HDMHbm": 7051,
    "HEMHAmHAM": 7052,
    "HGm7HCm7HCm7": 7053,
    "HGmHCMHbM": 7054,
    "HdoHbm": 7055,
    "HaMHbMHaMHeM": 7056,
    "HD+HDMHDM": 7057,
    "HGMHGM7HGMHGM": 7058,
    "HNAHNAHCMHCM": 7059,
    "HFmHFmHFmHFmHCmHGMHCm": 7060,
    "HCMHFMHAM": 7061,
    "HGmHeMHdmHem": 7062,
    "HbMHFMHbMHeM": 7063,
    "HA+HA+HA+HA+": 7064,
    "HFmHAm": 7065,
    "HdoHAM7": 7066,
    "HBmHGMHCM": 7067,
    "HgM7HBM": 7068,
    "HAMHDmHAD7HDm": 7069,
    "HdMHdMHFmHFm": 7070,
    "HDsus2HEMHDsus2": 7071,
    "HGmHeMHGmHGm": 7072,
    "HaM7HaMHaMHaM": 7073,
    "HemHaMHdM": 7074,
    "HDD7HAM": 7075,
    "HGmHeMHGmHeMHGmHeMHGmHeM": 7076,
    "HDmHGMHCMHCM": 7077,
    "HBoHFMHBo": 7078,
    "HGmHFMHeMHeM": 7079,
    "HDoHbD7HCm7HeMHDoHbD7HCm7HeM": 7080,
    "HEmHGMHAm": 7081,
    "HGmHFmHAmHgD7": 7082,
    "HFmHGD7HCm": 7083,
    "HDmHD+HDmHD+": 7084,
    "HCMHFMHDmHbM": 7085,
    "HDmHDD7": 7086,
    "HbMHbMHDMHDM": 7087,
    "HgMHAo": 7088,
    "HGMHCmHGM": 7089,
    "HaM7HbMHeM": 7090,
    "HCMHNAHCMHNAHCMHNAHCMHNA": 7091,
    "HbMHbMHAmHAm": 7092,
    "HGsus2HDo": 7093,
    "HGsus4HCM7": 7094,
    "HGMHGMHCo": 7095,
    "HGsus2HAMHGsus2HAM": 7096,
    "HFMHGMHC+": 7097,
    "HAoHAoHAoHAoHAoHAoHAoHAo": 7098,
    "HbMHFMHD+HCMHGMHAmHFM": 7099,
    "HeoHem7HeoHem7": 7100,
    "HEMHEsus4HEMHEsus4HEMHEsus4HEMHEsus4": 7101,
    "HFD7HBo": 7102,
    "HaMHFmHFm": 7103,
    "HbmHFM7": 7104,
    "HDmHDmHDMHDm": 7105,
    "HFMHGD7HFMHGD7": 7106,
    "HDm7HDm7HFM7": 7107,
    "HNAHNAHDM": 7108,
    "HbMHdo": 7109,
    "Hesus2Hbsus2": 7110,
    "HG/o7HG/o7": 7111,
    "HbMHFMHCMHDm7": 7112,
    "Hasus2HC+": 7113,
    "HaMHaMHaMHNA": 7114,
    "HFMHbMHeM7": 7115,
    "HDmHem": 7116,
    "Ham7Hesus4": 7117,
    "HGMHGMHGm7HGm7": 7118,
    "HCMHCMHGMHCMHCM": 7119,
    "HgoHgM": 7120,
    "HGm7He+": 7121,
    "HBmHBmHBo": 7122,
    "HBMHCMHBM": 7123,
    "HdoHDmHDm": 7124,
    "HBD7HAM": 7125,
    "HE+HE+HE+": 7126,
    "HDMHDMHDMHDMHDMHDMHDMHDMHDMHDMHDMHDMHDM": 7127,
    "Hbsus2HFM7": 7128,
    "HGm7HbD7": 7129,
    "HDmHDMHDm7": 7130,
    "HEMHEM7HEMHEM": 7131,
    "HEmHEmHEMHEM": 7132,
    "HdmHAo": 7133,
    "HGmHGmHGm7HGm7": 7134,
    "HeMHbMHbM7": 7135,
    "HgmHEM": 7136,
    "HB+HeM": 7137,
    "HBmHAMHDM7": 7138,
    "HBM7Ham": 7139,
    "HCMHCmHFM": 7140,
    "HBmHFM7": 7141,
    "HE+HEm": 7142,
    "HCMHFmHFmHdM": 7143,
    "HGm7HFo": 7144,
    "HGsus4HGD7": 7145,
    "HEmHNAHNA": 7146,
    "Hd+HAD7": 7147,
    "HCmHCmHCmHCMHCM": 7148,
    "HDD7HGMHGMHGMHGM": 7149,
    "HDD7HDMHDM": 7150,
    "HDmHDmHCMHAm": 7151,
    "HGMHGMHGMHeM7": 7152,
    "HGM7HBmHGM7": 7153,
    "HF+HDmHF+": 7154,
    "HDmHGMHGM": 7155,
    "HaMHdMHaMHdMHaMHdMHaMHdM": 7156,
    "HED7HEMHAM": 7157,
    "HbmHbmHNA": 7158,
    "HdMHBMHdM": 7159,
    "HDmHFMHbM": 7160,
    "HeM7HCD7": 7161,
    "HGD7HFD7": 7162,
    "HDmHDMHDMHDM": 7163,
    "HeMHFm7": 7164,
    "HFm7HAo": 7165,
    "HCM7HCMHCM7HCM7": 7166,
    "HDD7HCD7": 7167,
    "HdMHdMHbMHbM": 7168,
    "HAm7HDM7": 7169,
    "HCMHCMHCMHCMHCsus2": 7170,
    "HCMHCMHCMHFsus2": 7171,
    "HbMHD+HbMHD+": 7172,
    "HaMHeMHCm7": 7173,
    "HeMHeMHDo": 7174,
    "HbMHNAHFM": 7175,
    "HGmHao": 7176,
    "HGMHdm7": 7177,
    "HED7HAMHDM": 7178,
    "HDMHDMHGMHGMHDMHDM": 7179,
    "HdMHFmHFm": 7180,
    "HGsus2HEmHEm": 7181,
    "HGm7HCm7HGm7HCm7": 7182,
    "HGMHFMHGMHDm7": 7183,
    "HbMHbMHbMHaMHCmHeMHFm7HbM": 7184,
    "HgM7Hasus2": 7185,
    "HbM7HbM7HGm7": 7186,
    "HeMHbMHGm": 7187,
    "HCMHgoHgo": 7188,
    "HbM7Hd+": 7189,
    "HGm7HeMHaM": 7190,
    "HCMHCMHCMHFMHCMHCMHCMHFM": 7191,
    "HbMHFMHCMHGM": 7192,
    "HeMHeMHCmHCm": 7193,
    "HgoHe+": 7194,
    "HbM7HbMHGm": 7195,
    "HD+Hdm": 7196,
    "HbMHbMHFMHFMHFMHFM": 7197,
    "HboHBM": 7198,
    "HBmHCMHBm": 7199,
    "HCmHCMHCMHCMHCM": 7200,
    "HEMHEMHAmHAmHEMHEMHAmHAm": 7201,
    "HbMHCMHFM7": 7202,
    "HDmHFMHGm7": 7203,
    "HCoHCoHCoHgo": 7204,
    "HdoHCD7HFmHdMHGm7": 7205,
    "HbMHBo": 7206,
    "HGmHGmHGsus2": 7207,
    "HDMHEMHBM": 7208,
    "HFMHGMHFMHGMHFMHGMHFMHGM": 7209,
    "HFMHFMHAmHAm": 7210,
    "HbMHeMHeMHeMHeM": 7211,
    "HAmHAMHDM": 7212,
    "HFm7Hb+": 7213,
    "HBoHFM7HDm7": 7214,
    "HBM7HBMHBM": 7215,
    "HbMHFMHbMHFMHbMHFMHbM": 7216,
    "HbMHbMHbM7HbM": 7217,
    "HFMHFMHFMHGM": 7218,
    "HBm7He+": 7219,
    "HbmHgm": 7220,
    "HDsus2HBm7": 7221,
    "HgMHBMHBMHBM": 7222,
    "HEsus2HEo": 7223,
    "HCoHaM7": 7224,
    "HFMHGMHAm7": 7225,
    "HGMHGMHCM7HCM7": 7226,
    "HGMHAMHFM": 7227,
    "Hdm7HEMHEM": 7228,
    "HDMHEmHDMHGM": 7229,
    "HDD7HGmHGm7": 7230,
    "HBmHg+": 7231,
    "HDsus2HDMHDMHDM": 7232,
    "HBmHAMHAMHAM": 7233,
    "HEMHEMHEMHEMHAM": 7234,
    "HFmHBM": 7235,
    "HgMHGMHaM": 7236,
    "HC+HEm7": 7237,
    "HamHboHamHEM7": 7238,
    "HDmHGMHFMHGM": 7239,
    "HE+HFM": 7240,
    "Hdm7HeM": 7241,
    "HgMHGo": 7242,
    "HGsus2HbM": 7243,
    "HDD7HGMHCMHGM": 7244,
    "HGMHGMHGMHBM": 7245,
    "HCMHAmHCMHAmHCMHAm": 7246,
    "HGoHFmHGo": 7247,
    "HaD7HdMHaD7HdM": 7248,
    "HDM7HDsus4": 7249,
    "HAM7HAm7": 7250,
    "HeMHaMHeM7": 7251,
    "HGMHDMHgm": 7252,
    "HaMHaMHaMHaMHaMHaMHaMHaMHaMHaMHaMHaMHaMHaMHaMHaM": 7253,
    "HCMHCMHCMHCMHCMHCMHFM": 7254,
    "HFoHGo": 7255,
    "HeM7HDM": 7256,
    "HAmHGMHDMHGM": 7257,
    "HED7Hgo": 7258,
    "HEm7Hbo": 7259,
    "HGMHCMHFsus2": 7260,
    "Hd+HAMHd+HAM": 7261,
    "HEm7HEm7HEm7HEm7HEm7HEm7HEm7HEm7HEm7HEm7HEm7HEm7HEm7HEm7HEm7HEm7": 7262,
    "HCmHCMHeM": 7263,
    "HBD7HBD7HEmHEm": 7264,
    "HAM7HC+": 7265,
    "HFoHgMHdMHBMHbm": 7266,
    "HeoHAm7": 7267,
    "HGMHgM7": 7268,
    "HaMHeMHeM7": 7269,
    "HBMHDM7": 7270,
    "HNAHNAHaM": 7271,
    "HDMHEMHgmHgm": 7272,
    "HBM7HFM": 7273,
    "HEMHDoHAoHeMHFMHbMHesus2HbMHesus2HbM": 7274,
    "HNAHGMHCM": 7275,
    "HdMHDM7": 7276,
    "HBMHBsus4": 7277,
    "HD+HNAHD+HNA": 7278,
    "HDm7HFMHDm7": 7279,
    "Hbo7Hbo7": 7280,
    "HAsus4HAsus4HAsus4": 7281,
    "HAmHGMHAM": 7282,
    "HFsus2HEm7": 7283,
    "HCMHEm7HEm": 7284,
    "HEmHEmHdo": 7285,
    "HEoHCM": 7286,
    "He+HFm7": 7287,
    "HDoHbsus2HbMHeMHeMHeMHbMHeMHeMHeM": 7288,
    "HCM7HCMHAm7": 7289,
    "HaMHdMHFm": 7290,
    "HDoHCmHDo": 7291,
    "HCMHCMHCMHDo": 7292,
    "HbMHbmHbMHbm": 7293,
    "HdoHEM": 7294,
    "HCD7HAm": 7295,
    "HFD7HbMHbMHeM": 7296,
    "HCMHFmHFmHFm": 7297,
    "HA+HNA": 7298,
    "HCMHAm7HFM7": 7299,
    "HdmHdM7": 7300,
    "HdD7Hgm7": 7301,
    "HDmHGMHCMHGM": 7302,
    "HDmHDmHEmHEm": 7303,
    "HD+HdM": 7304,
    "HGMHGMHGMHAM": 7305,
    "HEMHEMHgMHgM": 7306,
    "HBD7HNA": 7307,
    "HbD7HbD7HeMHeMHeM": 7308,
    "HDMHCsus2HCsus2": 7309,
    "Hdm7HdD7": 7310,
    "HEoHCMHFM": 7311,
    "HFMHDmHbMHGm7": 7312,
    "HED7HAMHAMHAM": 7313,
    "HdmHNAHNA": 7314,
    "HBm7HgmHBm7": 7315,
    "HBm7Heo": 7316,
    "HBMHEMHEM7": 7317,
    "HemHbMHbM": 7318,
    "HDmHbMHDm7": 7319,
    "HCMHDMHEM": 7320,
    "HGmHbMHD+": 7321,
    "HAmHAD7": 7322,
    "HED7HAmHED7": 7323,
    "HFMHFMHEMHEM": 7324,
    "HGm7HGm7HeM": 7325,
    "HbMHFMHbMHFMHbM": 7326,
    "HDm7HAmHAm": 7327,
    "HDmHDmHbMHDm": 7328,
    "Ha+HDo": 7329,
    "HGMHDMHBm7": 7330,
    "Ham7HaD7": 7331,
    "HbMHFMHD+HCMHGMHAmHFMHD+": 7332,
    "HDD7HeM7": 7333,
    "HBD7HEmHEmHEm": 7334,
    "HbMHbMHbMHbMHeMHeM": 7335,
    "HbMHeMHbMHeM7": 7336,
    "HaMHdmHdm": 7337,
    "HNAHNAHNAHBM": 7338,
    "HBm7HBm7HAMHAM": 7339,
    "HDM7Hdm7HDM7": 7340,
    "HFmHaMHFmHaMHFm": 7341,
    "HEmHAm7HEm": 7342,
    "HAsus2HAmHAm": 7343,
    "HdM7HdM7HdM": 7344,
    "HFsus4HFsus4HFsus4HFsus4": 7345,
    "HbmHCMHFm": 7346,
    "HEMHEMHamHam": 7347,
    "HeMHeMHeMHaM": 7348,
    "HEMHDMHdM": 7349,
    "HCmHGMHCmHeM": 7350,
    "HGMHFMHAM": 7351,
    "HCMHGMHGMHGMHCM": 7352,
    "HDMHDMHDMHDMHDMHDsus2": 7353,
    "HBm7HEMHBM": 7354,
    "HgD7HBmHgD7": 7355,
    "HCoHeM7": 7356,
    "HBMHAMHAM": 7357,
    "HNAHFMHeM": 7358,
    "HCMHEmHCMHdo": 7359,
    "HFMHbm7": 7360,
    "HCD7HEoHCD7": 7361,
    "HGmHeMHGmHCm7": 7362,
    "HDmHDMHGM": 7363,
    "HFsus2HEmHeM": 7364,
    "HGmHeM7HGm7HeM7": 7365,
    "HbM7HbM7HbM7HbM7HbM7HbM7": 7366,
    "HAmHgM": 7367,
    "HAmHGMHFMHCM": 7368,
    "HgMHgMHGMHGM": 7369,
    "HCm7HaM7HFm7": 7370,
    "HFmHFmHNA": 7371,
    "HDmHFMHFo": 7372,
    "HCMHDmHFMHEm": 7373,
    "HE+Hgm": 7374,
    "HFM7HbMHbM7": 7375,
    "HGmHGmHeMHbM": 7376,
    "HGm7HeMHbMHeM": 7377,
    "Hdm7HAMHAM": 7378,
    "HEm7HCMHEm": 7379,
    "HaMHeMHFmHGMHaM": 7380,
    "HNAHNAHNAHNAHNAHNAHNAHNAHNAHNAHNAHNAHNAHNAHNAHNAHNAHNAHNAHNAHNAHNA": 7381,
    "HGMHDMHBM": 7382,
    "HBmHBmHBM": 7383,
    "HAm7HeM": 7384,
    "HFoHbD7": 7385,
    "HGmHGmHGmHGmHGmHGmHGmHGmHGmHGmHGmHGm": 7386,
    "HNAHGM7": 7387,
    "Hdsus4Hgm": 7388,
    "HFmHbsus4": 7389,
    "HCD7HCsus2": 7390,
    "HFsus2HD+": 7391,
    "HDM7HEm": 7392,
    "HBmHBmHDMHDM": 7393,
    "HD+HGMHGM": 7394,
    "HBsus2HBM7": 7395,
    "HbMHFMHFsus2": 7396,
    "HEm7HDMHAD7": 7397,
    "HDMHDMHDMHEm7": 7398,
    "HEMHNAHEMHNAHEMHNAHEMHNA": 7399,
    "HdMHgmHdM": 7400,
    "HGmHGmHGmHbM": 7401,
    "Hdm7HBm7": 7402,
    "HCsus2HGMHDM": 7403,
    "HCM7HCMHFM": 7404,
    "HEMHDoHAoHeMHFMHbMHesus2HbMHesus2HbMHDD7HGmHbMHbM": 7405,
    "HCmHGD7HCm": 7406,
    "HBmHAMHEM": 7407,
    "HC+HFmHFm": 7408,
    "HCMHAMHAMHAM": 7409,
    "HFD7HeMHeM": 7410,
    "Hd+HdM7": 7411,
    "HDsus2HAsus4": 7412,
    "HCmHa+": 7413,
    "HCmHCmHGm": 7414,
    "Hesus2Hbsus4": 7415,
    "HCMHCMHCMHGMHCMHCMHCMHGM": 7416,
    "HEMHdD7": 7417,
    "HFsus2HGD7": 7418,
    "HdmHemHGmHeMHdmHem": 7419,
    "HDMHDMHDmHDmHDmHDm": 7420,
    "HGMHCMHGMHCsus2": 7421,
    "HdMHbMHdM": 7422,
    "HbMHbMHAM": 7423,
    "HCoHFo": 7424,
    "HbmHDmHAmHAm": 7425,
    "HF+HEo": 7426,
    "HAMHEM7": 7427,
    "HCoHGm7": 7428,
    "HBsus2Hd+": 7429,
    "HCmHCoHCMHE+HCoHCm7HFMHFsus2HGm7HGMHGsus2HAm7HCmHCoHCMHE+HCoHCm7HFMHFsus2HGm7HGMHGsus2HAm7HCmHCoHCMHE+HCoHCm7HFMHFsus2HGm7HGMHGsus2HAm7HCmHCoHCMHE+HCoHCm7HFMHFsus2HGm7HGMHGsus2HAm7HCmHCoHCMHE+HCoHCm7HFMHFsus2HGm7HGMHGsus2HAm7HCmHCoHCMHE+HCoHCm7HFMHFsus2HGm7HGMHGsus2HAm7HCmHCoHCMHE+HCoHCm7HFMHFsus2HGm7HGMHGsus2HAm7HCmHCoHCMHE+HCoHCm7HFMHFsus2HGm7HGMHGsus2HAm7": 7430,
    "HDm7HCM": 7431,
    "HDsus2Hdo": 7432,
    "HeMHeMHeMHeo": 7433,
    "HBm7HBm7HBm7HEm7": 7434,
    "HGMHGMHEmHEmHGMHGMHEmHEm": 7435,
    "HFmHaD7": 7436,
    "HBMHGMHDMHAM": 7437,
    "Hgm7HDMHAM": 7438,
    "HaoHAsus2": 7439,
    "HCMHFMHDMHGM": 7440,
    "HDMHGmHFMHeM": 7441,
    "HaMHFm7HeM": 7442,
    "HBsus2HBMHBM": 7443,
    "HaMHFMHNAHNAHDmHamHFsus2HaMHDmHam": 7444,
    "HNAHbMHNAHeMHFMHbMHeM": 7445,
    "HGmHeMHCmHFM": 7446,
    "HaM7HeMHaM7": 7447,
    "Hdm7Heo": 7448,
    "HAM7Ham": 7449,
    "HBMHBMHNAHNA": 7450,
    "Hem7Hbo": 7451,
    "HDMHDMHDMHDsus4": 7452,
    "HBmHgMHBM": 7453,
    "HCoHBm": 7454,
    "HFoHCMHCm": 7455,
    "HFsus2HCM7": 7456,
    "Hbsus4Hbsus2": 7457,
    "HCMHAm7HDmHDm": 7458,
    "HDMHDMHBo": 7459,
    "HeM7HeM7HeM7HeM7HeM7HeM7HeM7HeM7": 7460,
    "HGMHgmHBMHCM7HEm": 7461,
    "HD+HEm7": 7462,
    "HGmHGmHgmHgm": 7463,
    "HCmHgm": 7464,
    "HbMHFMHdM": 7465,
    "HCMHCMHCm7HCm7": 7466,
    "HCMHCMHBmHBm": 7467,
    "Hb+HbD7": 7468,
    "HFm7HaMHeM": 7469,
    "HFMHFMHFMHCMHFM": 7470,
    "HNAHGMHDM": 7471,
    "Hgsus4Hgm": 7472,
    "HgmHGM": 7473,
    "HDmHesus2": 7474,
    "HgMHdMHgMHdMHgMHdM": 7475,
    "HEmHEmHEM": 7476,
    "HFM7HAm7HFM7": 7477,
    "Hdsus2HbM": 7478,
    "Hbsus2HeMHbsus2HeM": 7479,
    "HDmHAm7HDm": 7480,
    "HNAHBo": 7481,
    "Ham7HdM7": 7482,
    "HCsus4HCsus4HCsus4": 7483,
    "He+HNAHNA": 7484,
    "HbM7Hbo": 7485,
    "HbMHbMHCMHCMHbMHbM": 7486,
    "HbM7HGD7": 7487,
    "HBmHAMHGMHgmHGMHaoHAM": 7488,
    "HemHdM7": 7489,
    "HEMHEMHAMHEMHAM": 7490,
    "HaMHaMHdm": 7491,
    "HFm7HGMHFm7": 7492,
    "HCMHBmHCMHBm": 7493,
    "HgMHgMHBM7": 7494,
    "HBoHE/o7HBoHE/o7": 7495,
    "HGMHGMHGMHGmHGM": 7496,
    "Hgm7Hgm7HgmHgm": 7497,
    "HFMHbMHFMHFMHFM": 7498,
    "HeMHeMHasus2": 7499,
    "HdM7HFmHdM7": 7500,
    "HAMHAMHAmHAM": 7501,
    "HCMHdMHdM": 7502,
    "HAoHEm7": 7503,
    "HC+Hdo": 7504,
    "HAD7HBm7": 7505,
    "HDMHGMHDMHGM7": 7506,
    "HAM7HAM7HAM7HAM": 7507,
    "He+HGm": 7508,
    "HGm7HDm7HGm7": 7509,
    "HbM7Hem": 7510,
    "HGm7HDm7HDm7": 7511,
    "HDMHGMHBm7": 7512,
    "HFMHFMHbM7HbM7": 7513,
    "HaoHDM": 7514,
    "HGMHGsus2HGsus2": 7515,
    "Hbsus2HaM": 7516,
    "Hdm7HBMHBM": 7517,
    "HEMHEmHEMHEM": 7518,
    "HDMHGMHDMHBm": 7519,
    "HCmHbMHaMHbM": 7520,
    "HCmHCmHFMHFM": 7521,
    "HFMHFMHFMHFm": 7522,
    "HAMHDMHAD7": 7523,
    "HAMHCMHDM": 7524,
    "HGMHFsus2HGMHFsus2": 7525,
    "HDMHDMHAMHDMHAM": 7526,
    "HCm7He+": 7527,
    "He+HGM": 7528,
    "HEmHEmHEmHEmHEMHEM": 7529,
    "Hesus2Heo": 7530,
    "HDm7HGMHGM": 7531,
    "HGMHGMHGMHGMHGMHDM": 7532,
    "HCMHFMHCD7": 7533,
    "HEMHdMHgM": 7534,
    "HbmHbmHbmHbm7": 7535,
    "HCsus2HCMHGM": 7536,
    "HFMHDMHGM": 7537,
    "HgoHgoHGMHGM": 7538,
    "HFM7HAmHAm": 7539,
    "HBMHED7": 7540,
    "HAoHGM7": 7541,
    "HEMHAMHEMHgm": 7542,
    "HBoHCmHCm": 7543,
    "HEMHNAHEM": 7544,
    "HF+Hd+": 7545,
    "HaMHaMHaMHFm": 7546,
    "HboHED7": 7547,
    "Hb+HbMHbM": 7548,
    "HEmHEmHEmHEmHEmHEmHEmHEmHEm": 7549,
    "HG+HGMHG+": 7550,
    "HDD7HGmHbMHbMHeM7HDMHbMHeM7HDMHGmHbMHbMHbMHbMHbM": 7551,
    "Ha+HG+": 7552,
    "HCMHCMHFMHCMHCM": 7553,
    "HgMHNAHgM": 7554,
    "HamHAsus2": 7555,
    "HCmHaMHeMHbM": 7556,
    "HEoHgo": 7557,
    "HgoHGMHGMHGM": 7558,
    "HDmHAMHAM": 7559,
    "HdMHbm7HdM": 7560,
    "HAm7HAsus4": 7561,
    "Hg+HDo": 7562,
    "HCoHe+": 7563,
    "HFm7HCm7HCm7": 7564,
    "HDMHDMHeM7": 7565,
    "HaMHeMHbMHCm7": 7566,
    "HCmHCMHCMHCM": 7567,
    "HAsus2HBo": 7568,
    "HCmHFmHCmHFmHCmHFm": 7569,
    "HCD7HdD7": 7570,
    "HDoHbD7HCmHeM": 7571,
    "HDoHbsus2HbMHeMHeMHeMHbMHeMHeMHeMHbMHeMHbMHeMHbMHeM": 7572,
    "HFmHFmHgMHgM": 7573,
    "HCoHdD7": 7574,
    "HFM7HdM": 7575,
    "HAMHAMHDm7": 7576,
    "HeMHbsus2": 7577,
    "HdoHDMHDMHDM": 7578,
    "HGMHgmHdmHDMHDMHAM": 7579,
    "HGm7HAM": 7580,
    "HCMHCMHFMHFMHCMHCMHFM": 7581,
    "HEMHEMHEMHEMHEm": 7582,
    "HCm7HFMHeM": 7583,
    "HBMHBMHdmHdm": 7584,
    "HBsus4HAM": 7585,
    "HEMHBMHEmHEm": 7586,
    "HFMHFM7HFM7": 7587,
    "HAD7HGD7": 7588,
    "HgMHgMHgmHgm": 7589,
    "HEsus2HGM7": 7590,
    "HFMHDMHNAHNA": 7591,
    "HdMHdMHem7": 7592,
    "HCmHCMHGM": 7593,
    "HbmHAo": 7594,
    "HdoHAo": 7595,
    "HFMHeMHeM": 7596,
    "HBsus2Hdsus2": 7597,
    "HbD7HNAHeM": 7598,
    "HGMHasus2": 7599,
    "HCmHGMHGMHGM": 7600,
    "HDMHAmHGM": 7601,
    "HGD7HBoHGD7": 7602,
    "HFD7HAoHAo": 7603,
    "HEm7HCMHEm7": 7604,
    "HEMHEMHEMHEsus4": 7605,
    "HFMHFMHFsus4": 7606,
    "HCMHCMHCMHCMHCMHFMHFM": 7607,
    "HaMHdMHaMHbm": 7608,
    "HGMHCMHAmHDm": 7609,
    "HgoHGsus2": 7610,
    "HeM7HFMHeM7HFM": 7611,
    "HGmHFMHNA": 7612,
    "HDMHDMHAMHgm": 7613,
    "HDMHAMHBm7": 7614,
    "HDMHDMHGMHEm": 7615,
    "HeMHeM7HeMHeM": 7616,
    "HFmHFMHFmHFm": 7617,
    "HDM7HEm7HDM7HEm7": 7618,
    "HC+HCMHCM": 7619,
    "HaMHaMHdM7": 7620,
    "Hbm7He+": 7621,
    "HCMHAMHCMHDM": 7622,
    "HbmHbm7Hbm7": 7623,
    "HEmHeo": 7624,
    "HGsus4HGsus4HGsus4HGsus4": 7625,
    "HGmHDmHbM": 7626,
    "HAmHDmHDmHDm": 7627,
    "HdmHBm7": 7628,
    "HDsus4HGM7": 7629,
    "HCMHGMHFMHCMHCM": 7630,
    "HGmHGmHDD7": 7631,
    "HGmHDmHDm7": 7632,
    "HEoHFMHCM": 7633,
    "HCM7HCMHDm": 7634,
    "HDD7HDMHDD7": 7635,
    "HFm7HEm7": 7636,
    "HBoHd+": 7637,
    "HaMHdMHdM7": 7638,
    "HgoHCM7Hgo": 7639,
    "Hbsus2HgM": 7640,
    "HAmHDMHCM": 7641,
    "HCMHFMHEM": 7642,
    "HGMHGMHCMHCM7": 7643,
    "HAmHCMHEM": 7644,
    "HFD7Hbo": 7645,
    "HAMHBMHEM": 7646,
    "HaMHasus4": 7647,
    "HCmHFsus4": 7648,
    "HdMHdMHgMHdM": 7649,
    "HemHaMHemHaM": 7650,
    "HFsus2HbMHbM": 7651,
    "HEsus2HBMHBM": 7652,
    "HGm7HEm": 7653,
    "HFD7HFMHFD7": 7654,
    "HDMHdsus2": 7655,
    "HGmHeMHGmHeM7": 7656,
    "HGmHGm7HeM": 7657,
    "Hdm7Hdm7Hgm7": 7658,
    "Hgm7HDsus2": 7659,
    "HGMHGMHeM7": 7660,
    "HCMHbmHCMHbm": 7661,
    "HbMHFMHbMHbMHbMHbM": 7662,
    "HaMHaMHGmHGm": 7663,
    "HGMHGMHgM": 7664,
    "HBmHgMHgM": 7665,
    "HCmHbMHeMHeM": 7666,
    "HEMHCMHAm": 7667,
    "HAmHAmHAmHAmHAMHAM": 7668,
    "HdoHao": 7669,
    "HbMHGD7": 7670,
    "HEMHgmHgmHgm": 7671,
    "HgoHD+": 7672,
    "HFMHAmHDm": 7673,
    "HaMHaMHaMHC+": 7674,
    "HC+HCMHFm": 7675,
    "HdMHgMHem7": 7676,
    "HDmHFD7": 7677,
    "HFmHgsus2": 7678,
    "HCm7HGsus4": 7679,
    "HbD7HD+": 7680,
    "HbMHeMHbM7": 7681,
    "HdmHdmHAM7HAM7": 7682,
    "Hesus2Hasus2": 7683,
    "HaMHE+": 7684,
    "HGMHDD7HGMHGM": 7685,
    "HDmHAmHbMHCMHDm": 7686,
    "HgoHCsus2": 7687,
    "HEMHAmHBo": 7688,
    "HFoHEM": 7689,
    "HEmHB+": 7690,
    "HDMHEMHgM": 7691,
    "HCMHCMHCMHCMHCMHFM7": 7692,
    "HAMHAMHAMHAMHgm": 7693,
    "HCMHCMHCMHCMHCMHNA": 7694,
    "HbMHbMHFMHFMHbMHbM": 7695,
    "HdoHF+": 7696,
    "HaMHdMHbm7": 7697,
    "HCD7HFMHCMHFM": 7698,
    "HDMHCMHDm": 7699,
    "Hem7HeMHem7": 7700,
    "HbmHbMHbM": 7701,
    "HeoHDo": 7702,
    "Ha+HFM7": 7703,
    "Hesus2HDo": 7704,
    "Ham7HdD7": 7705,
    "HaMHaM7HaM": 7706,
    "HeM7HFMHFM": 7707,
    "HdMHbmHem": 7708,
    "HDMHDMHCMHDM": 7709,
    "HdmHBm": 7710,
    "HDm7HDm7HDm7HDm7HDm7": 7711,
    "HaMHDoHaM": 7712,
    "HFmHFm7HFmHFm": 7713,
    "HEmHbm": 7714,
    "HbmHeMHbm": 7715,
    "HDMHDMHDMHAm7": 7716,
    "HFm7HaD7": 7717,
    "HFM7HGsus2": 7718,
    "HCm7HeMHesus2": 7719,
    "HGsus4HCsus2": 7720,
    "HAmHd+HDm": 7721,
    "HCmHGm7HGm7": 7722,
    "HFmHaMHCmHeM": 7723,
    "Hb+HNA": 7724,
    "HEoHCM7": 7725,
    "HEM7HaM": 7726,
    "HF+HFM7": 7727,
    "HCmHFm7HeM": 7728,
    "HAmHFMHCMHCM": 7729,
    "HCMHCMHCMHbsus2": 7730,
    "HAMHAMHAMHAMHAMHDM": 7731,
    "HCM7HFMHCM": 7732,
    "HDM7HDM7HDM7HDM7HDM7HDM7": 7733,
    "HbM7HbM7HeM7HeM7": 7734,
    "HDMHCM7HDMHCM7": 7735,
    "HEm7HEm7HEm7HEm7HEm7HEm7": 7736,
    "HbM7HdM": 7737,
    "HDsus2HDsus2HDsus2HDsus2HDsus2HDsus2HDsus2HDsus2": 7738,
    "HbMHCMHD+": 7739,
    "HCmHaMHaM7": 7740,
    "HDMHDMHAmHAm": 7741,
    "HboHFo": 7742,
    "HAM7HAD7": 7743,
    "HD+HAmHGm": 7744,
    "HCMHCMHCMHAM": 7745,
    "HFmHdMHdMHdM": 7746,
    "HFM7HGMHGM": 7747,
    "HEMHEMHCMHAM": 7748,
    "HgMHgMHemHem": 7749,
    "HCmHCmHCmHCmHCmHCm7": 7750,
    "HDMHCD7": 7751,
    "HNAHGsus2": 7752,
    "HCmHCmHeMHFMHCmHCmHeMHFM": 7753,
    "HDmHGMHEm": 7754,
    "HGmHeM7HFM": 7755,
    "HamHgM7": 7756,
    "HgoHCmHgoHCo": 7757,
    "HGmHDmHEo": 7758,
    "HGm7HCMHGm7": 7759,
    "HBm7HEm7HEm7": 7760,
    "HeMHbMHGm7": 7761,
    "HAmHAmHGMHGMHAmHAm": 7762,
    "HbMHFMHCMHCM": 7763,
    "HBm7HDMHGM7": 7764,
    "HGMHDM7HDM7": 7765,
    "He+HFm": 7766,
    "HdmHgo": 7767,
    "HdM7HbmHbm": 7768,
    "HGmHGmHGMHGm": 7769,
    "HemHbmHemHbm": 7770,
    "HDmHDmHeM": 7771,
    "HCMHAmHFMHFMHCMHAmHFMHFM": 7772,
    "HbMHFMHD+HCMHGMHAmHFMHD+HbMHFMHD+HCMHGMHAmHFMHD+": 7773,
    "HCMHGm7HGm7": 7774,
    "HDmHDmHbMHGm": 7775,
    "HDoHBm": 7776,
    "HCm7HBo": 7777,
    "HdMHaMHgM": 7778,
    "HFMHFMHeMHFM": 7779,
    "HeMHbm7": 7780,
    "HAmHDMHGm": 7781,
    "HgD7HgD7HgD7": 7782,
    "HBsus2HBm": 7783,
    "HAsus2HCM7": 7784,
    "HCD7HCMHCM": 7785,
    "HEM7Hdsus2": 7786,
    "HGMHGmHGm7": 7787,
    "HDMHDMHDsus2HDsus2": 7788,
    "HaoHem": 7789,
    "HGM7HDM7HGM7HDM7": 7790,
    "HCMHCMHCMHCMHCMHCMHCMHCMHCM": 7791,
    "HFmHFmHdMHdM7": 7792,
    "HEMHAMHdm7": 7793,
    "HDMHDMHDMHDMHAM": 7794,
    "HCmHCmHCMHCM": 7795,
    "Hg+HgM": 7796,
    "HGMHgD7": 7797,
    "HCD7HdM": 7798,
    "HDMHDMHDMHDMHGMHGMHGMHGM": 7799,
    "HbMHbMHeMHeMHeM": 7800,
    "HBoHdm7": 7801,
    "HAm7HF+": 7802,
    "HD+HD+HeMHeM": 7803,
    "HEMHDMHEMHAMHEMHDMHEMHAM": 7804,
    "HDMHFMHCMHGM": 7805,
    "HGmHDD7HGm": 7806,
    "HCmHbMHCm7": 7807,
    "HAoHFM7": 7808,
    "HAMHEMHdm": 7809,
    "HDMHBmHEm7": 7810,
    "HEMHasus2": 7811,
    "HGm7HFMHbM": 7812,
    "HbMHbMHbMHbMHNA": 7813,
    "HEm7HDm7HEm7HDm7": 7814,
    "HFm7HCsus2": 7815,
    "HAmHaoHAm": 7816,
    "HgM7Hem7HgM7": 7817,
    "HFM7HFo": 7818,
    "HDsus4HGMHGM": 7819,
    "HGm7HGm7HeM7HeM7": 7820,
    "HDD7HDo": 7821,
    "HdmHgsus2": 7822,
    "HCMHCMHCMHCMHFM7": 7823,
    "HEMHEmHEsus2": 7824,
    "Hesus4HeM7": 7825,
    "HDsus2HGMHDsus2": 7826,
    "HCMHGMHDMHEM": 7827,
    "HCmHaMHFm7": 7828,
    "HdmHdmHdmHdM": 7829,
    "HdMHdMHC+": 7830,
    "HDMHaM7": 7831,
    "HAMHEMHEsus2": 7832,
    "HFMHFM7HCMHCM": 7833,
    "HC+HE+": 7834,
    "HaoHe+": 7835,
    "HaMHaMHeMHbM": 7836,
    "HdmHDM": 7837,
    "HDMHDM7HGMHGM": 7838,
    "HdMHdMHd+": 7839,
    "HAoHBm7": 7840,
    "HDMHEMHFM": 7841,
    "HFoHbo": 7842,
    "HbMHGmHeM": 7843,
    "HAoHGmHAoHGmHD+HeD7HDMHDMHDMHDMHDMHGmHGmHGmHCm7HCm7HFD7HFD7HbMHFMHeMHbMHCmHbMHCD7HCD7HCD7HCD7HFMHbmHFMHbmHFMHNAHDmHeoHbMHbMHeMHFoHCmHbM7HDmHesus2HbMHDmHCmHFsus2": 7844,
    "HbD7HbMHbD7": 7845,
    "HCMHFMHGm": 7846,
    "HbMHbMHFD7HbM": 7847,
    "HAMHAMHAMHAm": 7848,
    "HBMHEMHEMHEMHEM": 7849,
    "HAoHFMHAo": 7850,
    "HDsus4HAm7": 7851,
    "HbMHFMHGmHDm": 7852,
    "HdD7Hbm7": 7853,
    "HDMHDMHEmHdo": 7854,
    "HaMHeMHaMHCmHaMHeMHFmHeM": 7855,
    "HeM7HeM7HaM7": 7856,
    "HCsus4HFsus2": 7857,
    "HbM7HGM": 7858,
    "HBMHDMHAM": 7859,
    "HGmHem": 7860,
    "HDoHAm7": 7861,
    "HeMHeMHbMHFM": 7862,
    "HFMHDm7HFMHFM": 7863,
    "HBMHgMHBMHBM": 7864,
    "HGoHd+": 7865,
    "HamHemHamHem": 7866,
    "HAmHFMHFMHFMHFM": 7867,
    "HNAHaM7": 7868,
    "HGsus2HCM": 7869,
    "HDmHDmHbMHaM": 7870,
    "HGMHEMHBM": 7871,
    "HGMHCmHGm": 7872,
    "HGmHGMHCmHCm": 7873,
    "HBMHgMHNA": 7874,
    "He+HBsus2": 7875,
    "HGD7HGD7HCMHCMHGD7HGD7HCMHCM": 7876,
    "HD+HbMHbMHbM": 7877,
    "HEmHBmHBm": 7878,
    "HBmHBmHEm7": 7879,
    "HCmHEo": 7880,
    "HC+Hao": 7881,
    "HDMHDMHDMHEM": 7882,
    "HDmHDMHbM": 7883,
    "Hbsus2HbMHbsus2": 7884,
    "HaMHFMHNAHNAHDmHamHFsus2HaMHDmHamHGm7HCm": 7885,
    "HgmHED7": 7886,
    "HFm7HFm7HeMHeMHeMHFM": 7887,
    "HgmHgmHDM7HDM7": 7888,
    "HGMHGmHDm": 7889,
    "HBm7HGM7HBm7HGM7": 7890,
    "HaMHa+HaMHa+": 7891,
    "HBoHBoHEm7": 7892,
    "HFMHFMHbsus2": 7893,
    "HemHemHemHemHem": 7894,
    "HG+HD+": 7895,
    "Hgsus2HAsus2": 7896,
    "HAmHAMHAm7": 7897,
    "HCm7HC+": 7898,
    "HCoHbm7HgM7": 7899,
    "HCmHCmHaMHaMHCmHCm": 7900,
    "HBmHGMHBmHGMHBmHGMHBmHGM": 7901,
    "HbMHbMHFD7HAo": 7902,
    "HamHaMHam": 7903,
    "HFMHFMHFMHCsus4": 7904,
    "HFM7HEM7": 7905,
    "HbMHbMHDm7HDm7": 7906,
    "HFMHFMHAMHAM": 7907,
    "HD+HGMHD+": 7908,
    "HaMHeMHDo": 7909,
    "HCD7HEm": 7910,
    "HbMHbMHbMHesus2": 7911,
    "HDmHFMHGM": 7912,
    "HEMHEMHEMHEMHEMHEMHEMHEMHEMHEM": 7913,
    "HCMHGMHGsus2": 7914,
    "HFmHFmHFo": 7915,
    "HCmHeMHFM": 7916,
    "HeD7HC+": 7917,
    "HeoHAm": 7918,
    "HDMHDMHBMHBM": 7919,
    "HEM7HEo": 7920,
    "HEm7HAMHEmHFMHbM7": 7921,
    "HGoHbM7": 7922,
    "HCMHDMHBmHEm": 7923,
    "HeoHEmHEm": 7924,
    "HGMHEmHCM7": 7925,
    "HdmHEm7": 7926,
    "HB/o7HbM7": 7927,
    "HAsus2HGM": 7928,
    "HCsus2HFMHCM": 7929,
    "HGMHAMHGMHAMHGMHAM": 7930,
    "HeMHeMHDMHDMHeMHeMHDMHDM": 7931,
    "HaM7HaM7HFm7HFm7": 7932,
    "HNAHCo": 7933,
    "HDMHDMHGMHdo": 7934,
    "HGoHFm7": 7935,
    "He+Hbo": 7936,
    "HEoHBo": 7937,
    "HbMHbMHbMHbMHbMHbMHeM": 7938,
    "HFMHNAHNAHNA": 7939,
    "HaMHFMHaM": 7940,
    "HbMHFMHCMHDmHDm": 7941,
    "HgMHgMHEMHEMHgMHgM": 7942,
    "HgMHgMHgMHgm": 7943,
    "HC+HFD7": 7944,
    "HDoHeMHDoHeM": 7945,
    "HDsus2HBm": 7946,
    "HCMHGMHCMHEm": 7947,
    "HbMHGm7HeM7": 7948,
    "HbmHaMHgM": 7949,
    "HEsus4HAMHAM": 7950,
    "HCM7HEmHEmHEm": 7951,
    "HdoHdsus2": 7952,
    "HaMHaMHFM": 7953,
    "HaMHGMHCm": 7954,
    "HGMHCMHCMHCM7": 7955,
    "HdmHFm": 7956,
    "HAm7HAm7HGMHGM": 7957,
    "HGMHgMHBM": 7958,
    "HdoHDMHdo": 7959,
    "HEMHED7HAmHAm": 7960,
    "HCmHem7": 7961,
    "HdmHEMHBM": 7962,
    "Hgm7HEM7": 7963,
    "Hd+HGm": 7964,
    "HDMHDMHEo": 7965,
    "HAMHgm7HAMHgm7": 7966,
    "HCMHDMHGmHGm": 7967,
    "HDMHDM7HAD7HDM7": 7968,
    "HbMHbMHbMHbD7": 7969,
    "HBsus2HBm7": 7970,
    "HAD7HDMHDM7": 7971,
    "HgM7HDM7": 7972,
    "HEm7HFM7HEm7": 7973,
    "HGm7HGM7": 7974,
    "HCD7Hdo": 7975,
    "HCsus2HAm": 7976,
    "HEsus4HED7": 7977,
    "HFD7HAM": 7978,
    "HeMHbMHeMHeMHeM": 7979,
    "HgmHgmHDM7": 7980,
    "HgmHgmHgmHgmHgmHgmHgm": 7981,
    "HDsus2HE+": 7982,
    "HCMHBmHBm": 7983,
    "HDMHNAHDMHNAHDMHNA": 7984,
    "HAm7HAm7HAm7HAm7HAm7HAm7HAm7": 7985,
    "HAMHDmHGm7": 7986,
    "HCmHDsus4": 7987,
    "HCsus4HNA": 7988,
    "HAmHGMHGM7": 7989,
    "HFD7HFsus2": 7990,
    "HCsus4HCMHCsus4": 7991,
    "HbmHbmHbmHgM": 7992,
    "HdMHBsus2": 7993,
    "HCMHaMHbM": 7994,
    "Hg+HGm": 7995,
    "HBsus2HAM7": 7996,
    "HbMHbMHeM7HeM7": 7997,
    "HD+HbMHeMHeM": 7998,
    "HbM7HAm7HbM7HAm7": 7999,
    "HGMHGMHGMHGMHGM7": 8000,
    "HbMHCMHbM7": 8001,
    "HFM7HFM7HFM7HFM7HFM7HFM7": 8002,
    "HAsus2HAmHAsus2": 8003,
    "HAmHFMHGMHGM": 8004,
    "HDsus2HDmHDsus2": 8005,
    "HAmHDmHCMHDm": 8006,
    "HFmHdMHaMHbm": 8007,
    "HFmHFmHFmHbm": 8008,
    "HaMHeMHesus2": 8009,
    "HEMHEMHEMHEMHEMHEsus2": 8010,
    "HGmHFMHDm": 8011,
    "HdmHdmHaMHaM": 8012,
    "HeMHGmHeM": 8013,
    "HNAHNAHCMHNA": 8014,
    "HGmHFMHbMHbM": 8015,
    "HBD7HAM7": 8016,
    "HG+HB+": 8017,
    "HdMHaMHNA": 8018,
    "HaM7HCM7": 8019,
    "HCmHGmHGM": 8020,
    "HeMHFD7": 8021,
    "HCMHCMHCmHeM": 8022,
    "HbMHCmHaMHeMHbM": 8023,
    "HDMHAMHGMHGM": 8024,
    "HdmHdmHdmHAM": 8025,
    "HamHEMHdm": 8026,
    "HCMHEMHCMHEMHCMHEM": 8027,
    "HAMHAMHAMHDMHAM": 8028,
    "HgmHFm": 8029,
    "HdoHCD7HFmHdMHGm7HeD7HaMHaM": 8030,
    "HaM7HCsus2": 8031,
    "HGoHFMHGo": 8032,
    "HCMHFmHeM": 8033,
    "HCmHaMHbMHeM": 8034,
    "HD/o7HD/o7": 8035,
    "HamHC+": 8036,
    "HGsus2Heo": 8037,
    "HEMHdmHEMHdmHEMHdm": 8038,
    "HCM7HAm7HAm7": 8039,
    "HgoHGmHGm": 8040,
    "HAMHDmHAMHDmHAMHDmHAMHDm": 8041,
    "HBmHBMHEm": 8042,
    "HeoHeoHeM": 8043,
    "HGMHDMHDm7": 8044,
    "HEsus2Hd+": 8045,
    "HGmHGmHCmHGm": 8046,
    "HAmHAm7HAmHAM": 8047,
    "HdD7HGMHgmHBMHCM7HEm": 8048,
    "HAMHEMHAM7": 8049,
    "HFmHFmHDo": 8050,
    "HEMHNAHAM": 8051,
    "HdM7HFM7": 8052,
    "HDoHbM7": 8053,
    "HamHam7HamHam7": 8054,
    "HEm7HEm7HEm7HGM": 8055,
    "HGmHFMHCmHDM": 8056,
    "HFD7HbD7": 8057,
    "HamHeM7": 8058,
    "HbMHbMHbMHbMHbMHeM": 8059,
    "HbMHbM7HbMHbM": 8060,
    "Hesus2HbMHesus2": 8061,
    "Hbsus2HCMHFM": 8062,
    "HCmHGMHGm": 8063,
    "HaMHDm": 8064,
    "HCm7HDm7HCm7HDm7": 8065,
    "HAoHBm": 8066,
    "HBoHCMHBo": 8067,
    "HgM7HdMHgM7": 8068,
    "HCsus2HNAHNA": 8069,
    "HeD7Hdo": 8070,
    "HdM7Hbm7HdM7Hbm7": 8071,
    "HGMHGmHGMHeM7": 8072,
    "HDMHDMHBm7HBm7": 8073,
    "HGMHCMHEm7": 8074,
    "HCMHCD7HCMHCD7": 8075,
    "HDMHgD7": 8076,
    "HEsus2HEmHEsus2HEm": 8077,
    "HBmHEMHBmHEMHEm": 8078,
    "HGMHGMHCsus2": 8079,
    "HDmHCMHGM": 8080,
    "HdM7HCD7": 8081,
    "HgmHgmHBm7": 8082,
    "HDmHA+": 8083,
    "HDMHeoHeo": 8084,
    "HDMHFMHEM": 8085,
    "HDmHDmHDmHAM": 8086,
    "HbMHeo": 8087,
    "HNAHNAHGM": 8088,
    "HDMHCMHeM": 8089,
    "Hbsus2HaM7": 8090,
    "HFmHFmHCMHCM": 8091,
    "HgMHEMHDM": 8092,
    "HBMHBD7HEm": 8093,
    "HEm7HAMHEm7": 8094,
    "HbMHFMHbMHDm": 8095,
    "HAmHFMHAmHFMHAmHFM": 8096,
    "HFMHCMHEm7": 8097,
    "HDMHAmHEm": 8098,
    "HFoHC+": 8099,
    "HemHbMHemHbM": 8100,
    "HD+HCMHDm": 8101,
    "HGm7HGm7HDm7": 8102,
    "HDmHeMHDm": 8103,
    "HbMHDMHDM": 8104,
    "HbMHaMHgM": 8105,
    "Hgsus2HFo": 8106,
    "HCMHAmHCM7": 8107,
    "HFsus4HFsus2": 8108,
    "Hbm7HGm7": 8109,
    "HCMHED7HAm": 8110,
    "HEMHAMHED7": 8111,
    "HAmHNAHAm": 8112,
    "HAoHao": 8113,
    "HBmHBmHBMHBM": 8114,
    "HgMHgMHam7": 8115,
    "HDMHEmHDMHEmHDMHEm": 8116,
    "HEMHGMHAM": 8117,
    "HNAHNAHCMHCMHCMHCM": 8118,
    "HBmHEmHAMHDM": 8119,
    "HCm7HEm": 8120,
    "HEMHEMHEMHEsus2HEsus2HEsus2HEsus2": 8121,
    "HEMHEMHEMHDsus2": 8122,
    "Hd+HeM": 8123,
    "HDmHbM7HFMHFM": 8124,
    "HdoHdMHdM": 8125,
    "HCMHFMHFMHeM": 8126,
    "Ham7HEMHEM": 8127,
    "HFmHCMHCm": 8128,
    "HCoHFm": 8129,
    "HGD7HGMHGM": 8130,
    "HGmHCD7HFM": 8131,
    "HBmHAMHgm": 8132,
    "HAMHAMHEMHAM": 8133,
    "HDmHDm7HDmHDm": 8134,
    "HdMHdMHBMHBM": 8135,
    "HFM7HFM7HFM7HFM7HFM7": 8136,
    "Hdm7Hdsus2": 8137,
    "HGm7HCMHGM": 8138,
    "HeMHeMHeMHeMHbM": 8139,
    "HeMHCsus2": 8140,
    "HDMHGMHDMHDMHDMHGM": 8141,
    "HGm7HC+": 8142,
    "HDMHEoHDMHEo": 8143,
    "HD+Hdo": 8144,
    "HDMHFMHAM": 8145,
    "HEMHEMHAsus2": 8146,
    "HCoHdMHdM": 8147,
    "HBMHEmHEmHEm": 8148,
    "HCMHCMHGMHFM": 8149,
    "HGmHFMHCD7": 8150,
    "HCD7Hbo": 8151,
    "HAMHAMHao": 8152,
    "HdmHDMHEM": 8153,
    "HEMHNAHNAHNAHNA": 8154,
    "HGMHAMHDMHgm": 8155,
    "HEm7HDm7HDm7": 8156,
    "HamHGo": 8157,
    "HAmHDMHGM7HGM7": 8158,
    "HGMHGsus4HGMHGsus4": 8159,
    "HdmHgmHgm": 8160,
    "Ha+Hbo": 8161,
    "HCD7HEM": 8162,
    "HAM7HFM": 8163,
    "HAD7HbD7": 8164,
    "HGm7HGm7HGmHGm": 8165,
    "HAMHEmHEm": 8166,
    "HdM7HaMHeD7HaMHFm7": 8167,
    "HF+Hbm7": 8168,
    "HGM7HGM7HGM7HGM7HGM7HGM7": 8169,
    "HFM7HCMHAm": 8170,
    "HFoHFsus2": 8171,
    "HFMHFMHbmHbm": 8172,
    "HDmHDmHEm": 8173,
    "HCMHFMHCMHFsus2": 8174,
    "HbMHAD7": 8175,
    "HbMHCsus4": 8176,
    "HBsus2HGM7": 8177,
    "HdoHEM7": 8178,
    "HbMHFMHCmHeM": 8179,
    "Hem7HEM7": 8180,
    "HAm7HBD7": 8181,
    "HDMHAMHDMHgm": 8182,
    "HDMHDMHGMHDMHDM": 8183,
    "HGMHDMHD+": 8184,
    "HeoHeD7": 8185,
    "HCmHaMHdM": 8186,
    "HBM7HBMHBM7": 8187,
    "Ham7HEM": 8188,
    "HeMHeMHeD7": 8189,
    "HaM7HGm7HFm7": 8190,
    "HEoHAsus4": 8191,
    "HeMHFMHaM7": 8192,
    "HGMHFM7HGMHFM7": 8193,
    "HCoHbo": 8194,
    "HFM7HFM7HEm7": 8195,
    "HemHeMHemHeMHemHeM": 8196,
    "HCm7Hem": 8197,
    "HFMHF+": 8198,
    "HDM7HCsus2": 8199,
    "HDsus2HCMHGM": 8200,
    "HbMHeMHFD7": 8201,
    "HemHemHBM": 8202,
    "HdoHEsus2": 8203,
    "Hesus2HDm7": 8204,
    "HAD7Hbo": 8205,
    "Hdm7HEsus2": 8206,
    "HCm7HFD7HCm7HFD7": 8207,
    "HAMHe+": 8208,
    "HDM7HAo": 8209,
    "HeMHaMHFm": 8210,
    "HDMHDMHGmHGmHDMHDMHGmHGm": 8211,
    "HNAHNAHCm": 8212,
    "HD+HCMHDM": 8213,
    "HGm7HFMHCM": 8214,
    "HAmHAmHAmHBo": 8215,
    "HFMHEmHDm": 8216,
    "HC+HEo": 8217,
    "HCMHeMHCMHGMHCmHGMHGM": 8218,
    "HGM7HEmHEm": 8219,
    "HBoHFMHFM": 8220,
    "HDmHGMHDM": 8221,
    "HDMHDMHDMHGsus2": 8222,
    "HEoHCD7HCD7": 8223,
    "HE+HdM": 8224,
    "HaMHGsus4": 8225,
    "HeMHFMHeMHeM": 8226,
    "HDsus2HDmHDm": 8227,
    "HemHemHbmHbm": 8228,
    "HD+HDM7": 8229,
    "HDmHDMHDMHDMHDM": 8230,
    "HdmHEsus2": 8231,
    "HCmHCmHFD7": 8232,
    "HFMHFMHFMHFMHFMHFM7": 8233,
    "HAMHeMHAMHeM": 8234,
    "HaMHesus4": 8235,
    "HFmHFmHdM7HeM": 8236,
    "HNAHNAHDMHDM": 8237,
    "HamHeMHamHeM": 8238,
    "HNAHDmHDm": 8239,
    "HCMHbMHCMHDM": 8240,
    "HFm7Hdsus2": 8241,
    "HAMHAMHAMHEM": 8242,
    "HeoHeM7": 8243,
    "HGD7HCMHFM7": 8244,
    "HCsus4HCM7": 8245,
    "HCsus2HFMHCsus2": 8246,
    "HFMHFMHFMHFMHNA": 8247,
    "HDMHCM7HBMHEm": 8248,
    "HgmHe+": 8249,
    "HBMHDMHGM": 8250,
    "HNAHAmHAm": 8251,
    "HCmHCm7HCmHeM7": 8252,
    "HDm7HEsus2": 8253,
    "HDMHDMHAMHEM": 8254,
    "HAD7HGo": 8255,
    "HgoHBm": 8256,
    "HD+HCMHFM": 8257,
    "HCM7HCM7HEm7": 8258,
    "HCMHGMHFMHCM": 8259,
    "HDMHDMHDMHDMHDMHDMHDMHDMHDMHDMHDMHDMHDMHDM": 8260,
    "HFMHFMHCm7": 8261,
    "HCm7HeMHeMHeM": 8262,
    "HaMHaMHNAHNA": 8263,
    "Hasus2HaMHeMHeM": 8264,
    "HEsus4HAm": 8265,
    "HED7HgmHDMHAM": 8266,
    "HDMHeMHbM": 8267,
    "HNAHDmHNA": 8268,
    "HDm7HDm7HbM7": 8269,
    "HCM7HCM7HCM7HCM7HCM7": 8270,
    "HgmHao": 8271,
    "HEMHdmHgm": 8272,
    "HeMHaMHFM": 8273,
    "HDMHDMHDMHDMHBm7": 8274,
    "HAmHEmHFMHGM": 8275,
    "HamHaMHaM": 8276,
    "HD+Hgm": 8277,
    "HCMHEMHBM": 8278,
    "HaoHAmHAm": 8279,
    "HEmHEMHAm": 8280,
    "HeD7HCD7": 8281,
    "HA+HA+HA+": 8282,
    "HAMHCMHGM": 8283,
    "HCMHEoHEo": 8284,
    "HDD7HCm": 8285,
    "HEMHEMHEMHEMHEmHEm": 8286,
    "HCM7HgM": 8287,
    "HGoHDo": 8288,
    "HDMHGMHBm": 8289,
    "HDD7Hao": 8290,
    "HAmHGmHGm": 8291,
    "HFMHFMHbMHbMHbM": 8292,
    "HeoHe+": 8293,
    "HCD7HDo": 8294,
    "HFMHFMHFMHFo": 8295,
    "HAmHEMHED7": 8296,
    "HFm7HbMHFm7": 8297,
    "HDMHDsus4HDMHDsus4": 8298,
[...]
